<unk>	0
<s>	0
</s>	0
<pad>	0
<0x00>	0
<0x01>	0
<0x02>	0
<0x03>	0
<0x04>	0
<0x05>	0
<0x06>	0
<0x07>	0
<0x08>	0
<0x09>	0
<0x0A>	0
<0x0B>	0
<0x0C>	0
<0x0D>	0
<0x0E>	0
<0x0F>	0
<0x10>	0
<0x11>	0
<0x12>	0
<0x13>	0
<0x14>	0
<0x15>	0
<0x16>	0
<0x17>	0
<0x18>	0
<0x19>	0
<0x1A>	0
<0x1B>	0
<0x1C>	0
<0x1D>	0
<0x1E>	0
<0x1F>	0
<0x20>	0
<0x21>	0
<0x22>	0
<0x23>	0
<0x24>	0
<0x25>	0
<0x26>	0
<0x27>	0
<0x28>	0
<0x29>	0
<0x2A>	0
<0x2B>	0
<0x2C>	0
<0x2D>	0
<0x2E>	0
<0x2F>	0
<0x30>	0
<0x31>	0
<0x32>	0
<0x33>	0
<0x34>	0
<0x35>	0
<0x36>	0
<0x37>	0
<0x38>	0
<0x39>	0
<0x3A>	0
<0x3B>	0
<0x3C>	0
<0x3D>	0
<0x3E>	0
<0x3F>	0
<0x40>	0
<0x41>	0
<0x42>	0
<0x43>	0
<0x44>	0
<0x45>	0
<0x46>	0
<0x47>	0
<0x48>	0
<0x49>	0
<0x4A>	0
<0x4B>	0
<0x4C>	0
<0x4D>	0
<0x4E>	0
<0x4F>	0
<0x50>	0
<0x51>	0
<0x52>	0
<0x53>	0
<0x54>	0
<0x55>	0
<0x56>	0
<0x57>	0
<0x58>	0
<0x59>	0
<0x5A>	0
<0x5B>	0
<0x5C>	0
<0x5D>	0
<0x5E>	0
<0x5F>	0
<0x60>	0
<0x61>	0
<0x62>	0
<0x63>	0
<0x64>	0
<0x65>	0
<0x66>	0
<0x67>	0
<0x68>	0
<0x69>	0
<0x6A>	0
<0x6B>	0
<0x6C>	0
<0x6D>	0
<0x6E>	0
<0x6F>	0
<0x70>	0
<0x71>	0
<0x72>	0
<0x73>	0
<0x74>	0
<0x75>	0
<0x76>	0
<0x77>	0
<0x78>	0
<0x79>	0
<0x7A>	0
<0x7B>	0
<0x7C>	0
<0x7D>	0
<0x7E>	0
<0x7F>	0
<0x80>	0
<0x81>	0
<0x82>	0
<0x83>	0
<0x84>	0
<0x85>	0
<0x86>	0
<0x87>	0
<0x88>	0
<0x89>	0
<0x8A>	0
<0x8B>	0
<0x8C>	0
<0x8D>	0
<0x8E>	0
<0x8F>	0
<0x90>	0
<0x91>	0
<0x92>	0
<0x93>	0
<0x94>	0
<0x95>	0
<0x96>	0
<0x97>	0
<0x98>	0
<0x99>	0
<0x9A>	0
<0x9B>	0
<0x9C>	0
<0x9D>	0
<0x9E>	0
<0x9F>	0
<0xA0>	0
<0xA1>	0
<0xA2>	0
<0xA3>	0
<0xA4>	0
<0xA5>	0
<0xA6>	0
<0xA7>	0
<0xA8>	0
<0xA9>	0
<0xAA>	0
<0xAB>	0
<0xAC>	0
<0xAD>	0
<0xAE>	0
<0xAF>	0
<0xB0>	0
<0xB1>	0
<0xB2>	0
<0xB3>	0
<0xB4>	0
<0xB5>	0
<0xB6>	0
<0xB7>	0
<0xB8>	0
<0xB9>	0
<0xBA>	0
<0xBB>	0
<0xBC>	0
<0xBD>	0
<0xBE>	0
<0xBF>	0
<0xC0>	0
<0xC1>	0
<0xC2>	0
<0xC3>	0
<0xC4>	0
<0xC5>	0
<0xC6>	0
<0xC7>	0
<0xC8>	0
<0xC9>	0
<0xCA>	0
<0xCB>	0
<0xCC>	0
<0xCD>	0
<0xCE>	0
<0xCF>	0
<0xD0>	0
<0xD1>	0
<0xD2>	0
<0xD3>	0
<0xD4>	0
<0xD5>	0
<0xD6>	0
<0xD7>	0
<0xD8>	0
<0xD9>	0
<0xDA>	0
<0xDB>	0
<0xDC>	0
<0xDD>	0
<0xDE>	0
<0xDF>	0
<0xE0>	0
<0xE1>	0
<0xE2>	0
<0xE3>	0
<0xE4>	0
<0xE5>	0
<0xE6>	0
<0xE7>	0
<0xE8>	0
<0xE9>	0
<0xEA>	0
<0xEB>	0
<0xEC>	0
<0xED>	0
<0xEE>	0
<0xEF>	0
<0xF0>	0
<0xF1>	0
<0xF2>	0
<0xF3>	0
<0xF4>	0
<0xF5>	0
<0xF6>	0
<0xF7>	0
<0xF8>	0
<0xF9>	0
<0xFA>	0
<0xFB>	0
<0xFC>	0
<0xFD>	0
<0xFE>	0
<0xFF>	0
es	-0
▁a	-1
▁d	-2
▁t	-3
on	-4
in	-5
er	-6
en	-7
▁p	-8
▁s	-9
ou	-10
▁l	-11
re	-12
▁c	-13
an	-14
is	-15
it	-16
he	-17
at	-18
or	-19
ar	-20
▁de	-21
▁m	-22
▁f	-23
ent	-24
le	-25
▁the	-26
▁b	-27
ion	-28
et	-29
al	-30
▁w	-31
qu	-32
om	-33
il	-34
ing	-35
▁an	-36
ic	-37
▁o	-38
ur	-39
as	-40
un	-41
▁in	-42
▁n	-43
ed	-44
our	-45
el	-46
▁to	-47
ro	-48
us	-49
▁v	-50
▁C	-51
▁h	-52
▁and	-53
▁of	-54
▁S	-55
ct	-56
ve	-57
▁A	-58
▁la	-59
▁T	-60
▁r	-61
▁g	-62
▁th	-63
te	-64
▁le	-65
ir	-66
ment	-67
▁et	-68
ce	-69
est	-70
▁L	-71
▁P	-72
ation	-73
▁M	-74
▁I	-75
▁qu	-76
ot	-77
▁un	-78
▁e	-79
os	-80
ut	-81
▁re	-82
ch	-83
ra	-84
id	-85
▁en	-86
ol	-87
▁à	-88
ant	-89
▁y	-90
im	-91
ag	-92
ig	-93
ers	-94
▁B	-95
am	-96
▁des	-97
ous	-98
▁2	-99
▁D	-100
ont	-101
ie	-102
▁les	-103
▁for	-104
▁pro	-105
ay	-106
▁1	-107
▁on	-108
ul	-109
▁F	-110
ess	-111
ad	-112
▁com	-113
▁j	-114
▁is	-115
ri	-116
▁R	-117
ans	-118
▁par	-119
▁E	-120
ow	-121
ter	-122
▁be	-123
if	-124
ab	-125
pp	-126
out	-127
ill	-128
▁pl	-129
ire	-130
ly	-131
▁pour	-132
and	-133
ac	-134
▁con	-135
▁H	-136
▁(	-137
▁se	-138
ver	-139
▁N	-140
▁st	-141
ne	-142
▁W	-143
ith	-144
▁ch	-145
ux	-146
▁du	-147
és	-148
▁é	-149
ort	-150
ain	-151
iv	-152
▁G	-153
que	-154
me	-155
▁pr	-156
..	-157
▁with	-158
▁al	-159
▁20	-160
oc	-161
▁you	-162
▁wh	-163
▁that	-164
ais	-165
ist	-166
od	-167
se	-168
ure	-169
end	-170
▁ne	-171
▁as	-172
ate	-173
▁dé	-174
▁ex	-175
age	-176
▁sur	-177
▁J	-178
op	-179
st	-180
▁it	-181
▁O	-182
▁su	-183
▁-	-184
▁une	-185
ite	-186
▁est	-187
▁The	-188
um	-189
ien	-190
th	-191
▁V	-192
ée	-193
▁dans	-194
▁at	-195
au	-196
ine	-197
pe	-198
ore	-199
▁are	-200
▁au	-201
ke	-202
▁or	-203
▁que	-204
pr	-205
ff	-206
em	-207
ge	-208
ard	-209
▁pas	-210
▁fr	-211
ér	-212
ction	-213
▁fa	-214
▁ha	-215
▁:	-216
ere	-217
ique	-218
ive	-219
pl	-220
▁U	-221
ance	-222
ies	-223
ell	-224
og	-225
▁qui	-226
igh	-227
▁he	-228
ue	-229
00	-230
ier	-231
▁tr	-232
ap	-233
ust	-234
▁"	-235
oun	-236
ib	-237
▁we	-238
▁your	-239
urs	-240
▁ré	-241
ud	-242
all	-243
ity	-244
▁not	-245
du	-246
ld	-247
▁In	-248
▁201	-249
▁vous	-250
res	-251
art	-252
able	-253
ons	-254
vec	-255
ale	-256
ité	-257
▁plus	-258
ions	-259
elle	-260
ial	-261
▁Le	-262
▁Th	-263
cc	-264
ond	-265
ide	-266
ice	-267
▁sa	-268
▁comp	-269
▁can	-270
ost	-271
ome	-272
▁have	-273
▁3	-274
▁avec	-275
▁cont	-276
ille	-277
ip	-278
up	-279
▁pe	-280
▁part	-281
ub	-282
▁ma	-283
▁from	-284
▁by	-285
ok	-286
ations	-287
▁cl	-288
ert	-289
▁this	-290
▁ou	-291
▁sh	-292
▁ce	-293
orm	-294
▁ser	-295
▁us	-296
▁tra	-297
▁will	-298
oin	-299
▁was	-300
ient	-301
ob	-302
ight	-303
▁ar	-304
▁me	-305
▁im	-306
▁av	-307
iè	-308
anc	-309
pt	-310
ès	-311
ise	-312
ign	-313
▁Ch	-314
ia	-315
▁K	-316
▁ad	-317
▁gr	-318
tre	-319
▁ab	-320
...	-321
ait	-322
▁app	-323
▁so	-324
ét	-325
ens	-326
ile	-327
▁per	-328
▁all	-329
ace	-330
éc	-331
les	-332
av	-333
ord	-334
ult	-335
are	-336
ast	-337
mb	-338
ors	-339
ear	-340
▁ét	-341
▁k	-342
one	-343
ques	-344
iss	-345
oy	-346
onn	-347
ind	-348
▁La	-349
oir	-350
ence	-351
port	-352
ong	-353
ook	-354
ich	-355
cl	-356
▁do	-357
▁je	-358
ork	-359
gh	-360
ass	-361
ées	-362
▁res	-363
act	-364
ition	-365
che	-366
▁Y	-367
ois	-368
ail	-369
ould	-370
ack	-371
▁man	-372
▁comm	-373
aire	-374
une	-375
▁te	-376
ouv	-377
▁ent	-378
ime	-379
ette	-380
▁off	-381
form	-382
▁go	-383
▁has	-384
air	-385
ments	-386
▁il	-387
▁St	-388
▁mar	-389
ose	-390
▁Re	-391
▁dis	-392
▁4	-393
▁En	-394
ak	-395
ect	-396
▁out	-397
otre	-398
▁5	-399
▁sont	-400
ach	-401
iz	-402
com	-403
ps	-404
per	-405
▁An	-406
ang	-407
▁int	-408
ru	-409
20	-410
ally	-411
ours	-412
▁pre	-413
▁son	-414
vel	-415
ough	-416
▁but	-417
▁|	-418
▁acc	-419
ry	-420
ph	-421
ants	-422
▁–	-423
si	-424
ven	-425
ays	-426
▁am	-427
ts	-428
ound	-429
ated	-430
▁inter	-431
her	-432
ré	-433
▁up	-434
lic	-435
aux	-436
▁votre	-437
ase	-438
▁more	-439
enc	-440
▁Les	-441
▁De	-442
▁sp	-443
ov	-444
its	-445
iff	-446
▁«	-447
▁»	-448
so	-449
▁aut	-450
ents	-451
▁their	-452
▁Com	-453
▁pers	-454
use	-455
én	-456
▁Al	-457
▁our	-458
▁aux	-459
▁tout	-460
▁produ	-461
ric	-462
ures	-463
▁mais	-464
▁col	-465
ern	-466
▁my	-467
li	-468
▁fe	-469
▁they	-470
▁Un	-471
ière	-472
▁ag	-473
ck	-474
ame	-475
aut	-476
▁cons	-477
▁serv	-478
▁nous	-479
▁Fr	-480
ary	-481
▁li	-482
▁rec	-483
éd	-484
pos	-485
ther	-486
ég	-487
▁one	-488
ree	-489
▁car	-490
▁!	-491
▁Il	-492
▁fin	-493
uis	-494
▁We	-495
▁ro	-496
▁work	-497
▁pos	-498
▁about	-499
ett	-500
▁ph	-501
reat	-502
iques	-503
ai	-504
▁sc	-505
▁co	-506
ys	-507
▁ind	-508
▁It	-509
oi	-510
él	-511
▁new	-512
ple	-513
ex	-514
▁6	-515
▁diff	-516
rit	-517
ouve	-518
ical	-519
ible	-520
▁Mar	-521
mes	-522
▁bl	-523
▁act	-524
els	-525
ick	-526
own	-527
▁0	-528
▁min	-529
▁which	-530
vent	-531
ove	-532
).	-533
▁also	-534
▁Q	-535
▁year	-536
▁19	-537
app	-538
mer	-539
▁mat	-540
ages	-541
ings	-542
être	-543
eur	-544
▁who	-545
▁Wh	-546
aires	-547
▁che	-548
▁cette	-549
ress	-550
ui	-551
▁time	-552
▁7	-553
lect	-554
onne	-555
ely	-556
▁Ne	-557
ets	-558
▁This	-559
ount	-560
ident	-561
ices	-562
ood	-563
olog	-564
▁eff	-565
▁Par	-566
der	-567
▁prof	-568
▁Pro	-569
ram	-570
▁bien	-571
▁10	-572
▁some	-573
),	-574
▁?	-575
oup	-576
▁any	-577
▁his	-578
ish	-579
ep	-580
▁ass	-581
ade	-582
ession	-583
ins	-584
▁ann	-585
▁br	-586
ner	-587
éri	-588
▁mod	-589
▁ont	-590
ces	-591
ese	-592
▁Je	-593
oci	-594
▁att	-595
ink	-596
▁déc	-597
ual	-598
pect	-599
ild	-600
▁8	-601
tt	-602
ange	-603
▁been	-604
ère	-605
▁&	-606
int	-607
▁need	-608
▁af	-609
de	-610
very	-611
ery	-612
▁entre	-613
ann	-614
▁ret	-615
▁just	-616
▁conf	-617
▁ter	-618
ock	-619
▁fait	-620
aint	-621
▁tou	-622
ss	-623
▁ses	-624
▁vis	-625
▁like	-626
io	-627
▁over	-628
elles	-629
▁Ar	-630
▁fl	-631
▁when	-632
▁don	-633
ian	-634
tem	-635
util	-636
bre	-637
▁pri	-638
▁été	-639
gan	-640
oll	-641
▁9	-642
▁pub	-643
par	-644
▁supp	-645
ême	-646
▁prov	-647
ber	-648
ix	-649
▁kn	-650
ussi	-651
chn	-652
▁faire	-653
▁there	-654
iew	-655
ats	-656
▁them	-657
▁sol	-658
▁if	-659
amp	-660
day	-661
▁rem	-662
▁ta	-663
▁comme	-664
▁other	-665
erv	-666
endre	-667
ory	-668
▁get	-669
▁He	-670
ivers	-671
aine	-672
▁loc	-673
ouver	-674
▁rel	-675
cre	-676
▁no	-677
▁hel	-678
ific	-679
min	-680
ourn	-681
ank	-682
ek	-683
▁rés	-684
ational	-685
▁/	-686
▁ob	-687
iers	-688
ft	-689
▁grand	-690
▁em	-691
ates	-692
▁trans	-693
▁trav	-694
▁dire	-695
ues	-696
▁its	-697
alis	-698
irst	-699
▁perm	-700
ci	-701
▁what	-702
▁pass	-703
▁prés	-704
▁Pl	-705
ople	-706
▁On	-707
▁ins	-708
▁200	-709
▁art	-710
▁would	-711
▁incl	-712
wn	-713
▁très	-714
ôt	-715
ject	-716
▁how	-717
▁reg	-718
▁You	-719
az	-720
▁sim	-721
oire	-722
ict	-723
ath	-724
▁her	-725
▁conc	-726
près	-727
▁dev	-728
▁gu	-729
▁Pour	-730
▁aussi	-731
▁inv	-732
▁prem	-733
▁tem	-734
arg	-735
ici	-736
▁bu	-737
▁long	-738
ll	-739
ante	-740
itt	-741
ari	-742
ble	-743
▁look	-744
▁add	-745
▁leur	-746
▁had	-747
▁said	-748
▁deux	-749
ense	-750
oth	-751
▁New	-752
▁form	-753
▁into	-754
▁Se	-755
ool	-756
cher	-757
alement	-758
▁commun	-759
▁make	-760
▁fam	-761
ités	-762
▁pol	-763
▁être	-764
▁were	-765
tern	-766
▁inform	-767
pec	-768
▁tw	-769
ature	-770
ution	-771
ater	-772
be	-773
▁partic	-774
ating	-775
▁site	-776
▁Sh	-777
old	-778
▁nom	-779
▁prop	-780
ente	-781
rough	-782
ful	-783
▁prog	-784
ctions	-785
ives	-786
iness	-787
mand	-788
ause	-789
▁fil	-790
▁help	-791
led	-792
▁people	-793
ption	-794
itu	-795
▁[	-796
év	-797
▁ans	-798
oint	-799
000	-800
arn	-801
▁poss	-802
ez	-803
▁personn	-804
ER	-805
▁inst	-806
▁than	-807
▁Cl	-808
cess	-809
ains	-810
oul	-811
▁mont	-812
ém	-813
we	-814
▁Qu	-815
▁place	-816
▁ac	-817
▁sec	-818
▁includ	-819
▁For	-820
let	-821
▁qual	-822
▁cor	-823
ug	-824
▁peut	-825
arge	-826
▁high	-827
▁cour	-828
ket	-829
opp	-830
▁know	-831
ience	-832
▁dep	-833
▁most	-834
érie	-835
▁techn	-836
▁first	-837
▁si	-838
▁may	-839
att	-840
isse	-841
▁bec	-842
▁sal	-843
ines	-844
▁vos	-845
▁well	-846
ities	-847
iste	-848
usiness	-849
▁pet	-850
▁peu	-851
▁même	-852
utilis	-853
entre	-854
▁every	-855
ash	-856
▁use	-857
▁exp	-858
any	-859
▁cert	-860
▁Bl	-861
als	-862
▁enc	-863
▁through	-864
▁Gr	-865
ites	-866
21	-867
rib	-868
co	-869
ils	-870
ES	-871
line	-872
oins	-873
urn	-874
▁$	-875
▁Ex	-876
ative	-877
▁,	-878
▁If	-879
▁met	-880
▁tous	-881
▁12	-882
▁sans	-883
ON	-884
▁Be	-885
▁dur	-886
▁rest	-887
igne	-888
uss	-889
▁back	-890
▁15	-891
▁bet	-892
▁sy	-893
▁notre	-894
ily	-895
▁cou	-896
agn	-897
bl	-898
▁bas	-899
con	-900
▁only	-901
orld	-902
row	-903
dit	-904
ww	-905
▁cr	-906
ah	-907
ances	-908
▁Con	-909
ife	-910
▁very	-911
▁const	-912
▁cap	-913
ème	-914
onde	-915
ower	-916
▁vers	-917
und	-918
-1	-919
▁ces	-920
▁.	-921
▁Ad	-922
ron	-923
▁env	-924
201	-925
▁som	-926
ode	-927
▁good	-928
▁sm	-929
ider	-930
▁And	-931
▁mon	-932
bs	-933
êt	-934
."	-935
iel	-936
▁...	-937
▁vo	-938
▁bo	-939
arm	-940
rop	-941
▁play	-942
ule	-943
fin	-944
ract	-945
▁two	-946
ics	-947
▁op	-948
▁quel	-949
▁service	-950
▁'	-951
▁these	-952
▁want	-953
▁cas	-954
▁stud	-955
rent	-956
▁As	-957
▁18	-958
jet	-959
▁she	-960
ten	-961
▁Vous	-962
▁import	-963
▁years	-964
▁design	-965
▁cre	-966
▁program	-967
▁Pr	-968
▁many	-969
ular	-970
▁mill	-971
▁Ce	-972
uch	-973
▁sign	-974
▁home	-975
▁ke	-976
▁num	-977
▁France	-978
ards	-979
velop	-980
▁best	-981
▁11	-982
iqu	-983
king	-984
▁after	-985
▁phot	-986
▁mus	-987
▁great	-988
ches	-989
land	-990
alth	-991
esp	-992
ouse	-993
▁mem	-994
▁El	-995
uit	-996
ied	-997
ope	-998
iment	-999
ave	-1000
asse	-1001
▁rev	-1002
mbre	-1003
▁str	-1004
▁start	-1005
raph	-1006
ateur	-1007
▁Ph	-1008
▁organ	-1009
riv	-1010
▁ég	-1011
xt	-1012
▁Z	-1013
pro	-1014
▁ty	-1015
▁rég	-1016
ener	-1017
▁dern	-1018
▁find	-1019
fore	-1020
▁week	-1021
▁dou	-1022
ene	-1023
IN	-1024
ital	-1025
ystem	-1026
ility	-1027
▁quest	-1028
era	-1029
▁Et	-1030
▁sou	-1031
▁way	-1032
▁fac	-1033
▁Tr	-1034
ises	-1035
▁intern	-1036
▁now	-1037
hip	-1038
ows	-1039
▁aff	-1040
ients	-1041
▁public	-1042
▁see	-1043
▁profession	-1044
orte	-1045
elf	-1046
▁cré	-1047
AN	-1048
▁gl	-1049
mber	-1050
▁direct	-1051
ieux	-1052
▁should	-1053
hed	-1054
▁ext	-1055
insi	-1056
inc	-1057
lection	-1058
ton	-1059
ull	-1060
▁business	-1061
▁Des	-1062
ious	-1063
▁could	-1064
uc	-1065
▁down	-1066
erm	-1067
▁pres	-1068
dition	-1069
▁temps	-1070
ales	-1071
▁exper	-1072
ars	-1073
▁even	-1074
▁product	-1075
▁Une	-1076
▁post	-1077
iter	-1078
▁read	-1079
▁pat	-1080
▁services	-1081
▁non	-1082
eng	-1083
ision	-1084
ables	-1085
▁liv	-1086
▁spec	-1087
▁nos	-1088
erc	-1089
▁inf	-1090
icle	-1091
enn	-1092
anç	-1093
cri	-1094
ole	-1095
▁where	-1096
▁elle	-1097
▁end	-1098
aur	-1099
▁requ	-1100
▁mot	-1101
▁pré	-1102
▁donn	-1103
▁day	-1104
▁ve	-1105
idé	-1106
▁30	-1107
▁dist	-1108
▁support	-1109
▁port	-1110
▁propos	-1111
▁nouv	-1112
ited	-1113
AR	-1114
▁Nous	-1115
▁expl	-1116
▁jour	-1117
pon	-1118
orn	-1119
ela	-1120
▁cal	-1121
50	-1122
chool	-1123
▁également	-1124
hing	-1125
▁sé	-1126
▁take	-1127
▁contin	-1128
▁bel	-1129
get	-1130
//	-1131
▁then	-1132
qui	-1133
way	-1134
ince	-1135
ission	-1136
imes	-1137
▁14	-1138
jour	-1139
▁ref	-1140
ms	-1141
ides	-1142
30	-1143
af	-1144
▁utilis	-1145
acc	-1146
été	-1147
▁jus	-1148
▁>	-1149
10	-1150
EN	-1151
▁16	-1152
▁év	-1153
://	-1154
ves	-1155
part	-1156
▁ple	-1157
ête	-1158
▁i	-1159
▁right	-1160
ced	-1161
▁much	-1162
▁Car	-1163
▁vie	-1164
▁depuis	-1165
eurs	-1166
ences	-1167
▁encore	-1168
▁differ	-1169
▁nombre	-1170
ata	-1171
▁cent	-1172
oad	-1173
▁lui	-1174
▁sub	-1175
▁demand	-1176
prise	-1177
▁develop	-1178
ustom	-1179
nement	-1180
▁avant	-1181
aff	-1182
▁lead	-1183
▁here	-1184
aison	-1185
▁ainsi	-1186
erg	-1187
▁because	-1188
▁Te	-1189
▁hand	-1190
▁team	-1191
ason	-1192
man	-1193
▁information	-1194
▁ju	-1195
▁Acc	-1196
▁own	-1197
▁cha	-1198
endant	-1199
▁di	-1200
▁bon	-1201
oot	-1202
▁dec	-1203
▁made	-1204
ik	-1205
▁sous	-1206
ote	-1207
▁nouve	-1208
▁cur	-1209
▁mal	-1210
,"	-1211
▁2018	-1212
▁prom	-1213
ement	-1214
▁#	-1215
▁17	-1216
▁such	-1217
AT	-1218
▁X	-1219
▁Man	-1220
▁Col	-1221
illes	-1222
▁mes	-1223
isation	-1224
aient	-1225
élé	-1226
▁How	-1227
ieu	-1228
▁plan	-1229
iens	-1230
ration	-1231
▁gén	-1232
▁mom	-1233
▁lors	-1234
▁sav	-1235
▁world	-1236
▁situ	-1237
rois	-1238
▁vol	-1239
vez	-1240
▁process	-1241
▁sk	-1242
▁fois	-1243
▁13	-1244
▁gra	-1245
éra	-1246
▁Br	-1247
esse	-1248
▁being	-1249
▁Ind	-1250
▁again	-1251
▁val	-1252
oh	-1253
▁ess	-1254
▁comment	-1255
atique	-1256
ruct	-1257
▁med	-1258
▁donc	-1259
▁après	-1260
▁think	-1261
uses	-1262
▁last	-1263
ute	-1264
▁vari	-1265
▁2020	-1266
cept	-1267
▁person	-1268
▁used	-1269
▁system	-1270
▁où	-1271
▁activ	-1272
!!	-1273
ouvez	-1274
fr	-1275
▁Or	-1276
22	-1277
lex	-1278
▁repr	-1279
ross	-1280
▁inc	-1281
ize	-1282
▁market	-1283
▁before	-1284
▁fon	-1285
ax	-1286
▁soc	-1287
ather	-1288
tement	-1289
ager	-1290
▁Tra	-1291
▁important	-1292
RE	-1293
▁2019	-1294
▁htt	-1295
di	-1296
▁To	-1297
rist	-1298
▁eng	-1299
ral	-1300
agement	-1301
▁monde	-1302
▁So	-1303
encont	-1304
ilité	-1305
▁class	-1306
velopp	-1307
amb	-1308
▁disc	-1309
▁resp	-1310
▁Post	-1311
▁enf	-1312
ifs	-1313
▁did	-1314
▁effect	-1315
▁eas	-1316
vert	-1317
ollow	-1318
ake	-1319
aines	-1320
▁offer	-1321
▁dont	-1322
ention	-1323
▁App	-1324
oute	-1325
▁Cont	-1326
eau	-1327
▁All	-1328
jours	-1329
▁conn	-1330
▁There	-1331
▁hom	-1332
▁2017	-1333
▁éc	-1334
▁dro	-1335
conom	-1336
▁pop	-1337
oss	-1338
ends	-1339
▁dom	-1340
ames	-1341
▁life	-1342
IS	-1343
ually	-1344
▁point	-1345
▁top	-1346
▁free	-1347
▁does	-1348
▁pay	-1349
▁él	-1350
lement	-1351
▁fra	-1352
ép	-1353
ançais	-1354
▁leurs	-1355
▁lot	-1356
▁But	-1357
ium	-1358
▁sera	-1359
▁while	-1360
▁Si	-1361
iles	-1362
ox	-1363
utes	-1364
▁those	-1365
ploy	-1366
▁compl	-1367
orth	-1368
read	-1369
atch	-1370
▁perform	-1371
▁Sp	-1372
▁cle	-1373
▁po	-1374
▁opt	-1375
rait	-1376
ateurs	-1377
▁test	-1378
ières	-1379
por	-1380
▁imm	-1381
▁contact	-1382
oupe	-1383
▁24	-1384
ina	-1385
▁prix	-1386
▁simple	-1387
/0	-1388
▁care	-1389
ks	-1390
▁custom	-1391
▁Dans	-1392
▁Sc	-1393
ane	-1394
▁possible	-1395
▁exc	-1396
iron	-1397
atur	-1398
▁compr	-1399
▁adv	-1400
▁Su	-1401
gl	-1402
▁contre	-1403
▁Fl	-1404
▁book	-1405
▁Gu	-1406
▁déb	-1407
▁Am	-1408
▁really	-1409
▁jou	-1410
ward	-1411
earch	-1412
▁maint	-1413
▁bro	-1414
ieurs	-1415
▁around	-1416
▁Go	-1417
oud	-1418
▁Comm	-1419
▁soci	-1420
▁meille	-1421
quipe	-1422
▁différ	-1423
ott	-1424
▁Af	-1425
ograph	-1426
aw	-1427
▁rece	-1428
other	-1429
▁under	-1430
▁préc	-1431
ased	-1432
ren	-1433
▁hist	-1434
rir	-1435
rer	-1436
▁É	-1437
▁;	-1438
uf	-1439
▁Is	-1440
▁ed	-1441
▁company	-1442
for	-1443
▁toute	-1444
▁sort	-1445
▁fun	-1446
▁tour	-1447
▁avoir	-1448
▁access	-1449
▁moins	-1450
▁rapp	-1451
▁list	-1452
▁him	-1453
▁z	-1454
▁different	-1455
aiss	-1456
ailable	-1457
▁toutes	-1458
mble	-1459
abl	-1460
rat	-1461
▁permet	-1462
ety	-1463
▁invest	-1464
▁count	-1465
mar	-1466
▁suiv	-1467
▁spéc	-1468
▁quelques	-1469
▁2016	-1470
▁show	-1471
▁Co	-1472
▁beau	-1473
agne	-1474
▁sem	-1475
▁each	-1476
▁Mais	-1477
ology	-1478
▁fem	-1479
▁online	-1480
OU	-1481
▁second	-1482
▁toujours	-1483
▁pays	-1484
▁dés	-1485
▁tak	-1486
yn	-1487
erre	-1488
▁“	-1489
▁Can	-1490
▁25	-1491
▁méd	-1492
ways	-1493
▁US	-1494
▁report	-1495
ché	-1496
▁They	-1497
▁2021	-1498
▁With	-1499
quip	-1500
▁sl	-1501
work	-1502
▁iss	-1503
▁opp	-1504
iser	-1505
elon	-1506
▁mer	-1507
rol	-1508
▁21	-1509
inn	-1510
▁ste	-1511
antes	-1512
▁succ	-1513
ulture	-1514
yle	-1515
rain	-1516
▁month	-1517
▁hum	-1518
▁fact	-1519
▁—	-1520
ized	-1521
▁mois	-1522
▁coll	-1523
ça	-1524
▁experience	-1525
▁rencont	-1526
▁No	-1527
▁found	-1528
▁Me	-1529
ude	-1530
ever	-1531
▁love	-1532
▁Paris	-1533
▁recher	-1534
▁réalis	-1535
AL	-1536
▁run	-1537
▁child	-1538
IT	-1539
▁présent	-1540
▁pur	-1541
▁health	-1542
▁Au	-1543
▁fonction	-1544
sh	-1545
▁priv	-1546
▁développ	-1547
view	-1548
▁litt	-1549
less	-1550
▁tu	-1551
▁rep	-1552
aces	-1553
ivid	-1554
▁real	-1555
▁100	-1556
▁soit	-1557
▁particip	-1558
anche	-1559
▁change	-1560
▁Home	-1561
outh	-1562
utions	-1563
▁suis	-1564
gr	-1565
ler	-1566
▁available	-1567
ween	-1568
▁follow	-1569
▁going	-1570
ément	-1571
ying	-1572
/201	-1573
etting	-1574
▁Cette	-1575
aute	-1576
▁(1	-1577
▁both	-1578
▁personnes	-1579
lev	-1580
▁indust	-1581
▁puis	-1582
OR	-1583
isc	-1584
ness	-1585
▁applic	-1586
ha	-1587
▁mult	-1588
▁few	-1589
▁using	-1590
ros	-1591
alk	-1592
▁set	-1593
apt	-1594
▁prote	-1595
ders	-1596
▁project	-1597
ving	-1598
ger	-1599
▁still	-1600
",	-1601
▁conne	-1602
▁moment	-1603
meric	-1604
▁ça	-1605
▁déj	-1606
ctob	-1607
▁somet	-1608
▁pouvez	-1609
ware	-1610
▁though	-1611
▁stand	-1612
▁Res	-1613
▁fut	-1614
▁ris	-1615
▁Pre	-1616
▁lib	-1617
ellement	-1618
▁comb	-1619
AS	-1620
▁tri	-1621
▁cours	-1622
▁large	-1623
▁log	-1624
ec	-1625
enir	-1626
uel	-1627
▁happ	-1628
▁journ	-1629
ateg	-1630
book	-1631
istes	-1632
ield	-1633
▁men	-1634
▁camp	-1635
▁between	-1636
▁Im	-1637
ienne	-1638
In	-1639
ids	-1640
▁était	-1641
vern	-1642
gg	-1643
▁too	-1644
▁open	-1645
▁va	-1646
▁plusieurs	-1647
▁sens	-1648
ining	-1649
▁pu	-1650
▁rép	-1651
▁Che	-1652
ories	-1653
▁game	-1654
▁incre	-1655
▁ligne	-1656
▁webs	-1657
br	-1658
▁Pub	-1659
ired	-1660
▁fri	-1661
ulation	-1662
ortun	-1663
▁Intern	-1664
▁family	-1665
ody	-1666
rez	-1667
▁mob	-1668
▁pouv	-1669
▁conse	-1670
ots	-1671
▁ev	-1672
▁At	-1673
cle	-1674
▁during	-1675
▁including	-1676
oney	-1677
▁same	-1678
▁bes	-1679
igin	-1680
ior	-1681
▁lo	-1682
iche	-1683
▁grat	-1684
yl	-1685
▁page	-1686
entes	-1687
▁premier	-1688
vers	-1689
▁state	-1690
▁build	-1691
▁autres	-1692
11	-1693
ination	-1694
▁tot	-1695
▁…	-1696
▁feel	-1697
nes	-1698
▁22	-1699
▁She	-1700
▁Fe	-1701
▁chang	-1702
▁occ	-1703
▁es	-1704
▁three	-1705
▁social	-1706
▁Ab	-1707
irm	-1708
▁chez	-1709
▁bre	-1710
ération	-1711
▁Christ	-1712
▁trois	-1713
vous	-1714
ished	-1715
▁water	-1716
▁respons	-1717
▁appro	-1718
▁learn	-1719
▁face	-1720
coup	-1721
reen	-1722
▁May	-1723
▁nature	-1724
uite	-1725
▁sport	-1726
AC	-1727
▁gener	-1728
oix	-1729
▁imp	-1730
omm	-1731
ails	-1732
▁avait	-1733
▁cost	-1734
▁sure	-1735
▁lim	-1736
▁2015	-1737
▁When	-1738
isme	-1739
▁professionn	-1740
▁travail	-1741
▁ide	-1742
inter	-1743
▁vra	-1744
thing	-1745
▁super	-1746
▁français	-1747
The	-1748
▁polit	-1749
▁cho	-1750
ister	-1751
▁memb	-1752
▁come	-1753
▁minutes	-1754
ding	-1755
ges	-1756
fe	-1757
▁Americ	-1758
▁My	-1759
▁maison	-1760
▁Serv	-1761
▁faut	-1762
uv	-1763
▁tit	-1764
▁keep	-1765
▁sour	-1766
▁Aut	-1767
▁What	-1768
rive	-1769
▁23	-1770
oor	-1771
▁exam	-1772
▁2014	-1773
uer	-1774
▁main	-1775
▁provide	-1776
▁small	-1777
fect	-1778
▁Eur	-1779
itch	-1780
ié	-1781
▁parf	-1782
ists	-1783
▁maj	-1784
".	-1785
▁film	-1786
▁cela	-1787
enant	-1788
▁jours	-1789
▁local	-1790
ved	-1791
▁alors	-1792
▁jusqu	-1793
xim	-1794
aud	-1795
rier	-1796
IC	-1797
▁question	-1798
▁Ass	-1799
▁vide	-1800
▁better	-1801
▁ant	-1802
ipp	-1803
▁dét	-1804
▁always	-1805
▁nouveau	-1806
iller	-1807
▁school	-1808
éf	-1809
ones	-1810
▁result	-1811
of	-1812
arr	-1813
▁2012	-1814
▁Saint	-1815
aly	-1816
▁déf	-1817
▁say	-1818
▁Elle	-1819
▁Our	-1820
LE	-1821
ocu	-1822
▁2013	-1823
▁air	-1824
▁cher	-1825
▁chaque	-1826
edi	-1827
▁put	-1828
omp	-1829
ley	-1830
▁financ	-1831
▁nouvelle	-1832
▁50	-1833
▁produits	-1834
▁eur	-1835
ueil	-1836
▁Art	-1837
▁next	-1838
Un	-1839
▁clients	-1840
▁mach	-1841
ande	-1842
▁ens	-1843
▁things	-1844
▁suite	-1845
▁projet	-1846
▁char	-1847
▁gar	-1848
ception	-1849
▁afin	-1850
▁little	-1851
▁unique	-1852
▁dép	-1853
▁déjà	-1854
place	-1855
▁interest	-1856
oints	-1857
▁rap	-1858
▁qualité	-1859
▁big	-1860
ût	-1861
arly	-1862
ark	-1863
▁trouver	-1864
ication	-1865
cent	-1866
ret	-1867
duct	-1868
iversity	-1869
▁diffic	-1870
▁able	-1871
joy	-1872
red	-1873
▁data	-1874
▁area	-1875
ume	-1876
▁ren	-1877
▁special	-1878
room	-1879
ules	-1880
pte	-1881
▁mil	-1882
ands	-1883
▁beaucoup	-1884
▁full	-1885
▁Act	-1886
▁première	-1887
ruction	-1888
▁News	-1889
▁fav	-1890
aî	-1891
▁type	-1892
▁web	-1893
udi	-1894
press	-1895
arch	-1896
▁Ste	-1897
▁proble	-1898
▁Mont	-1899
▁employ	-1900
▁number	-1901
▁writ	-1902
pes	-1903
écur	-1904
cer	-1905
▁ils	-1906
12	-1907
ape	-1908
ared	-1909
,000	-1910
▁recom	-1911
▁bar	-1912
▁room	-1913
ney	-1914
ball	-1915
▁Em	-1916
▁»,	-1917
urance	-1918
▁pap	-1919
▁since	-1920
▁Pol	-1921
▁install	-1922
▁individ	-1923
incip	-1924
▁+	-1925
uck	-1926
▁lég	-1927
ène	-1928
▁mess	-1929
▁four	-1930
ification	-1931
▁pot	-1932
abor	-1933
ential	-1934
▁mov	-1935
▁rend	-1936
▁must	-1937
▁mag	-1938
aster	-1939
autres	-1940
issement	-1941
▁without	-1942
▁anim	-1943
aille	-1944
atures	-1945
ically	-1946
itions	-1947
▁savoir	-1948
▁Part	-1949
kes	-1950
▁table	-1951
▁give	-1952
▁Comment	-1953
▁website	-1954
ibles	-1955
by	-1956
▁order	-1957
▁job	-1958
hui	-1959
ream	-1960
▁petit	-1961
40	-1962
érieur	-1963
jourd	-1964
til	-1965
ency	-1966
▁call	-1967
urg	-1968
▁cet	-1969
▁Off	-1970
▁addition	-1971
▁hard	-1972
▁power	-1973
ache	-1974
▁aur	-1975
▁Pe	-1976
▁bi	-1977
ino	-1978
fer	-1979
▁voir	-1980
omen	-1981
▁oper	-1982
rée	-1983
▁within	-1984
ator	-1985
▁cro	-1986
ples	-1987
▁ép	-1988
asion	-1989
▁looking	-1990
ently	-1991
-0	-1992
▁days	-1993
.0	-1994
▁partie	-1995
otel	-1996
▁meet	-1997
amment	-1998
▁fond	-1999
hor	-2000
▁current	-2001
ditions	-2002
▁today	-2003
▁head	-2004
êtes	-2005
irc	-2006
âce	-2007
▁esp	-2008
▁det	-2009
▁•	-2010
▁light	-2011
iver	-2012
▁sing	-2013
▁ville	-2014
▁Comp	-2015
▁level	-2016
▁working	-2017
oles	-2018
▁beaut	-2019
ury	-2020
▁el	-2021
▁vi	-2022
▁voy	-2023
▁compte	-2024
▁might	-2025
▁hab	-2026
ival	-2027
▁quality	-2028
tes	-2029
▁something	-2030
off	-2031
lease	-2032
▁autre	-2033
ension	-2034
▁concern	-2035
irt	-2036
www	-2037
▁Bar	-2038
omb	-2039
action	-2040
▁group	-2041
oph	-2042
▁respect	-2043
▁grow	-2044
▁recherche	-2045
▁course	-2046
▁télé	-2047
▁Av	-2048
▁Jul	-2049
60	-2050
erts	-2051
▁Cent	-2052
enne	-2053
ony	-2054
wh	-2055
▁Ag	-2056
iture	-2057
▁associ	-2058
▁let	-2059
illet	-2060
▁Jan	-2061
ush	-2062
ately	-2063
99	-2064
rique	-2065
▁view	-2066
ords	-2067
duc	-2068
▁nive	-2069
▁grande	-2070
▁food	-2071
▁got	-2072
▁origin	-2073
▁By	-2074
▁docu	-2075
sp	-2076
▁avons	-2077
▁enfants	-2078
▁questions	-2079
▁particul	-2080
▁visit	-2081
fér	-2082
▁spe	-2083
▁blog	-2084
minist	-2085
ison	-2086
▁another	-2087
▁Cor	-2088
▁etc	-2089
self	-2090
▁Sur	-2091
▁products	-2092
estion	-2093
ID	-2094
▁base	-2095
▁seule	-2096
▁princip	-2097
▁peuvent	-2098
▁One	-2099
icles	-2100
▁dernier	-2101
je	-2102
....	-2103
anks	-2104
ump	-2105
▁regard	-2106
▁provid	-2107
anté	-2108
ères	-2109
▁environ	-2110
▁CO	-2111
lié	-2112
ième	-2113
▁bou	-2114
isé	-2115
▁restaur	-2116
ran	-2117
▁old	-2118
▁28	-2119
EL	-2120
▁Min	-2121
▁permett	-2122
▁quand	-2123
▁complet	-2124
▁syst	-2125
▁enjoy	-2126
unes	-2127
ift	-2128
-2	-2129
cteur	-2130
▁Do	-2131
▁À	-2132
▁x	-2133
▁Med	-2134
jets	-2135
load	-2136
▁gard	-2137
derst	-2138
▁fab	-2139
▁avez	-2140
anger	-2141
yd	-2142
ird	-2143
▁check	-2144
▁collect	-2145
▁impro	-2146
itation	-2147
▁dest	-2148
olution	-2149
ctor	-2150
ills	-2151
▁making	-2152
▁sent	-2153
urer	-2154
▁moy	-2155
ieve	-2156
enu	-2157
UR	-2158
▁consider	-2159
▁Inst	-2160
ED	-2161
nov	-2162
▁points	-2163
oires	-2164
ohn	-2165
▁sécur	-2166
▁retr	-2167
▁cad	-2168
▁leg	-2169
▁dim	-2170
▁autom	-2171
▁dispos	-2172
reg	-2173
▁That	-2174
▁Cal	-2175
▁1.	-2176
▁opportun	-2177
ray	-2178
icro	-2179
IL	-2180
▁article	-2181
▁27	-2182
itive	-2183
duction	-2184
▁less	-2185
▁souv	-2186
ôle	-2187
▁années	-2188
▁€	-2189
▁version	-2190
cription	-2191
▁Mon	-2192
▁Fin	-2193
▁money	-2194
ires	-2195
to	-2196
▁doit	-2197
▁découv	-2198
ified	-2199
▁26	-2200
▁groupe	-2201
▁trop	-2202
▁partir	-2203
itter	-2204
▁turn	-2205
▁house	-2206
▁major	-2207
▁dit	-2208
AM	-2209
ief	-2210
idence	-2211
▁annon	-2212
ering	-2213
▁pan	-2214
▁effet	-2215
fort	-2216
▁favor	-2217
▁mis	-2218
ada	-2219
▁dispon	-2220
▁prot	-2221
mp	-2222
prises	-2223
▁success	-2224
▁students	-2225
ries	-2226
ording	-2227
▁Tw	-2228
▁jeu	-2229
15	-2230
▁Your	-2231
80	-2232
▁Bu	-2233
▁région	-2234
atég	-2235
alité	-2236
itez	-2237
▁against	-2238
ettes	-2239
▁2011	-2240
ION	-2241
▁*	-2242
▁underst	-2243
▁Mer	-2244
▁probl	-2245
ending	-2246
èle	-2247
▁never	-2248
écess	-2249
▁Val	-2250
mi	-2251
leur	-2252
▁music	-2253
▁effic	-2254
▁propose	-2255
▁production	-2256
aj	-2257
▁ident	-2258
aim	-2259
éro	-2260
▁review	-2261
▁research	-2262
▁easy	-2263
▁publ	-2264
▁Gl	-2265
occ	-2266
▁bonne	-2267
ET	-2268
OS	-2269
▁event	-2270
▁selon	-2271
enef	-2272
uter	-2273
ige	-2274
aise	-2275
▁piè	-2276
▁https	-2277
▁mise	-2278
▁More	-2279
▁crit	-2280
▁mettre	-2281
▁law	-2282
▁compos	-2283
▁creat	-2284
▁pendant	-2285
formation	-2286
▁lieu	-2287
▁case	-2288
ems	-2289
ext	-2290
▁dra	-2291
▁certain	-2292
ially	-2293
▁needs	-2294
▁charge	-2295
vernment	-2296
oo	-2297
▁photos	-2298
▁sever	-2299
ability	-2300
▁away	-2301
erty	-2302
vious	-2303
ips	-2304
▁Jean	-2305
▁Dr	-2306
▁».	-2307
inst	-2308
▁nécess	-2309
▁centre	-2310
bor	-2311
▁prendre	-2312
▁University	-2313
▁past	-2314
▁chois	-2315
▁DE	-2316
▁coup	-2317
▁price	-2318
oe	-2319
▁match	-2320
vier	-2321
▁Sm	-2322
iday	-2323
the	-2324
:0	-2325
phone	-2326
vention	-2327
▁style	-2328
▁present	-2329
25	-2330
fl	-2331
▁vit	-2332
ung	-2333
US	-2334
▁cover	-2335
▁pract	-2336
iez	-2337
aking	-2338
▁spécial	-2339
▁These	-2340
▁bal	-2341
ril	-2342
ization	-2343
ike	-2344
▁John	-2345
▁élect	-2346
▁children	-2347
▁côt	-2348
▁niveau	-2349
ièrement	-2350
bo	-2351
▁minist	-2352
:4	-2353
ights	-2354
▁Bro	-2355
▁Mal	-2356
ana	-2357
aring	-2358
▁Europe	-2359
▁giv	-2360
▁mieux	-2361
▁ca	-2362
ee	-2363
side	-2364
ville	-2365
eter	-2366
ling	-2367
▁allow	-2368
▁arr	-2369
▁cra	-2370
▁net	-2371
ng	-2372
▁40	-2373
▁perfect	-2374
▁position	-2375
▁appar	-2376
:3	-2377
▁jam	-2378
▁contr	-2379
opt	-2380
▁elect	-2381
▁suff	-2382
▁moi	-2383
▁mét	-2384
.5	-2385
▁sat	-2386
▁community	-2387
▁circ	-2388
erial	-2389
ogle	-2390
quer	-2391
▁Plus	-2392
iti	-2393
▁Read	-2394
face	-2395
:5	-2396
▁sw	-2397
▁personal	-2398
▁culture	-2399
ivre	-2400
▁dém	-2401
ront	-2402
ocus	-2403
▁expect	-2404
▁date	-2405
▁sites	-2406
▁situation	-2407
▁vidé	-2408
pression	-2409
▁via	-2410
▁dess	-2411
▁video	-2412
▁Sal	-2413
▁début	-2414
▁PM	-2415
des	-2416
▁décl	-2417
uring	-2418
▁Avec	-2419
▁cand	-2420
▁conv	-2421
▁exem	-2422
▁front	-2423
▁bout	-2424
▁million	-2425
▁season	-2426
▁rapide	-2427
▁réc	-2428
▁29	-2429
indows	-2430
▁http	-2431
▁treat	-2432
▁soir	-2433
▁cam	-2434
▁connect	-2435
clus	-2436
▁City	-2437
ologie	-2438
▁along	-2439
▁toget	-2440
▁offic	-2441
▁Face	-2442
▁together	-2443
▁include	-2444
iance	-2445
▁deal	-2446
▁soft	-2447
▁proch	-2448
▁far	-2449
aul	-2450
atives	-2451
ze	-2452
org	-2453
ental	-2454
▁vict	-2455
19	-2456
▁Per	-2457
▁président	-2458
▁Sep	-2459
ris	-2460
▁national	-2461
osp	-2462
▁Dis	-2463
▁ici	-2464
ester	-2465
▁grâce	-2466
▁Mus	-2467
itement	-2468
▁times	-2469
ably	-2470
▁cook	-2471
▁notamment	-2472
thers	-2473
▁Don	-2474
▁choix	-2475
uff	-2476
▁bén	-2477
▁having	-2478
ture	-2479
▁Char	-2480
ilt	-2481
équ	-2482
▁why	-2483
son	-2484
▁199	-2485
▁line	-2486
pir	-2487
▁tal	-2488
▁rou	-2489
oman	-2490
▁Ke	-2491
▁understand	-2492
▁Dire	-2493
illage	-2494
▁conditions	-2495
la	-2496
▁beg	-2497
▁cin	-2498
▁stock	-2499
erve	-2500
▁kind	-2501
▁rapport	-2502
▁benef	-2503
▁club	-2504
OT	-2505
erie	-2506
ism	-2507
▁fourn	-2508
èg	-2509
irl	-2510
▁live	-2511
▁porte	-2512
onnement	-2513
▁tradition	-2514
70	-2515
rict	-2516
resse	-2517
ufact	-2518
ociation	-2519
▁short	-2520
ning	-2521
▁2010	-2522
▁ask	-2523
ensive	-2524
▁whe	-2525
13	-2526
rière	-2527
AP	-2528
▁create	-2529
elui	-2530
val	-2531
▁norm	-2532
▁development	-2533
▁abs	-2534
ibilité	-2535
otion	-2536
▁client	-2537
14	-2538
▁gam	-2539
EC	-2540
▁util	-2541
▁based	-2542
▁juin	-2543
urity	-2544
lle	-2545
▁mort	-2546
▁sus	-2547
▁km	-2548
ica	-2549
▁fix	-2550
▁TV	-2551
▁until	-2552
ili	-2553
▁country	-2554
sez	-2555
▁Bo	-2556
▁%	-2557
▁clean	-2558
▁photo	-2559
érer	-2560
▁sout	-2561
▁lang	-2562
ports	-2563
▁année	-2564
▁options	-2565
cy	-2566
▁Pat	-2567
ergy	-2568
▁Sam	-2569
▁pouvoir	-2570
ovembre	-2571
▁Cons	-2572
go	-2573
▁internet	-2574
roid	-2575
▁Tout	-2576
▁dig	-2577
▁vac	-2578
▁dr	-2579
▁red	-2580
▁ach	-2581
venir	-2582
▁says	-2583
▁données	-2584
atter	-2585
▁performance	-2586
atiques	-2587
▁across	-2588
▁vendre	-2589
lin	-2590
▁fer	-2591
ctobre	-2592
ged	-2593
▁struct	-2594
▁excell	-2595
▁représ	-2596
ready	-2597
▁parc	-2598
▁control	-2599
ended	-2600
▁sam	-2601
▁range	-2602
▁Ge	-2603
OM	-2604
iled	-2605
▁buy	-2606
▁prév	-2607
▁formation	-2608
ources	-2609
leurs	-2610
▁side	-2611
▁Aug	-2612
▁location	-2613
eth	-2614
▁getting	-2615
▁deli	-2616
èmes	-2617
▁Apr	-2618
16	-2619
▁ill	-2620
Th	-2621
▁besoin	-2622
uelle	-2623
▁offers	-2624
▁là	-2625
▁équipe	-2626
çon	-2627
▁pack	-2628
▁solution	-2629
lege	-2630
▁Di	-2631
éb	-2632
▁cuis	-2633
ership	-2634
▁Rob	-2635
▁sau	-2636
▁material	-2637
▁jamais	-2638
aill	-2639
ationale	-2640
▁cause	-2641
▁ress	-2642
▁After	-2643
▁color	-2644
anies	-2645
▁produit	-2646
▁foot	-2647
▁news	-2648
▁jan	-2649
▁beh	-2650
.,	-2651
wards	-2652
▁facile	-2653
▁reste	-2654
obal	-2655
▁millions	-2656
▁ense	-2657
▁individual	-2658
▁industry	-2659
▁Port	-2660
▁thing	-2661
▁tax	-2662
▁clos	-2663
▁mars	-2664
▁rad	-2665
▁quick	-2666
rim	-2667
▁marché	-2668
asc	-2669
▁makes	-2670
24	-2671
ierre	-2672
▁assist	-2673
▁night	-2674
▁prob	-2675
tout	-2676
▁Accueil	-2677
▁société	-2678
▁solutions	-2679
iful	-2680
▁name	-2681
▁text	-2682
sy	-2683
▁Après	-2684
▁rien	-2685
éric	-2686
obil	-2687
▁seront	-2688
▁relations	-2689
▁Vo	-2690
▁charg	-2691
ète	-2692
▁comes	-2693
▁aj	-2694
AD	-2695
▁série	-2696
▁done	-2697
▁rencontre	-2698
▁stat	-2699
icy	-2700
▁commerc	-2701
unch	-2702
▁object	-2703
▁several	-2704
▁Ann	-2705
▁purch	-2706
▁following	-2707
▁often	-2708
▁cadre	-2709
pose	-2710
▁Cour	-2711
▁mai	-2712
▁fais	-2713
▁auc	-2714
▁However	-2715
▁contrib	-2716
▁continue	-2717
gment	-2718
ât	-2719
▁become	-2720
▁Not	-2721
▁tant	-2722
200	-2723
▁cop	-2724
▁famille	-2725
▁United	-2726
23	-2727
▁Sun	-2728
ched	-2729
▁ceux	-2730
cembre	-2731
itaire	-2732
▁West	-2733
▁travers	-2734
▁000	-2735
nd	-2736
vis	-2737
▁extra	-2738
ply	-2739
▁génér	-2740
▁move	-2741
▁résult	-2742
▁salle	-2743
▁fund	-2744
18	-2745
▁eu	-2746
iqué	-2747
▁personne	-2748
▁already	-2749
rie	-2750
▁Count	-2751
▁anc	-2752
▁sécurité	-2753
▁discuss	-2754
▁York	-2755
▁proc	-2756
▁six	-2757
▁Sup	-2758
acy	-2759
▁semaine	-2760
▁difficult	-2761
ively	-2762
▁aujourd	-2763
17	-2764
▁Posted	-2765
play	-2766
▁fre	-2767
▁1,	-2768
▁2022	-2769
▁demande	-2770
itable	-2771
▁future	-2772
iner	-2773
▁low	-2774
▁champ	-2775
▁def	-2776
▁quot	-2777
▁Reg	-2778
1,	-2779
atre	-2780
mm	-2781
ôtel	-2782
▁require	-2783
▁machine	-2784
elling	-2785
▁programme	-2786
▁link	-2787
▁Us	-2788
▁Déc	-2789
▁Just	-2790
▁bit	-2791
▁système	-2792
ored	-2793
▁World	-2794
▁développement	-2795
▁try	-2796
▁National	-2797
ades	-2798
bum	-2799
ponse	-2800
ained	-2801
▁Phot	-2802
▁nombreux	-2803
▁pa	-2804
▁divers	-2805
ara	-2806
alf	-2807
ulaire	-2808
orter	-2809
ama	-2810
▁candid	-2811
▁phys	-2812
ural	-2813
dre	-2814
ags	-2815
▁santé	-2816
▁accomp	-2817
alys	-2818
ivité	-2819
▁bed	-2820
ptembre	-2821
▁body	-2822
odes	-2823
▁ever	-2824
▁emb	-2825
ores	-2826
▁Ils	-2827
▁share	-2828
ases	-2829
ouss	-2830
▁educ	-2831
érience	-2832
▁months	-2833
▁card	-2834
▁janvier	-2835
▁city	-2836
▁ago	-2837
iction	-2838
▁return	-2839
▁international	-2840
▁wr	-2841
▁pict	-2842
▁chall	-2843
▁Commun	-2844
-19	-2845
:00	-2846
▁miss	-2847
▁fall	-2848
▁couple	-2849
cture	-2850
▁stay	-2851
quoi	-2852
▁offre	-2853
▁content	-2854
▁adapt	-2855
We	-2856
▁Air	-2857
éli	-2858
▁AM	-2859
1.	-2860
▁mobile	-2861
▁continu	-2862
--	-2863
▁bud	-2864
▁left	-2865
▁septembre	-2866
▁Pres	-2867
▁construction	-2868
now	-2869
ols	-2870
ENT	-2871
▁fig	-2872
gra	-2873
▁près	-2874
▁Bon	-2875
▁Mod	-2876
année	-2877
▁hours	-2878
▁Ces	-2879
▁celui	-2880
cé	-2881
▁search	-2882
▁High	-2883
lez	-2884
▁Prof	-2885
▁tend	-2886
env	-2887
ifi	-2888
▁économ	-2889
▁Google	-2890
▁State	-2891
back	-2892
▁means	-2893
▁space	-2894
▁ton	-2895
▁novembre	-2896
urb	-2897
▁Lib	-2898
▁intér	-2899
lete	-2900
▁key	-2901
▁ver	-2902
▁collabor	-2903
▁total	-2904
▁petite	-2905
opé	-2906
arger	-2907
idd	-2908
▁features	-2909
▁focus	-2910
▁games	-2911
rice	-2912
▁mass	-2913
▁bring	-2914
▁code	-2915
▁Aust	-2916
uits	-2917
▁compet	-2918
▁application	-2919
itude	-2920
▁cit	-2921
▁êtes	-2922
▁sommes	-2923
eff	-2924
oon	-2925
aps	-2926
nent	-2927
▁dem	-2928
2.	-2929
▁customers	-2930
EM	-2931
eral	-2932
▁parten	-2933
▁collection	-2934
▁South	-2935
▁fur	-2936
▁Loc	-2937
▁School	-2938
▁enough	-2939
icip	-2940
▁propri	-2941
▁dél	-2942
▁droit	-2943
▁press	-2944
▁management	-2945
▁cy	-2946
oit	-2947
ising	-2948
▁Facebook	-2949
▁cut	-2950
OL	-2951
udes	-2952
▁vraiment	-2953
▁femme	-2954
▁équip	-2955
▁recomm	-2956
▁plat	-2957
▁heures	-2958
▁friends	-2959
▁effort	-2960
▁avis	-2961
ength	-2962
▁lat	-2963
ured	-2964
ma	-2965
▁60	-2966
aging	-2967
▁gouver	-2968
lig	-2969
▁Will	-2970
ilities	-2971
▁souvent	-2972
▁Dav	-2973
était	-2974
▁others	-2975
▁near	-2976
▁March	-2977
ting	-2978
▁avril	-2979
▁American	-2980
▁Ins	-2981
▁décembre	-2982
éh	-2983
▁doing	-2984
▁Techn	-2985
▁découvrir	-2986
iaux	-2987
atif	-2988
▁particular	-2989
ague	-2990
iale	-2991
vest	-2992
▁arriv	-2993
▁Inter	-2994
Ch	-2995
▁Bel	-2996
▁octobre	-2997
▁upd	-2998
ye	-2999
▁strong	-3000
▁companies	-3001
ify	-3002
▁due	-3003
▁Internet	-3004
▁story	-3005
▁impact	-3006
▁Free	-3007
▁plate	-3008
ube	-3009
▁parents	-3010
▁compét	-3011
▁women	-3012
uk	-3013
▁viol	-3014
Ar	-3015
ests	-3016
▁Del	-3017
▁North	-3018
istoire	-3019
▁Sim	-3020
▁types	-3021
oration	-3022
venue	-3023
▁teach	-3024
▁souha	-3025
▁started	-3026
équipe	-3027
▁retour	-3028
ench	-3029
▁commercial	-3030
▁hold	-3031
▁exist	-3032
▁chose	-3033
▁members	-3034
▁id	-3035
omme	-3036
▁attend	-3037
▁Est	-3038
▁final	-3039
anch	-3040
▁single	-3041
▁action	-3042
▁Feb	-3043
atural	-3044
▁2009	-3045
▁document	-3046
▁informations	-3047
▁seul	-3048
▁minim	-3049
isf	-3050
▁called	-3051
▁répond	-3052
▁bénéf	-3053
▁aim	-3054
▁sais	-3055
▁issues	-3056
▁@	-3057
▁Health	-3058
augh	-3059
▁mind	-3060
▁God	-3061
organ	-3062
▁won	-3063
▁account	-3064
▁appr	-3065
▁Eng	-3066
▁del	-3067
ws	-3068
quipment	-3069
▁Trans	-3070
▁Ret	-3071
tr	-3072
atic	-3073
▁jeunes	-3074
▁invol	-3075
▁government	-3076
▁technology	-3077
▁Ser	-3078
▁saison	-3079
ifier	-3080
▁June	-3081
▁Sk	-3082
▁marketing	-3083
▁double	-3084
▁Now	-3085
qué	-3086
▁Pet	-3087
▁break	-3088
▁certains	-3089
oom	-3090
AG	-3091
▁surtout	-3092
▁specific	-3093
▁gen	-3094
▁join	-3095
▁pens	-3096
▁matéri	-3097
ionn	-3098
ought	-3099
▁vue	-3100
▁2.	-3101
uary	-3102
tres	-3103
▁Day	-3104
ised	-3105
▁Stud	-3106
▁Web	-3107
aque	-3108
▁côté	-3109
gu	-3110
▁hor	-3111
wer	-3112
ops	-3113
Al	-3114
iences	-3115
▁pie	-3116
oses	-3117
▁media	-3118
most	-3119
▁seulement	-3120
▁once	-3121
▁email	-3122
▁sugg	-3123
▁chance	-3124
ardin	-3125
▁problem	-3126
▁gestion	-3127
▁Sw	-3128
▁property	-3129
▁différents	-3130
▁Dep	-3131
évrier	-3132
▁péri	-3133
▁beautiful	-3134
exp	-3135
▁staff	-3136
▁IN	-3137
▁haute	-3138
sc	-3139
▁Phil	-3140
▁mode	-3141
▁capac	-3142
hab	-3143
nel	-3144
▁essay	-3145
▁cuisine	-3146
Le	-3147
▁forme	-3148
rant	-3149
astic	-3150
▁message	-3151
▁exemple	-3152
▁Mac	-3153
bour	-3154
▁Park	-3155
▁font	-3156
▁doesn	-3157
ducation	-3158
▁Que	-3159
▁protection	-3160
ening	-3161
▁announ	-3162
▁didn	-3163
▁nouvelles	-3164
▁entreprises	-3165
▁mix	-3166
aily	-3167
▁record	-3168
▁travel	-3169
▁livre	-3170
▁aud	-3171
ask	-3172
▁actually	-3173
▁mean	-3174
▁juillet	-3175
▁Cr	-3176
erson	-3177
▁manufact	-3178
▁everything	-3179
come	-3180
▁belle	-3181
2,	-3182
sych	-3183
▁Here	-3184
orer	-3185
▁April	-3186
▁professional	-3187
▁voyage	-3188
5.	-3189
…]	-3190
▁lik	-3191
ror	-3192
ifique	-3193
rage	-3194
ève	-3195
▁win	-3196
âte	-3197
▁clim	-3198
▁passer	-3199
▁journée	-3200
▁laiss	-3201
▁dès	-3202
▁trouve	-3203
▁From	-3204
▁appel	-3205
ogn	-3206
aining	-3207
▁images	-3208
▁Net	-3209
tte	-3210
▁Mc	-3211
▁heart	-3212
▁below	-3213
ambre	-3214
ST	-3215
over	-3216
uge	-3217
▁fore	-3218
igue	-3219
ived	-3220
ham	-3221
onder	-3222
▁corre	-3223
▁econom	-3224
▁court	-3225
inning	-3226
abilité	-3227
mbl	-3228
▁vente	-3229
ironnement	-3230
▁marque	-3231
▁field	-3232
▁building	-3233
▁ten	-3234
▁lum	-3235
▁spect	-3236
oût	-3237
▁cart	-3238
▁please	-3239
▁Up	-3240
▁ball	-3241
90	-3242
aign	-3243
▁haut	-3244
▁Design	-3245
▁Publié	-3246
▁rais	-3247
▁Bra	-3248
▁Red	-3249
entreprise	-3250
aged	-3251
▁simil	-3252
▁Black	-3253
▁Business	-3254
▁trouv	-3255
uvre	-3256
▁distrib	-3257
▁office	-3258
partment	-3259
▁improve	-3260
▁Septe	-3261
avoir	-3262
ares	-3263
▁came	-3264
▁series	-3265
26	-3266
▁bois	-3267
▁Out	-3268
▁hy	-3269
▁rév	-3270
ledge	-3271
not	-3272
▁provides	-3273
▁consult	-3274
▁infl	-3275
▁représent	-3276
▁nav	-3277
▁Sol	-3278
▁Notre	-3279
▁option	-3280
estival	-3281
imm	-3282
ither	-3283
▁ache	-3284
▁celle	-3285
▁expert	-3286
▁fabric	-3287
▁least	-3288
▁training	-3289
eaux	-3290
▁host	-3291
IM	-3292
▁yet	-3293
Ph	-3294
▁TH	-3295
outer	-3296
iam	-3297
▁femmes	-3298
▁div	-3299
asing	-3300
▁siè	-3301
▁results	-3302
change	-3303
▁pick	-3304
irus	-3305
urch	-3306
illed	-3307
▁organis	-3308
▁administ	-3309
▁source	-3310
▁engine	-3311
▁early	-3312
▁plac	-3313
▁Ed	-3314
▁July	-3315
▁Mag	-3316
▁prépar	-3317
▁tre	-3318
▁San	-3319
umb	-3320
▁jeune	-3321
▁dernière	-3322
▁[…]	-3323
▁popular	-3324
▁added	-3325
▁Grand	-3326
▁track	-3327
▁prior	-3328
aissance	-3329
▁environment	-3330
▁innov	-3331
▁obten	-3332
27	-3333
iger	-3334
▁sil	-3335
autre	-3336
▁Ang	-3337
ounds	-3338
▁2008	-3339
▁meth	-3340
ource	-3341
ING	-3342
bec	-3343
tra	-3344
acter	-3345
▁vidéo	-3346
ctober	-3347
▁pris	-3348
▁five	-3349
▁cu	-3350
▁tourn	-3351
-3	-3352
▁various	-3353
▁value	-3354
▁taking	-3355
alt	-3356
▁suppl	-3357
▁meilleur	-3358
▁Service	-3359
▁Bre	-3360
▁Sec	-3361
▁PR	-3362
ym	-3363
imp	-3364
▁accept	-3365
érique	-3366
▁image	-3367
CH	-3368
▁rac	-3369
▁Top	-3370
▁cell	-3371
▁strateg	-3372
iod	-3373
▁multi	-3374
▁rent	-3375
ovember	-3376
cover	-3377
▁commer	-3378
IR	-3379
▁Book	-3380
rug	-3381
▁Du	-3382
onom	-3383
▁known	-3384
▁Of	-3385
▁Dé	-3386
▁sale	-3387
▁vale	-3388
auff	-3389
▁sex	-3390
▁hope	-3391
▁took	-3392
cret	-3393
▁Windows	-3394
▁satisf	-3395
▁Stre	-3396
▁transport	-3397
▁·	-3398
zz	-3399
▁box	-3400
▁prim	-3401
▁Canada	-3402
▁Arch	-3403
▁defin	-3404
oque	-3405
▁someone	-3406
pecially	-3407
▁maxim	-3408
▁quant	-3409
St	-3410
▁Ac	-3411
ications	-3412
▁chef	-3413
▁europé	-3414
ploi	-3415
▁cat	-3416
▁Work	-3417
▁works	-3418
▁thought	-3419
▁manière	-3420
▁among	-3421
▁carte	-3422
28	-3423
▁Some	-3424
▁puiss	-3425
▁reason	-3426
▁progress	-3427
arl	-3428
▁train	-3429
▁watch	-3430
▁autour	-3431
plac	-3432
▁appear	-3433
ardi	-3434
gram	-3435
▁déclar	-3436
antage	-3437
aître	-3438
▁Op	-3439
oring	-3440
▁deb	-3441
78	-3442
▁police	-3443
▁ouv	-3444
met	-3445
▁lov	-3446
▁Rec	-3447
▁percent	-3448
▁complete	-3449
▁travaux	-3450
Re	-3451
▁février	-3452
▁Ob	-3453
▁friend	-3454
▁network	-3455
▁hon	-3456
▁magn	-3457
▁January	-3458
▁close	-3459
▁areas	-3460
▁sélection	-3461
agit	-3462
▁Mad	-3463
▁garant	-3464
anning	-3465
▁plant	-3466
▁While	-3467
▁plais	-3468
cast	-3469
▁Mr	-3470
▁signific	-3471
▁politique	-3472
rap	-3473
▁Services	-3474
ivent	-3475
iciel	-3476
ynam	-3477
▁young	-3478
vo	-3479
▁PC	-3480
▁fit	-3481
3.	-3482
aste	-3483
▁hot	-3484
▁human	-3485
▁technique	-3486
▁juste	-3487
▁October	-3488
idents	-3489
undi	-3490
▁brand	-3491
cul	-3492
▁comfort	-3493
▁veh	-3494
▁exact	-3495
auv	-3496
lections	-3497
▁façon	-3498
ibility	-3499
▁Please	-3500
45	-3501
▁Har	-3502
▁intro	-3503
time	-3504
▁Gra	-3505
▁protect	-3506
▁November	-3507
▁Sch	-3508
▁crus	-3509
▁living	-3510
▁histor	-3511
▁optim	-3512
▁patients	-3513
▁assez	-3514
▁communication	-3515
▁Ben	-3516
▁donne	-3517
▁Son	-3518
▁wait	-3519
▁techniques	-3520
▁August	-3521
▁Sa	-3522
▁Are	-3523
▁Mich	-3524
▁went	-3525
cember	-3526
▁Centre	-3527
▁entreprise	-3528
tat	-3529
▁energy	-3530
▁study	-3531
çu	-3532
▁plans	-3533
▁modern	-3534
esh	-3535
▁seen	-3536
prim	-3537
▁International	-3538
▁condition	-3539
▁Pal	-3540
agner	-3541
▁mari	-3542
▁Supp	-3543
▁quart	-3544
itted	-3545
▁passe	-3546
▁software	-3547
▁CH	-3548
▁Center	-3549
29	-3550
▁amb	-3551
▁visite	-3552
▁nouveaux	-3553
▁maintenant	-3554
▁saf	-3555
▁excellent	-3556
fully	-3557
▁address	-3558
▁method	-3559
ald	-3560
▁Best	-3561
▁donner	-3562
▁lic	-3563
▁attention	-3564
▁www	-3565
▁tell	-3566
▁corps	-3567
wood	-3568
▁photograph	-3569
▁Cap	-3570
4.	-3571
occasion	-3572
river	-3573
▁common	-3574
▁ban	-3575
étique	-3576
ington	-3577
▁habit	-3578
▁fort	-3579
▁County	-3580
ël	-3581
▁Lond	-3582
aby	-3583
resp	-3584
▁obs	-3585
▁jeux	-3586
itchen	-3587
▁2,	-3588
temps	-3589
▁given	-3590
▁September	-3591
▁devant	-3592
▁petits	-3593
▁Hol	-3594
▁cab	-3595
esent	-3596
▁told	-3597
▁Mart	-3598
▁ensure	-3599
▁Market	-3600
▁ni	-3601
▁Int	-3602
EO	-3603
▁gouvernement	-3604
▁pratique	-3605
éth	-3606
▁Cert	-3607
▁vend	-3608
ensemble	-3609
▁size	-3610
▁original	-3611
usion	-3612
▁projets	-3613
▁ém	-3614
▁bord	-3615
quel	-3616
▁bill	-3617
▁expos	-3618
uellement	-3619
obile	-3620
iennent	-3621
▁arch	-3622
termin	-3623
▁author	-3624
▁sac	-3625
TE	-3626
iné	-3627
olf	-3628
An	-3629
yant	-3630
iting	-3631
4,	-3632
▁ven	-3633
▁sales	-3634
▁mond	-3635
ologies	-3636
▁quotid	-3637
▁Ré	-3638
▁example	-3639
œur	-3640
placement	-3641
▁whole	-3642
ué	-3643
▁Form	-3644
▁road	-3645
ias	-3646
▁idea	-3647
▁Mond	-3648
▁pied	-3649
▁prin	-3650
▁dam	-3651
ifest	-3652
▁download	-3653
3,	-3654
enti	-3655
ided	-3656
▁later	-3657
▁rob	-3658
▁designed	-3659
▁everyone	-3660
▁Prem	-3661
▁80	-3662
▁Austral	-3663
aper	-3664
idge	-3665
▁tête	-3666
▁titre	-3667
erne	-3668
▁Play	-3669
▁Hotel	-3670
ament	-3671
▁history	-3672
ureau	-3673
▁believe	-3674
▁ord	-3675
ishing	-3676
▁feu	-3677
It	-3678
▁Paul	-3679
▁details	-3680
▁December	-3681
▁oil	-3682
▁mission	-3683
▁gratuit	-3684
▁Vis	-3685
75	-3686
▁House	-3687
rix	-3688
▁articles	-3689
ators	-3690
▁nombreuses	-3691
▁includes	-3692
histoire	-3693
▁vu	-3694
▁généra	-3695
itution	-3696
En	-3697
▁Att	-3698
IV	-3699
▁sche	-3700
▁complex	-3701
▁period	-3702
▁equipment	-3703
IP	-3704
▁Wed	-3705
oke	-3706
▁améric	-3707
▁album	-3708
▁Review	-3709
azon	-3710
▁black	-3711
▁route	-3712
▁3.	-3713
▁UK	-3714
▁contract	-3715
▁doll	-3716
▁further	-3717
▁concept	-3718
▁guide	-3719
▁Inc	-3720
▁bad	-3721
▁reconn	-3722
▁raison	-3723
airs	-3724
voir	-3725
▁lanc	-3726
▁issue	-3727
▁Her	-3728
▁smart	-3729
▁acqu	-3730
▁writing	-3731
▁rele	-3732
IE	-3733
▁budget	-3734
▁différentes	-3735
gement	-3736
▁store	-3737
▁commenc	-3738
▁sû	-3739
▁affect	-3740
▁mesure	-3741
▁potential	-3742
verage	-3743
ospital	-3744
▁needed	-3745
head	-3746
oyer	-3747
ried	-3748
▁Cam	-3749
▁driv	-3750
/20	-3751
▁Lou	-3752
▁half	-3753
▁voul	-3754
iquer	-3755
coming	-3756
▁financial	-3757
▁direction	-3758
▁fast	-3759
▁above	-3760
▁vert	-3761
▁self	-3762
▁especially	-3763
▁paper	-3764
▁Rés	-3765
atoire	-3766
▁Met	-3767
▁choose	-3768
▁pourrait	-3769
▁opportunity	-3770
▁soul	-3771
ocol	-3772
▁territ	-3773
elt	-3774
▁univers	-3775
ira	-3776
▁san	-3777
▁bus	-3778
usement	-3779
ruary	-3780
▁31	-3781
▁note	-3782
unt	-3783
roit	-3784
▁Flor	-3785
▁exerc	-3786
▁pièces	-3787
▁select	-3788
▁soon	-3789
▁cm	-3790
▁whether	-3791
member	-3792
▁pain	-3793
▁quoi	-3794
▁reading	-3795
▁wor	-3796
▁simply	-3797
▁restaurant	-3798
▁land	-3799
forme	-3800
▁tom	-3801
▁cele	-3802
35	-3803
azing	-3804
isions	-3805
▁problème	-3806
SE	-3807
ètres	-3808
ervation	-3809
▁secteur	-3810
rup	-3811
comp	-3812
▁deliver	-3813
▁required	-3814
éhic	-3815
▁meas	-3816
▁wind	-3817
▁events	-3818
▁phone	-3819
charge	-3820
▁prest	-3821
▁States	-3822
▁vient	-3823
ena	-3824
ropri	-3825
▁Tour	-3826
▁quite	-3827
6,	-3828
▁file	-3829
ordin	-3830
▁feature	-3831
tead	-3832
▁--	-3833
sel	-3834
ailleurs	-3835
yer	-3836
ivement	-3837
year	-3838
▁Ter	-3839
▁règ	-3840
▁amount	-3841
▁India	-3842
dess	-3843
▁bra	-3844
▁serait	-3845
▁eux	-3846
▁activités	-3847
▁Ét	-3848
though	-3849
II	-3850
▁voiture	-3851
aisse	-3852
OP	-3853
▁analys	-3854
▁lit	-3855
▁mark	-3856
▁altern	-3857
▁réseau	-3858
7,	-3859
tty	-3860
onnes	-3861
icated	-3862
7.	-3863
▁entire	-3864
▁créer	-3865
▁LA	-3866
pped	-3867
▁vot	-3868
▁Group	-3869
▁référ	-3870
▁coming	-3871
▁anything	-3872
CE	-3873
▁located	-3874
rés	-3875
▁ult	-3876
gré	-3877
▁drive	-3878
▁membres	-3879
▁plaisir	-3880
▁sum	-3881
▁compar	-3882
▁réun	-3883
▁Ve	-3884
▁Get	-3885
▁naturel	-3886
▁coach	-3887
né	-3888
uve	-3889
opping	-3890
▁yourself	-3891
▁applications	-3892
▁grands	-3893
6.	-3894
▁pil	-3895
▁force	-3896
ambres	-3897
▁according	-3898
▁wonder	-3899
▁customer	-3900
ueill	-3901
▁Tri	-3902
▁confirm	-3903
▁Jap	-3904
istiques	-3905
▁Online	-3906
▁aider	-3907
▁forward	-3908
▁Alors	-3909
▁Down	-3910
▁security	-3911
▁pages	-3912
▁currently	-3913
iler	-3914
▁relationship	-3915
eux	-3916
▁confort	-3917
xte	-3918
▁œ	-3919
▁hol	-3920
**	-3921
▁graph	-3922
▁vér	-3923
partement	-3924
▁places	-3925
alu	-3926
arth	-3927
▁homme	-3928
▁save	-3929
▁claim	-3930
istance	-3931
▁consum	-3932
iving	-3933
▁caract	-3934
▁09	-3935
▁touch	-3936
▁clear	-3937
▁model	-3938
▁ready	-3939
IG	-3940
iant	-3941
▁ways	-3942
▁euros	-3943
▁plein	-3944
igation	-3945
▁défin	-3946
orge	-3947
▁ministre	-3948
utilisation	-3949
aï	-3950
onst	-3951
▁age	-3952
▁frais	-3953
▁taille	-3954
UE	-3955
éch	-3956
▁First	-3957
▁Blog	-3958
▁happy	-3959
▁almost	-3960
▁août	-3961
▁insurance	-3962
▁increase	-3963
erez	-3964
▁rédu	-3965
itting	-3966
▁ing	-3967
▁véhic	-3968
▁liste	-3969
▁dir	-3970
▁ful	-3971
▁sup	-3972
▁création	-3973
▁February	-3974
▁civ	-3975
▁analy	-3976
aide	-3977
▁Rep	-3978
▁pense	-3979
▁Dem	-3980
cript	-3981
▁users	-3982
▁sein	-3983
▁problems	-3984
▁Comme	-3985
▁Dan	-3986
▁initi	-3987
credi	-3988
▁taken	-3989
▁AN	-3990
▁Conse	-3991
▁Friday	-3992
▁provided	-3993
tez	-3994
65	-3995
imin	-3996
used	-3997
▁David	-3998
▁natural	-3999
▁white	-4000
anced	-4001
▁psych	-4002
idi	-4003
amm	-4004
▁Ju	-4005
▁Afric	-4006
▁correct	-4007
DF	-4008
urr	-4009
▁Roy	-4010
aker	-4011
▁Str	-4012
▁enter	-4013
▁throughout	-4014
▁either	-4015
▁encour	-4016
▁quatre	-4017
▁President	-4018
▁likely	-4019
▁mor	-4020
▁ir	-4021
▁démar	-4022
▁mention	-4023
▁standard	-4024
▁Vol	-4025
▁oblig	-4026
▁former	-4027
▁previous	-4028
respond	-4029
▁latest	-4030
▁necess	-4031
bon	-4032
ida	-4033
▁equ	-4034
▁recent	-4035
▁digital	-4036
▁IS	-4037
▁gros	-4038
raî	-4039
▁fire	-4040
▁trying	-4041
▁kids	-4042
▁vacances	-4043
.)	-4044
▁musique	-4045
▁redu	-4046
▁scient	-4047
▁présente	-4048
▁China	-4049
auté	-4050
ened	-4051
hés	-4052
heure	-4053
ogue	-4054
▁besoins	-4055
▁famil	-4056
▁inj	-4057
▁sle	-4058
▁role	-4059
▁weeks	-4060
OC	-4061
▁198	-4062
▁35	-4063
▁Rem	-4064
inet	-4065
arter	-4066
▁autor	-4067
AU	-4068
merg	-4069
▁Bien	-4070
▁général	-4071
▁Club	-4072
▁industri	-4073
zy	-4074
▁parce	-4075
▁players	-4076
▁Gold	-4077
▁Ev	-4078
ualité	-4079
▁command	-4080
▁impl	-4081
▁heure	-4082
▁chambre	-4083
▁surface	-4084
▁official	-4085
oie	-4086
charger	-4087
▁professionnels	-4088
▁idé	-4089
nelle	-4090
oes	-4091
adem	-4092
ender	-4093
▁Merci	-4094
▁personnel	-4095
▁Sl	-4096
regist	-4097
▁pourra	-4098
isée	-4099
▁function	-4100
▁disponible	-4101
▁systems	-4102
aving	-4103
▁samedi	-4104
▁knowledge	-4105
▁Cle	-4106
▁termin	-4107
▁walk	-4108
▁aw	-4109
▁Page	-4110
orie	-4111
erver	-4112
▁elles	-4113
▁90	-4114
▁auprès	-4115
▁College	-4116
▁Franc	-4117
oche	-4118
▁Micro	-4119
PS	-4120
▁created	-4121
▁consomm	-4122
▁matin	-4123
roll	-4124
▁arm	-4125
éré	-4126
▁War	-4127
▁talk	-4128
▁however	-4129
▁sell	-4130
ttes	-4131
▁intéress	-4132
ael	-4133
▁exclus	-4134
▁treatment	-4135
▁Program	-4136
AF	-4137
erse	-4138
orning	-4139
▁recently	-4140
key	-4141
▁passé	-4142
illa	-4143
▁chac	-4144
▁skills	-4145
▁running	-4146
▁70	-4147
▁bott	-4148
▁vendredi	-4149
nerg	-4150
▁tél	-4151
oux	-4152
enf	-4153
▁usually	-4154
▁girl	-4155
ologique	-4156
term	-4157
▁Mem	-4158
▁â	-4159
▁risk	-4160
▁dimanche	-4161
▁credit	-4162
▁Depuis	-4163
rog	-4164
alisation	-4165
33	-4166
▁Lire	-4167
▁Gener	-4168
▁floor	-4169
glish	-4170
▁imag	-4171
Unis	-4172
▁coun	-4173
▁adm	-4174
▁fich	-4175
▁platform	-4176
utôt	-4177
▁structure	-4178
▁regular	-4179
▁approach	-4180
oub	-4181
▁veut	-4182
▁Twitter	-4183
▁private	-4184
▁print	-4185
ico	-4186
▁rout	-4187
▁thé	-4188
▁Cre	-4189
▁rate	-4190
▁global	-4191
lication	-4192
oid	-4193
ined	-4194
▁additional	-4195
▁utiliser	-4196
▁)	-4197
▁éch	-4198
▁impos	-4199
▁receive	-4200
▁batter	-4201
ype	-4202
▁08	-4203
▁His	-4204
▁ST	-4205
▁Super	-4206
▁reach	-4207
▁fant	-4208
umes	-4209
▁rapidement	-4210
▁isn	-4211
▁activities	-4212
▁Ma	-4213
▁classe	-4214
▁seem	-4215
▁domaine	-4216
▁gratuite	-4217
isl	-4218
▁click	-4219
ruit	-4220
▁intég	-4221
▁deuxième	-4222
▁Fil	-4223
where	-4224
▁population	-4225
▁Over	-4226
▁Tur	-4227
▁loi	-4228
enge	-4229
izing	-4230
▁outside	-4231
▁correspond	-4232
iforn	-4233
▁aura	-4234
▁lundi	-4235
▁vent	-4236
▁wall	-4237
▁prend	-4238
▁résultats	-4239
▁significant	-4240
▁Rel	-4241
lique	-4242
▁période	-4243
mas	-4244
▁third	-4245
▁jardin	-4246
usse	-4247
endent	-4248
▁Every	-4249
▁exception	-4250
érieure	-4251
obilier	-4252
▁education	-4253
▁inside	-4254
▁pours	-4255
istique	-4256
9.	-4257
▁nice	-4258
▁estim	-4259
ality	-4260
▁wide	-4261
TS	-4262
▁nuit	-4263
OUR	-4264
▁fans	-4265
▁sujet	-4266
issant	-4267
▁party	-4268
▁meeting	-4269
▁LE	-4270
▁safe	-4271
▁pourquoi	-4272
Ad	-4273
▁micro	-4274
▁500	-4275
▁Cela	-4276
▁recommand	-4277
▁takes	-4278
▁atte	-4279
▁variety	-4280
yr	-4281
▁held	-4282
▁quelque	-4283
▁ouvert	-4284
hib	-4285
▁stress	-4286
▁cherche	-4287
▁changes	-4288
▁propre	-4289
▁probably	-4290
▁pretty	-4291
weet	-4292
▁America	-4293
▁£	-4294
▁else	-4295
▁Contact	-4296
▁ensuite	-4297
▁cool	-4298
ancement	-4299
▁appli	-4300
▁rendre	-4301
ees	-4302
▁desc	-4303
▁modèle	-4304
▁tar	-4305
▁represent	-4306
▁Satur	-4307
▁block	-4308
▁choses	-4309
▁bénéfic	-4310
▁serve	-4311
▁anyone	-4312
▁instru	-4313
▁section	-4314
▁contra	-4315
▁augment	-4316
▁Ly	-4317
▁Lors	-4318
▁lorsque	-4319
board	-4320
-201	-4321
▁absol	-4322
itte	-4323
▁expérience	-4324
▁stop	-4325
▁blanc	-4326
▁prise	-4327
▁Most	-4328
BC	-4329
▁Mat	-4330
▁wanted	-4331
▁Great	-4332
▁learning	-4333
▁gens	-4334
ouverture	-4335
▁chambres	-4336
▁screen	-4337
dom	-4338
▁Good	-4339
▁shows	-4340
mail	-4341
▁region	-4342
agram	-4343
▁anti	-4344
▁tent	-4345
enance	-4346
▁couleur	-4347
▁4.	-4348
ford	-4349
▁rue	-4350
▁aucun	-4351
umin	-4352
igine	-4353
▁syn	-4354
▁leading	-4355
▁terrain	-4356
▁départ	-4357
95	-4358
▁growth	-4359
??	-4360
net	-4361
▁typ	-4362
▁similar	-4363
ecut	-4364
▁matter	-4365
▁projects	-4366
ellig	-4367
▁gre	-4368
▁plutôt	-4369
▁recommend	-4370
▁deg	-4371
▁Soci	-4372
box	-4373
unk	-4374
▁safety	-4375
▁stratég	-4376
▁English	-4377
▁village	-4378
▁worth	-4379
▁longue	-4380
amed	-4381
▁Sub	-4382
▁Tous	-4383
▁cœur	-4384
expl	-4385
▁items	-4386
▁100%	-4387
▁town	-4388
▁general	-4389
hait	-4390
ennes	-4391
leg	-4392
▁solid	-4393
▁Aff	-4394
▁cult	-4395
▁parts	-4396
▁recogn	-4397
▁compagn	-4398
ya	-4399
▁PS	-4400
▁er	-4401
▁distance	-4402
azine	-4403
▁actions	-4404
▁System	-4405
▁goal	-4406
té	-4407
même	-4408
▁agree	-4409
▁subject	-4410
▁challeng	-4411
▁dog	-4412
▁adult	-4413
VID	-4414
ashion	-4415
▁Pas	-4416
acle	-4417
▁agré	-4418
▁matière	-4419
▁loss	-4420
▁zone	-4421
▁member	-4422
za	-4423
▁skin	-4424
▁établ	-4425
tant	-4426
▁Fam	-4427
▁medical	-4428
▁dynam	-4429
48	-4430
▁nég	-4431
NE	-4432
▁Sen	-4433
▁bath	-4434
▁précéd	-4435
gar	-4436
rick	-4437
▁lien	-4438
sur	-4439
▁choisir	-4440
▁purchase	-4441
eds	-4442
pring	-4443
▁Dec	-4444
▁paint	-4445
▁easily	-4446
▁rock	-4447
▁aller	-4448
install	-4449
oure	-4450
▁pal	-4451
▁ayant	-4452
▁suggest	-4453
Fr	-4454
lant	-4455
ublic	-4456
▁étaient	-4457
cil	-4458
▁Brit	-4459
▁Street	-4460
uage	-4461
étaire	-4462
▁=	-4463
▁choice	-4464
ums	-4465
▁King	-4466
orial	-4467
itaires	-4468
▁noir	-4469
▁step	-4470
▁journal	-4471
dy	-4472
▁adj	-4473
▁Wash	-4474
▁prep	-4475
▁leave	-4476
soft	-4477
▁ensemble	-4478
aît	-4479
▁sun	-4480
hu	-4481
▁prices	-4482
▁bât	-4483
▁looks	-4484
▁sports	-4485
▁souhait	-4486
▁Class	-4487
▁behind	-4488
Wh	-4489
▁loin	-4490
▁rich	-4491
▁Cas	-4492
▁ci	-4493
▁Thanks	-4494
▁Exp	-4495
ml	-4496
▁AP	-4497
iple	-4498
▁Saturday	-4499
▁positive	-4500
▁received	-4501
▁sn	-4502
cell	-4503
▁Green	-4504
▁régul	-4505
gin	-4506
▁jud	-4507
▁devrait	-4508
▁sound	-4509
▁wel	-4510
▁amazing	-4511
▁découver	-4512
pper	-4513
ormais	-4514
▁higher	-4515
▁About	-4516
ios	-4517
akes	-4518
ancy	-4519
▁emp	-4520
▁station	-4521
▁influ	-4522
inf	-4523
▁pm	-4524
cel	-4525
▁RE	-4526
▁cru	-4527
▁fine	-4528
▁subst	-4529
▁surve	-4530
▁establ	-4531
▁séjour	-4532
▁earn	-4533
▁larg	-4534
onie	-4535
▁obt	-4536
▁Rest	-4537
▁CD	-4538
gent	-4539
▁Entre	-4540
▁electric	-4541
ini	-4542
▁summer	-4543
▁cookies	-4544
▁virt	-4545
5,	-4546
▁Plan	-4547
▁Let	-4548
based	-4549
▁Alex	-4550
▁ideas	-4551
▁inspir	-4552
▁quickly	-4553
IF	-4554
▁hommes	-4555
▁sole	-4556
▁board	-4557
▁character	-4558
▁gamme	-4559
▁Champ	-4560
▁aspect	-4561
ny	-4562
▁quotidien	-4563
▁Tod	-4564
▁Also	-4565
▁sold	-4566
▁London	-4567
▁experts	-4568
ulations	-4569
▁moyen	-4570
▁inte	-4571
▁center	-4572
▁voit	-4573
▁occasion	-4574
▁Prés	-4575
▁term	-4576
▁stream	-4577
ura	-4578
▁song	-4579
cing	-4580
▁Gar	-4581
▁providing	-4582
▁Mach	-4583
▁stage	-4584
AB	-4585
venu	-4586
▁susp	-4587
La	-4588
bers	-4589
▁wood	-4590
▁trading	-4591
▁built	-4592
irth	-4593
▁Hel	-4594
▁Californ	-4595
▁hair	-4596
▁related	-4597
▁policy	-4598
▁u	-4599
lets	-4600
érence	-4601
actions	-4602
raft	-4603
CT	-4604
▁refer	-4605
▁bank	-4606
▁semble	-4607
▁couleurs	-4608
▁tick	-4609
▁Cet	-4610
▁hotel	-4611
hood	-4612
▁lire	-4613
OD	-4614
▁06	-4615
light	-4616
▁proxim	-4617
▁computer	-4618
▁peau	-4619
▁accord	-4620
pm	-4621
roy	-4622
▁dress	-4623
urt	-4624
irer	-4625
teur	-4626
▁conduct	-4627
ht	-4628
▁asked	-4629
▁Well	-4630
▁Monday	-4631
▁career	-4632
UT	-4633
ooth	-4634
▁doivent	-4635
▁Amazon	-4636
▁Camp	-4637
anding	-4638
▁allows	-4639
iling	-4640
▁nécessaire	-4641
▁méth	-4642
▁surv	-4643
▁française	-4644
9,	-4645
▁Coun	-4646
▁parfa	-4647
▁sud	-4648
▁Cong	-4649
anges	-4650
▁Conc	-4651
▁vision	-4652
▁Find	-4653
put	-4654
.”	-4655
ached	-4656
▁jeudi	-4657
ij	-4658
avy	-4659
atory	-4660
ka	-4661
ôtels	-4662
▁true	-4663
▁Journ	-4664
ipe	-4665
iversité	-4666
▁convers	-4667
▁mercredi	-4668
▁passion	-4669
hum	-4670
▁chauff	-4671
auche	-4672
▁spir	-4673
▁format	-4674
iddle	-4675
▁améli	-4676
▁Jack	-4677
▁coff	-4678
▁answer	-4679
▁Thom	-4680
▁vont	-4681
▁Tex	-4682
attle	-4683
aves	-4684
▁procéd	-4685
▁practice	-4686
▁sortie	-4687
idential	-4688
▁favorite	-4689
▁45	-4690
▁Elect	-4691
rab	-4692
▁Nos	-4693
▁longer	-4694
▁seek	-4695
ola	-4696
▁der	-4697
38	-4698
▁playing	-4699
▁traitement	-4700
▁Sy	-4701
▁Add	-4702
▁tard	-4703
▁books	-4704
plement	-4705
▁Apple	-4706
▁rê	-4707
ners	-4708
alités	-4709
▁meilleurs	-4710
ATION	-4711
ga	-4712
rement	-4713
▁ordin	-4714
▁réaliser	-4715
RA	-4716
▁lux	-4717
▁aliment	-4718
▁apply	-4719
SS	-4720
omet	-4721
▁gold	-4722
▁clin	-4723
▁Department	-4724
▁targ	-4725
▁Bas	-4726
▁rej	-4727
asseur	-4728
▁Rép	-4729
▁fresh	-4730
▁cot	-4731
▁Develop	-4732
▁certaines	-4733
rel	-4734
▁Mot	-4735
▁dér	-4736
▁late	-4737
house	-4738
▁stra	-4739
▁appare	-4740
ède	-4741
orage	-4742
▁decision	-4743
▁documents	-4744
▁nationale	-4745
▁simplement	-4746
iments	-4747
▁kitchen	-4748
▁band	-4749
▁football	-4750
▁gas	-4751
isode	-4752
▁Dist	-4753
▁temp	-4754
▁Selon	-4755
▁morning	-4756
▁dég	-4757
▁risque	-4758
▁Bay	-4759
▁parfois	-4760
▁fille	-4761
▁grandes	-4762
44	-4763
ounts	-4764
▁Ant	-4765
▁Sud	-4766
▁Law	-4767
isez	-4768
ailler	-4769
68	-4770
▁Gal	-4771
▁dos	-4772
▁Français	-4773
oups	-4774
enses	-4775
▁maximum	-4776
▁benefits	-4777
▁disponibles	-4778
:30	-4779
▁Bou	-4780
▁rom	-4781
▁département	-4782
▁ones	-4783
▁histoire	-4784
▁cases	-4785
yp	-4786
▁Ou	-4787
▁Maison	-4788
rag	-4789
▁programs	-4790
▁professionnel	-4791
Mar	-4792
▁Sunday	-4793
▁3,	-4794
▁Mo	-4795
▁bag	-4796
▁hit	-4797
▁Const	-4798
▁Mil	-4799
▁feed	-4800
▁semaines	-4801
uels	-4802
▁user	-4803
▁extre	-4804
yth	-4805
▁Dom	-4806
▁Sil	-4807
rupt	-4808
▁interview	-4809
prit	-4810
▁Mor	-4811
▁condu	-4812
▁mardi	-4813
▁Spec	-4814
▁rather	-4815
▁mél	-4816
▁release	-4817
▁campaign	-4818
▁lives	-4819
▁experien	-4820
▁meilleure	-4821
once	-4822
▁Dou	-4823
▁daily	-4824
▁parties	-4825
issez	-4826
▁enfant	-4827
▁mun	-4828
ground	-4829
enseigne	-4830
▁Rich	-4831
▁jouer	-4832
▁étudi	-4833
oign	-4834
▁Russ	-4835
ano	-4836
lick	-4837
▁ble	-4838
▁nut	-4839
▁retrouver	-4840
▁Lo	-4841
▁Rad	-4842
▁rendez	-4843
▁essential	-4844
èves	-4845
ivity	-4846
''	-4847
▁capital	-4848
Or	-4849
▁maî	-4850
▁directement	-4851
As	-4852
▁Nov	-4853
▁included	-4854
▁remember	-4855
▁Product	-4856
▁Cré	-4857
ensions	-4858
▁contem	-4859
▁droits	-4860
▁deep	-4861
▁White	-4862
eness	-4863
▁highly	-4864
▁Rock	-4865
▁cry	-4866
▁terme	-4867
▁commune	-4868
IA	-4869
»,	-4870
▁Votre	-4871
my	-4872
lor	-4873
▁oppos	-4874
▁valeur	-4875
▁effective	-4876
▁fol	-4877
▁costs	-4878
article	-4879
▁mouve	-4880
▁worked	-4881
▁EN	-4882
▁Power	-4883
paration	-4884
ifié	-4885
▁esc	-4886
▁Contin	-4887
▁cond	-4888
enez	-4889
quet	-4890
apter	-4891
▁Trump	-4892
asons	-4893
▁destin	-4894
▁rôle	-4895
▁announced	-4896
▁désormais	-4897
▁march	-4898
▁ep	-4899
itor	-4900
▁Big	-4901
▁sûr	-4902
▁ferm	-4903
▁seems	-4904
fois	-4905
lements	-4906
uration	-4907
▁Gard	-4908
▁pièce	-4909
▁permettre	-4910
edia	-4911
eler	-4912
hern	-4913
▁death	-4914
2)	-4915
▁Any	-4916
▁nothing	-4917
asser	-4918
▁Télé	-4919
▁Vi	-4920
▁Whe	-4921
▁ability	-4922
▁patient	-4923
▁materials	-4924
▁squ	-4925
▁wish	-4926
▁Sing	-4927
▁Voici	-4928
▁consid	-4929
ki	-4930
▁discover	-4931
quelle	-4932
▁celebr	-4933
▁Germ	-4934
▁gé	-4935
▁neg	-4936
▁helps	-4937
▁mi	-4938
▁étant	-4939
abord	-4940
▁Android	-4941
▁Ro	-4942
▁catég	-4943
▁dollars	-4944
hi	-4945
▁relig	-4946
▁répondre	-4947
▁Quel	-4948
▁vivre	-4949
▁durant	-4950
ky	-4951
▁Non	-4952
▁Miche	-4953
▁films	-4954
▁relation	-4955
▁leader	-4956
▁vacc	-4957
▁Road	-4958
▁genre	-4959
▁Découv	-4960
▁Nord	-4961
illeurs	-4962
▁réponse	-4963
-5	-4964
▁planning	-4965
▁flow	-4966
▁conseils	-4967
▁ET	-4968
irs	-4969
▁nation	-4970
▁Commission	-4971
▁Care	-4972
▁autant	-4973
100	-4974
rons	-4975
▁hyd	-4976
▁(3	-4977
▁Long	-4978
▁possib	-4979
uth	-4980
MP	-4981
▁particulier	-4982
itely	-4983
édi	-4984
▁salon	-4985
▁cél	-4986
▁évé	-4987
▁auto	-4988
▁chem	-4989
▁01	-4990
▁Ber	-4991
▁lab	-4992
▁lower	-4993
berg	-4994
itif	-4995
▁conte	-4996
▁©	-4997
▁taux	-4998
origine	-4999
▁weight	-5000
▁caf	-5001
▁médec	-5002
▁Mark	-5003
▁situé	-5004
▁joueurs	-5005
▁sociaux	-5006
▁dernières	-5007
▁East	-5008
cles	-5009
▁Sign	-5010
formations	-5011
▁Why	-5012
▁View	-5013
▁path	-5014
▁réuss	-5015
mission	-5016
▁businesses	-5017
▁fat	-5018
▁illust	-5019
▁proximité	-5020
ousse	-5021
▁write	-5022
▁display	-5023
▁Env	-5024
▁Ham	-5025
▁hands	-5026
▁Management	-5027
▁attack	-5028
▁parmi	-5029
▁chale	-5030
▁Life	-5031
▁door	-5032
hold	-5033
▁Soc	-5034
▁stre	-5035
UN	-5036
uré	-5037
▁sen	-5038
aries	-5039
▁picture	-5040
den	-5041
ging	-5042
▁average	-5043
enty	-5044
▁disposition	-5045
▁ground	-5046
▁pourrez	-5047
▁cannot	-5048
88	-5049
▁�	-5050
▁AL	-5051
ébec	-5052
mon	-5053
Eur	-5054
rom	-5055
information	-5056
▁07	-5057
field	-5058
▁Many	-5059
▁gives	-5060
▁300	-5061
▁lut	-5062
▁laquelle	-5063
▁vrai	-5064
uesday	-5065
issions	-5066
▁Log	-5067
-4	-5068
ergie	-5069
nements	-5070
▁Then	-5071
ablement	-5072
▁souhaitez	-5073
▁Max	-5074
▁malad	-5075
▁student	-5076
rary	-5077
issements	-5078
▁<	-5079
▁tiss	-5080
▁gradu	-5081
asy	-5082
osph	-5083
▁concent	-5084
▁multiple	-5085
▁lecture	-5086
▁tools	-5087
▁Prov	-5088
▁chocol	-5089
illing	-5090
▁Posté	-5091
▁terre	-5092
▁words	-5093
▁weekend	-5094
urez	-5095
ued	-5096
▁immedi	-5097
▁téléphone	-5098
▁Research	-5099
▁guid	-5100
endu	-5101
▁facil	-5102
Phone	-5103
▁legal	-5104
tien	-5105
▁amis	-5106
merc	-5107
▁concernant	-5108
èles	-5109
▁Water	-5110
▁chiff	-5111
▁chacun	-5112
CC	-5113
▁green	-5114
▁chat	-5115
▁Cro	-5116
▁Conseil	-5117
▁remov	-5118
▁Québec	-5119
ieur	-5120
▁Real	-5121
▁jol	-5122
▁tim	-5123
▁schedu	-5124
▁dise	-5125
▁drug	-5126
▁surpr	-5127
obs	-5128
oise	-5129
▁écrit	-5130
▁Washington	-5131
▁suivre	-5132
/10	-5133
▁Pierre	-5134
▁profiter	-5135
▁agric	-5136
▁terms	-5137
▁active	-5138
▁request	-5139
bit	-5140
▁introdu	-5141
▁vehicle	-5142
achat	-5143
▁énerg	-5144
ifications	-5145
▁Star	-5146
▁aurait	-5147
▁efficace	-5148
▁reported	-5149
ault	-5150
onnect	-5151
▁reb	-5152
ago	-5153
▁Id	-5154
▁magas	-5155
este	-5156
▁firm	-5157
▁IT	-5158
cont	-5159
après	-5160
▁mote	-5161
istic	-5162
▁bless	-5163
▁permis	-5164
intér	-5165
ederal	-5166
mage	-5167
▁souff	-5168
▁succès	-5169
▁bureau	-5170
▁scène	-5171
▁existe	-5172
▁appropri	-5173
▁California	-5174
ds	-5175
▁expected	-5176
▁économique	-5177
érif	-5178
▁piece	-5179
▁ment	-5180
▁presse	-5181
▁Bour	-5182
▁Last	-5183
▁parking	-5184
éments	-5185
anne	-5186
▁terr	-5187
▁depart	-5188
itute	-5189
▁Hall	-5190
uls	-5191
iennes	-5192
▁minimum	-5193
uy	-5194
rale	-5195
▁Fore	-5196
▁contrôle	-5197
▁Christmas	-5198
▁appe	-5199
▁profess	-5200
ouch	-5201
étés	-5202
▁prochain	-5203
▁ded	-5204
▁sett	-5205
▁wed	-5206
isson	-5207
▁difficile	-5208
éma	-5209
endra	-5210
▁normal	-5211
▁proper	-5212
▁crusher	-5213
▁Article	-5214
▁init	-5215
▁express	-5216
ellow	-5217
▁round	-5218
ovid	-5219
▁peint	-5220
AY	-5221
▁Tuesday	-5222
▁possibilité	-5223
onomie	-5224
band	-5225
alie	-5226
coin	-5227
elier	-5228
▁stri	-5229
argent	-5230
▁Public	-5231
▁huge	-5232
issent	-5233
▁drink	-5234
▁obtenir	-5235
▁Christian	-5236
mment	-5237
nesday	-5238
indre	-5239
▁Thank	-5240
▁subs	-5241
▁fully	-5242
activité	-5243
▁Indian	-5244
▁involved	-5245
Ne	-5246
iaire	-5247
anim	-5248
▁James	-5249
▁interested	-5250
▁bin	-5251
▁mur	-5252
▁Site	-5253
▁venir	-5254
▁Company	-5255
▁wal	-5256
▁rare	-5257
▁milieu	-5258
▁dispose	-5259
▁serious	-5260
▁cash	-5261
▁Hot	-5262
iring	-5263
isant	-5264
▁strength	-5265
OW	-5266
▁necessary	-5267
▁Gen	-5268
▁occup	-5269
▁reviews	-5270
▁réf	-5271
▁movie	-5272
▁parler	-5273
▁Michael	-5274
▁Thurs	-5275
▁efforts	-5276
▁Association	-5277
▁donné	-5278
▁requirements	-5279
▁resources	-5280
yes	-5281
▁star	-5282
▁COVID	-5283
ario	-5284
▁cinq	-5285
▁volont	-5286
isés	-5287
▁vite	-5288
▁relax	-5289
▁dry	-5290
agers	-5291
▁Sand	-5292
arante	-5293
▁lost	-5294
▁transform	-5295
▁Tom	-5296
▁rub	-5297
▁supply	-5298
ôte	-5299
illon	-5300
▁accueill	-5301
▁THE	-5302
▁starting	-5303
ological	-5304
▁Fab	-5305
!!!	-5306
▁fight	-5307
▁trust	-5308
▁mm	-5309
▁Year	-5310
door	-5311
▁Tem	-5312
▁05	-5313
▁Even	-5314
teurs	-5315
▁technologies	-5316
66	-5317
âteau	-5318
▁suivi	-5319
▁organization	-5320
▁USA	-5321
ignes	-5322
▁mots	-5323
▁levels	-5324
▁Nic	-5325
▁saw	-5326
veux	-5327
▁Office	-5328
▁goes	-5329
▁Music	-5330
▁countries	-5331
▁Jac	-5332
round	-5333
▁dipl	-5334
▁reli	-5335
osing	-5336
▁flex	-5337
▁decided	-5338
▁calcul	-5339
▁cancer	-5340
▁Philipp	-5341
new	-5342
bourg	-5343
▁Make	-5344
▁released	-5345
77	-5346
▁nett	-5347
▁toile	-5348
▁problèmes	-5349
▁conseil	-5350
▁opportunities	-5351
wide	-5352
▁Prix	-5353
raison	-5354
▁Sports	-5355
down	-5356
▁mett	-5357
selves	-5358
orme	-5359
▁Check	-5360
entiel	-5361
▁achieve	-5362
ffic	-5363
▁élev	-5364
▁lots	-5365
emploi	-5366
▁dating	-5367
▁polic	-5368
▁rouge	-5369
▁confiance	-5370
▁bul	-5371
avais	-5372
istant	-5373
MS	-5374
▁Team	-5375
▁né	-5376
isp	-5377
▁roll	-5378
intérieur	-5379
▁successful	-5380
▁fan	-5381
▁perman	-5382
▁réserv	-5383
▁machines	-5384
Les	-5385
▁hors	-5386
ançois	-5387
uil	-5388
▁Wednesday	-5389
▁4,	-5390
▁Today	-5391
▁speak	-5392
Je	-5393
▁Num	-5394
▁Photo	-5395
▁directly	-5396
ters	-5397
▁auth	-5398
issance	-5399
accès	-5400
quent	-5401
▁pros	-5402
▁durée	-5403
▁employees	-5404
uly	-5405
▁Louis	-5406
▁processus	-5407
▁instead	-5408
rows	-5409
▁alle	-5410
▁renfor	-5411
▁compris	-5412
cole	-5413
icile	-5414
▁Pay	-5415
▁warm	-5416
ariat	-5417
▁derniers	-5418
▁Found	-5419
▁cross	-5420
▁Learn	-5421
▁offering	-5422
▁boy	-5423
▁Voir	-5424
nous	-5425
▁Lim	-5426
asses	-5427
▁trip	-5428
▁pleine	-5429
▁profit	-5430
▁premiers	-5431
▁Bal	-5432
▁William	-5433
ota	-5434
▁giving	-5435
▁word	-5436
▁Microsoft	-5437
▁sources	-5438
▁étr	-5439
ossier	-5440
aime	-5441
▁Bank	-5442
Pro	-5443
▁peux	-5444
▁individuals	-5445
ero	-5446
apes	-5447
▁préfér	-5448
▁présence	-5449
ani	-5450
uelles	-5451
▁Thursday	-5452
▁Texas	-5453
▁parti	-5454
rif	-5455
▁aide	-5456
▁numéro	-5457
▁Hum	-5458
▁science	-5459
▁player	-5460
▁implement	-5461
▁Ainsi	-5462
▁Court	-5463
▁gets	-5464
▁begin	-5465
lé	-5466
500	-5467
onds	-5468
▁forum	-5469
▁milit	-5470
aler	-5471
uille	-5472
urent	-5473
▁Vide	-5474
▁Back	-5475
▁liqu	-5476
▁pisc	-5477
iation	-5478
▁Lab	-5479
▁Download	-5480
▁5.	-5481
▁capit	-5482
▁milli	-5483
▁investment	-5484
▁adopt	-5485
▁connaiss	-5486
imate	-5487
école	-5488
ifiques	-5489
EST	-5490
▁sense	-5491
▁hour	-5492
▁posted	-5493
▁facilement	-5494
▁Bonjour	-5495
▁traditional	-5496
▁Dig	-5497
▁completely	-5498
▁travaill	-5499
▁indic	-5500
▁bedroom	-5501
▁healthy	-5502
▁themselves	-5503
8.	-5504
▁Oh	-5505
▁chant	-5506
▁angl	-5507
ôme	-5508
▁baby	-5509
▁aucune	-5510
▁comments	-5511
aie	-5512
▁Ol	-5513
▁supplément	-5514
▁Ess	-5515
TC	-5516
hol	-5517
ala	-5518
quête	-5519
ualités	-5520
▁definitely	-5521
▁ap	-5522
▁led	-5523
▁contrat	-5524
▁commentaire	-5525
▁pool	-5526
tect	-5527
▁goals	-5528
▁Bi	-5529
▁enfin	-5530
Sh	-5531
▁furn	-5532
▁Open	-5533
▁scol	-5534
▁homes	-5535
▁édition	-5536
▁Food	-5537
▁Forum	-5538
▁diagn	-5539
▁déclaré	-5540
▁Cur	-5541
▁merci	-5542
▁Quand	-5543
▁Since	-5544
▁poste	-5545
▁chemin	-5546
▁réseaux	-5547
▁Community	-5548
cement	-5549
position	-5550
▁creating	-5551
▁Tags	-5552
▁petites	-5553
▁written	-5554
▁Découvrez	-5555
▁siècle	-5556
more	-5557
uler	-5558
ancer	-5559
well	-5560
▁phil	-5561
▁According	-5562
▁ailleurs	-5563
▁prêt	-5564
▁Japan	-5565
▁Ver	-5566
▁Once	-5567
▁ang	-5568
crire	-5569
▁SP	-5570
▁soutien	-5571
▁Look	-5572
ège	-5573
ker	-5574
ibre	-5575
izes	-5576
▁send	-5577
▁ajout	-5578
bert	-5579
ras	-5580
▁mobil	-5581
▁target	-5582
64	-5583
atifs	-5584
▁publi	-5585
onner	-5586
▁utilisé	-5587
gy	-5588
ado	-5589
▁Spe	-5590
▁upon	-5591
▁laisser	-5592
▁maintenance	-5593
lam	-5594
otte	-5595
▁pictures	-5596
▁UN	-5597
porate	-5598
homme	-5599
▁cade	-5600
▁reve	-5601
Am	-5602
érature	-5603
▁comprendre	-5604
▁Cy	-5605
rate	-5606
▁eye	-5607
▁Blue	-5608
▁collaboration	-5609
▁Week	-5610
aled	-5611
▁Fem	-5612
lymp	-5613
iding	-5614
itect	-5615
▁Bill	-5616
▁Festival	-5617
oule	-5618
arlier	-5619
▁personnalis	-5620
▁crise	-5621
▁contenu	-5622
▁permettant	-5623
▁campagne	-5624
▁Det	-5625
▁restaurants	-5626
▁promotion	-5627
▁published	-5628
▁People	-5629
▁wonderful	-5630
▁speed	-5631
▁categ	-5632
ilà	-5633
▁fair	-5634
▁mid	-5635
▁relev	-5636
▁appréc	-5637
▁consist	-5638
oms	-5639
▁Other	-5640
▁rempl	-5641
ca	-5642
otes	-5643
34	-5644
...]	-5645
BA	-5646
Ex	-5647
▁neigh	-5648
▁See	-5649
tempt	-5650
▁tel	-5651
▁vin	-5652
estre	-5653
amin	-5654
aude	-5655
▁Mass	-5656
▁Project	-5657
▁constru	-5658
ipping	-5659
▁Martin	-5660
▁04	-5661
comes	-5662
▁central	-5663
▁contempor	-5664
oma	-5665
▁AR	-5666
▁hear	-5667
▁Mess	-5668
▁meub	-5669
▁attract	-5670
oper	-5671
obe	-5672
▁sym	-5673
▁espace	-5674
▁annoncé	-5675
▁Island	-5676
▁limit	-5677
▁opér	-5678
▁carry	-5679
▁motiv	-5680
▁radio	-5681
Pl	-5682
cipl	-5683
rich	-5684
▁moving	-5685
▁participants	-5686
▁hop	-5687
▁dream	-5688
▁Wall	-5689
▁draw	-5690
▁itself	-5691
▁Sum	-5692
▁analysis	-5693
▁Education	-5694
▁symb	-5695
▁lock	-5696
▁families	-5697
▁mine	-5698
▁NE	-5699
▁Tor	-5700
▁award	-5701
uts	-5702
▁Love	-5703
▁info	-5704
hel	-5705
▁Upd	-5706
▁jobs	-5707
▁myself	-5708
▁FR	-5709
crit	-5710
▁Fre	-5711
▁logiciel	-5712
▁remar	-5713
▁Australia	-5714
▁travailler	-5715
▁CB	-5716
▁sleep	-5717
▁responsable	-5718
8,	-5719
▁nu	-5720
▁hous	-5721
▁trib	-5722
-20	-5723
▁separ	-5724
êts	-5725
▁French	-5726
▁Fire	-5727
▁Inf	-5728
▁shoot	-5729
▁device	-5730
▁protég	-5731
▁General	-5732
énergie	-5733
▁décidé	-5734
▁prevent	-5735
▁thinking	-5736
▁prochaine	-5737
▁Time	-5738
▁outils	-5739
▁rencontres	-5740
abil	-5741
▁finish	-5742
▁2007	-5743
reci	-5744
▁vais	-5745
▁doute	-5746
▁teams	-5747
cr	-5748
▁Code	-5749
CA	-5750
do	-5751
▁dead	-5752
ecutive	-5753
▁experienced	-5754
▁broy	-5755
▁offres	-5756
▁talent	-5757
▁Coll	-5758
ronique	-5759
▁comfortable	-5760
▁proche	-5761
39	-5762
▁figure	-5763
▁interesting	-5764
▁équipes	-5765
▁actuellement	-5766
aqu	-5767
▁mo	-5768
inte	-5769
▁Leg	-5770
Etat	-5771
▁mas	-5772
▁poly	-5773
image	-5774
▁Next	-5775
▁harm	-5776
67	-5777
hôtel	-5778
▁fé	-5779
nels	-5780
▁score	-5781
▁concert	-5782
▁éléments	-5783
pective	-5784
▁casino	-5785
▁installation	-5786
ronic	-5787
espace	-5788
▁voix	-5789
▁Beach	-5790
▁enregist	-5791
MA	-5792
▁2000	-5793
▁dén	-5794
▁décision	-5795
▁mail	-5796
▁manque	-5797
pres	-5798
otions	-5799
oyage	-5800
▁loved	-5801
aling	-5802
▁arrive	-5803
mont	-5804
▁Pan	-5805
▁véritable	-5806
SP	-5807
▁views	-5808
aume	-5809
▁gift	-5810
âtre	-5811
▁état	-5812
▁crois	-5813
▁accompagn	-5814
rew	-5815
overs	-5816
▁municip	-5817
ône	-5818
▁spot	-5819
porter	-5820
▁Kh	-5821
êmes	-5822
▁Vict	-5823
CI	-5824
alle	-5825
riend	-5826
▁Show	-5827
▁load	-5828
▁franc	-5829
▁mauv	-5830
▁Engine	-5831
▁hospital	-5832
▁conven	-5833
èque	-5834
▁yeux	-5835
▁Miss	-5836
▁Bit	-5837
▁Den	-5838
▁forces	-5839
▁growing	-5840
▁programm	-5841
▁Robert	-5842
▁volume	-5843
ded	-5844
▁II	-5845
gest	-5846
▁guerre	-5847
▁entrepr	-5848
émie	-5849
▁sit	-5850
▁played	-5851
▁HD	-5852
▁partner	-5853
▁permettent	-5854
▁trade	-5855
▁proposer	-5856
▁durable	-5857
▁vou	-5858
▁équ	-5859
▁attempt	-5860
▁tém	-5861
▁Thomas	-5862
erap	-5863
▁wid	-5864
▁accès	-5865
icon	-5866
▁dat	-5867
astique	-5868
ministration	-5869
▁5,	-5870
▁Vir	-5871
▁méc	-5872
▁1/	-5873
amour	-5874
association	-5875
merce	-5876
▁libre	-5877
▁groups	-5878
na	-5879
▁ly	-5880
▁Mel	-5881
ference	-5882
...)	-5883
▁enh	-5884
▁broad	-5885
▁response	-5886
▁élèves	-5887
▁constitu	-5888
▁manifest	-5889
▁Call	-5890
▁challenge	-5891
▁référence	-5892
▁heat	-5893
euros	-5894
▁menu	-5895
▁therm	-5896
ainment	-5897
▁afford	-5898
▁viv	-5899
▁Media	-5900
▁publié	-5901
55	-5902
ita	-5903
▁Tu	-5904
▁Ren	-5905
Com	-5906
▁shopping	-5907
▁towards	-5908
upart	-5909
▁rates	-5910
▁MP	-5911
▁avoid	-5912
▁developed	-5913
▁disp	-5914
▁Child	-5915
▁Isra	-5916
▁poll	-5917
▁conséqu	-5918
▁European	-5919
col	-5920
▁béb	-5921
▁chaud	-5922
▁Jun	-5923
▁labor	-5924
▁Indust	-5925
ieuse	-5926
▁soleil	-5927
▁mesures	-5928
▁war	-5929
▁college	-5930
UL	-5931
▁Prop	-5932
▁mount	-5933
▁Cond	-5934
DE	-5935
▁plupart	-5936
mit	-5937
▁écl	-5938
▁changer	-5939
▁acheter	-5940
cs	-5941
isan	-5942
alled	-5943
▁gro	-5944
▁Dev	-5945
▁Angel	-5946
iteur	-5947
▁soins	-5948
▁extrem	-5949
▁classes	-5950
▁Wood	-5951
▁spend	-5952
▁statement	-5953
▁commande	-5954
▁Organ	-5955
▁flu	-5956
▁stories	-5957
▁Nouv	-5958
▁farm	-5959
ech	-5960
dict	-5961
▁Bur	-5962
▁sand	-5963
care	-5964
▁Vers	-5965
▁dark	-5966
▁Chin	-5967
▁lieux	-5968
igner	-5969
istan	-5970
▁Lead	-5971
▁birth	-5972
Cl	-5973
èse	-5974
▁Lat	-5975
▁Mary	-5976
▁environnement	-5977
▁vois	-5978
▁Luc	-5979
▁Sant	-5980
▁loan	-5981
▁race	-5982
▁lumière	-5983
This	-5984
▁tool	-5985
accord	-5986
aliste	-5987
▁parcours	-5988
▁bur	-5989
▁kil	-5990
▁faites	-5991
ta	-5992
▁Board	-5993
▁League	-5994
▁minute	-5995
▁soient	-5996
▁Saf	-5997
▁justice	-5998
▁Enter	-5999
▁presque	-6000
▁numérique	-6001
On	-6002
▁Oct	-6003
▁partager	-6004
wner	-6005
▁mini	-6006
▁neuf	-6007
▁Director	-6008
▁register	-6009
bes	-6010
▁Ca	-6011
▁Pré	-6012
▁Pass	-6013
▁notes	-6014
df	-6015
▁Dim	-6016
▁entry	-6017
▁directeur	-6018
▁moments	-6019
▁devez	-6020
pping	-6021
▁Priv	-6022
▁states	-6023
▁Mill	-6024
▁organiz	-6025
ora	-6026
ceed	-6027
▁Information	-6028
yond	-6029
istics	-6030
▁générale	-6031
▁devenir	-6032
▁pert	-6033
▁woman	-6034
▁accessible	-6035
▁temper	-6036
▁uses	-6037
▁pratiques	-6038
▁Council	-6039
▁Science	-6040
▁exactly	-6041
▁Social	-6042
bres	-6043
▁secret	-6044
▁piscine	-6045
▁activité	-6046
CO	-6047
▁Fort	-6048
▁Noël	-6049
▁slow	-6050
▁sociale	-6051
▁PL	-6052
▁reports	-6053
cm	-6054
▁Pers	-6055
▁motor	-6056
oindre	-6057
▁Light	-6058
▁became	-6059
ato	-6060
haps	-6061
IER	-6062
vin	-6063
▁simpl	-6064
SA	-6065
osc	-6066
annel	-6067
anie	-6068
▁shop	-6069
▁title	-6070
▁consul	-6071
▁livres	-6072
▁emerg	-6073
▁began	-6074
▁envie	-6075
▁Hist	-6076
▁bain	-6077
▁celles	-6078
▁limited	-6079
▁pand	-6080
▁advert	-6081
▁overall	-6082
69	-6083
▁Press	-6084
▁Comments	-6085
aught	-6086
▁miles	-6087
▁saying	-6088
▁coeur	-6089
rome	-6090
naire	-6091
▁instant	-6092
▁session	-6093
agged	-6094
▁blood	-6095
ussures	-6096
ona	-6097
ument	-6098
-8	-6099
oine	-6100
▁wrong	-6101
▁lequel	-6102
▁courses	-6103
▁Bord	-6104
inner	-6105
▁poursu	-6106
▁48	-6107
chan	-6108
iced	-6109
▁suivant	-6110
▁weather	-6111
▁Invest	-6112
▁libert	-6113
Europe	-6114
▁dossier	-6115
outs	-6116
▁CON	-6117
▁annonce	-6118
▁urb	-6119
▁cloth	-6120
▁iPhone	-6121
ME	-6122
agé	-6123
▁voc	-6124
▁vérif	-6125
▁physical	-6126
▁75	-6127
rais	-6128
▁Fer	-6129
▁Each	-6130
▁Chine	-6131
quis	-6132
▁03	-6133
▁pose	-6134
▁trouvé	-6135
▁charges	-6136
urant	-6137
▁pharm	-6138
ètre	-6139
▁Use	-6140
▁nour	-6141
▁thanks	-6142
▁MA	-6143
raine	-6144
▁largest	-6145
htt	-6146
▁billion	-6147
êche	-6148
ocrat	-6149
▁passage	-6150
▁publique	-6151
▁résultat	-6152
▁0.	-6153
▁gagner	-6154
aser	-6155
▁Marie	-6156
oudre	-6157
▁blue	-6158
▁mother	-6159
fast	-6160
oker	-6161
▁gave	-6162
▁offici	-6163
ublique	-6164
▁moyenne	-6165
37	-6166
yg	-6167
▁Opt	-6168
avant	-6169
▁benefit	-6170
application	-6171
▁Access	-6172
▁language	-6173
▁jur	-6174
▁États	-6175
▁config	-6176
▁Support	-6177
▁commence	-6178
▁park	-6179
▁quartier	-6180
user	-6181
▁Esp	-6182
▁stuff	-6183
inos	-6184
▁Matt	-6185
▁wedding	-6186
▁certainly	-6187
men	-6188
▁degree	-6189
▁sait	-6190
▁longtemps	-6191
▁ge	-6192
ustain	-6193
▁avaient	-6194
49	-6195
IRE	-6196
▁cong	-6197
astruct	-6198
▁trouverez	-6199
▁Cra	-6200
istry	-6201
▁Africa	-6202
oto	-6203
▁Cat	-6204
avirus	-6205
▁pouss	-6206
inder	-6207
▁mand	-6208
▁Report	-6209
▁appoint	-6210
▁changement	-6211
▁paie	-6212
▁Mex	-6213
▁symp	-6214
-10	-6215
▁intellig	-6216
da	-6217
▁matériel	-6218
▁PDF	-6219
▁soirée	-6220
ups	-6221
ielle	-6222
ittee	-6223
▁cast	-6224
▁Covid	-6225
▁difference	-6226
▁territoire	-6227
med	-6228
▁AT	-6229
▁Family	-6230
▁domicile	-6231
▁advice	-6232
▁fruits	-6233
▁Tit	-6234
▁delivery	-6235
azz	-6236
▁frame	-6237
▁storage	-6238
▁professionnelle	-6239
De	-6240
PA	-6241
▁trou	-6242
▁vote	-6243
wise	-6244
▁Carol	-6245
▁retra	-6246
▁happen	-6247
▁suit	-6248
▁Aujourd	-6249
▁Special	-6250
▁sometimes	-6251
rid	-6252
▁tips	-6253
▁Color	-6254
▁beach	-6255
▁salari	-6256
▁150	-6257
▁Guide	-6258
▁essenti	-6259
▁Deux	-6260
▁Publ	-6261
▁pén	-6262
▁economic	-6263
▁chaî	-6264
▁gauche	-6265
▁accident	-6266
▁distribution	-6267
▁pou	-6268
Af	-6269
▁mém	-6270
▁devient	-6271
▁manager	-6272
▁festival	-6273
▁construct	-6274
▁Test	-6275
▁partenaires	-6276
▁dispar	-6277
▁capable	-6278
▁considered	-6279
▁caractér	-6280
▁paid	-6281
▁Sport	-6282
▁wants	-6283
▁papier	-6284
ams	-6285
▁Cab	-6286
▁confer	-6287
▁master	-6288
▁messages	-6289
encies	-6290
▁ouver	-6291
▁Game	-6292
▁certaine	-6293
▁CA	-6294
lying	-6295
▁Restaur	-6296
▁Price	-6297
▁offered	-6298
ifie	-6299
▁Data	-6300
▁coin	-6301
▁destination	-6302
▁modèles	-6303
▁contacter	-6304
▁02	-6305
▁Custom	-6306
▁quarter	-6307
▁damage	-6308
▁basic	-6309
▁famili	-6310
▁Aj	-6311
▁dial	-6312
▁Ville	-6313
essions	-6314
mat	-6315
osed	-6316
▁rat	-6317
▁wear	-6318
▁danger	-6319
▁straight	-6320
DA	-6321
del	-6322
▁oui	-6323
▁ideal	-6324
▁expertise	-6325
▁principal	-6326
▁leaders	-6327
▁repair	-6328
▁explique	-6329
36	-6330
▁32	-6331
▁helping	-6332
▁Van	-6333
▁rand	-6334
▁développer	-6335
PR	-6336
▁cheveux	-6337
▁réalisé	-6338
▁communauté	-6339
▁ut	-6340
▁Rég	-6341
ouer	-6342
ivités	-6343
▁thous	-6344
▁moteur	-6345
itecture	-6346
like	-6347
UM	-6348
▁Archives	-6349
▁activity	-6350
ba	-6351
mis	-6352
▁vs	-6353
issons	-6354
unte	-6355
▁dédi	-6356
▁maybe	-6357
onavirus	-6358
▁OF	-6359
/11	-6360
rations	-6361
▁197	-6362
inding	-6363
▁reduce	-6364
alog	-6365
▁Disc	-6366
▁recru	-6367
▁tels	-6368
▁connu	-6369
▁tried	-6370
rét	-6371
▁père	-6372
▁Gén	-6373
▁surprise	-6374
▁participation	-6375
▁feeling	-6376
▁mère	-6377
▁Florida	-6378
▁compagnie	-6379
lim	-6380
▁item	-6381
▁repro	-6382
cteurs	-6383
▁appreci	-6384
gage	-6385
aller	-6386
▁indép	-6387
▁Tim	-6388
▁phase	-6389
▁stick	-6390
▁tests	-6391
▁brought	-6392
▁wasn	-6393
▁Rou	-6394
▁mut	-6395
▁pen	-6396
set	-6397
▁Ros	-6398
auteur	-6399
▁extremely	-6400
▁CN	-6401
▁Place	-6402
▁François	-6403
▁strategy	-6404
▁ai	-6405
▁Cast	-6406
▁Start	-6407
▁indep	-6408
▁Search	-6409
▁schools	-6410
▁utilisateurs	-6411
itz	-6412
rées	-6413
▁évol	-6414
▁guarante	-6415
▁Ul	-6416
▁audio	-6417
▁impress	-6418
):	-6419
ula	-6420
/200	-6421
ered	-6422
inion	-6423
▁vib	-6424
▁mouvement	-6425
▁permettra	-6426
▁selection	-6427
rey	-6428
ennis	-6429
▁unit	-6430
▁commerce	-6431
▁GR	-6432
▁Head	-6433
▁habitants	-6434
▁Have	-6435
▁retail	-6436
▁Women	-6437
▁Chaque	-6438
▁Church	-6439
▁tir	-6440
▁orient	-6441
▁fashion	-6442
lo	-6443
▁devices	-6444
▁agréable	-6445
▁troisième	-6446
ella	-6447
▁Mur	-6448
▁combat	-6449
▁entert	-6450
▁parfait	-6451
roph	-6452
▁Foot	-6453
OG	-6454
▁verre	-6455
bi	-6456
▁hé	-6457
▁Sar	-6458
▁integr	-6459
ello	-6460
rote	-6461
,”	-6462
▁Central	-6463
▁capacité	-6464
▁Technology	-6465
useum	-6466
▁Lyon	-6467
▁spent	-6468
▁commentaires	-6469
▁easier	-6470
yles	-6471
▁cards	-6472
▁stone	-6473
▁physique	-6474
ously	-6475
TER	-6476
top	-6477
▁toi	-6478
▁Mount	-6479
▁truly	-6480
▁felt	-6481
▁mariage	-6482
éder	-6483
▁synd	-6484
▁décor	-6485
▁notice	-6486
▁effects	-6487
ography	-6488
▁understanding	-6489
▁Etats	-6490
▁heard	-6491
iano	-6492
▁Enfin	-6493
comm	-6494
riques	-6495
▁Location	-6496
VD	-6497
ja	-6498
▁Hom	-6499
rition	-6500
▁rights	-6501
▁Live	-6502
▁estate	-6503
▁Development	-6504
▁7,	-6505
▁annual	-6506
idée	-6507
▁observ	-6508
▁pierre	-6509
▁Belg	-6510
▁ahead	-6511
▁Date	-6512
▁Instagram	-6513
▁ast	-6514
▁eat	-6515
▁bons	-6516
▁pressure	-6517
▁véhicule	-6518
▁Ep	-6519
▁Two	-6520
osoph	-6521
▁dent	-6522
expérience	-6523
iquez	-6524
▁célè	-6525
▁creative	-6526
▁œuvre	-6527
▁bonnes	-6528
▁électrique	-6529
▁Er	-6530
▁Kar	-6531
▁Master	-6532
▁marche	-6533
▁holiday	-6534
▁Resp	-6535
▁surf	-6536
▁director	-6537
erred	-6538
organisation	-6539
▁Adv	-6540
▁poids	-6541
▁expéri	-6542
car	-6543
▁ID	-6544
▁purpose	-6545
▁earlier	-6546
▁window	-6547
▁List	-6548
▁Journal	-6549
issage	-6550
▁Author	-6551
olas	-6552
▁fils	-6553
active	-6554
▁assess	-6555
▁nearly	-6556
▁spread	-6557
▁CR	-6558
ection	-6559
▁oe	-6560
__	-6561
ibli	-6562
dessous	-6563
▁compat	-6564
ster	-6565
▁Chic	-6566
▁Jose	-6567
ulaires	-6568
▁Direct	-6569
▁cer	-6570
▁capt	-6571
▁[...]	-6572
▁Note	-6573
▁thank	-6574
indust	-6575
▁croissance	-6576
▁appartement	-6577
free	-6578
sible	-6579
▁repas	-6580
▁launch	-6581
▁fonctionn	-6582
AND	-6583
▁decl	-6584
▁coffee	-6585
umn	-6586
▁00	-6587
▁Wik	-6588
▁Rom	-6589
▁rose	-6590
anches	-6591
erties	-6592
▁regarding	-6593
▁feet	-6594
▁mains	-6595
▁(5	-6596
ulent	-6597
▁recy	-6598
▁rester	-6599
▁beginning	-6600
va	-6601
inct	-6602
▁réd	-6603
▁files	-6604
avantage	-6605
▁political	-6606
ians	-6607
▁cul	-6608
uteur	-6609
▁Sale	-6610
invest	-6611
▁invent	-6612
▁boutique	-6613
He	-6614
▁montre	-6615
▁gain	-6616
▁technologie	-6617
▁Pos	-6618
▁fruit	-6619
aughter	-6620
▁cartes	-6621
▁garage	-6622
▁concasseur	-6623
▁Lake	-6624
▁sympt	-6625
hésitez	-6626
▁offrir	-6627
▁Profession	-6628
▁(0	-6629
▁contain	-6630
▁spl	-6631
▁éto	-6632
▁Arts	-6633
angers	-6634
▁technical	-6635
▁diam	-6636
▁légère	-6637
▁princi	-6638
▁increasing	-6639
▁alternative	-6640
gn	-6641
▁SE	-6642
▁sang	-6643
▁steps	-6644
reh	-6645
▁Aud	-6646
▁locations	-6647
cée	-6648
▁tut	-6649
LC	-6650
▁finally	-6651
▁van	-6652
td	-6653
▁36	-6654
▁coû	-6655
▁préf	-6656
AV	-6657
van	-6658
▁civil	-6659
▁Manager	-6660
▁Network	-6661
aid	-6662
établ	-6663
tenir	-6664
▁compétences	-6665
isseurs	-6666
▁adjust	-6667
▁proven	-6668
▁Cop	-6669
▁den	-6670
▁reçu	-6671
▁Pourquoi	-6672
▁accur	-6673
▁stars	-6674
anda	-6675
▁tap	-6676
▁Premier	-6677
▁Imm	-6678
▁Full	-6679
▁liter	-6680
orrow	-6681
▁Cost	-6682
▁Global	-6683
abs	-6684
▁eyes	-6685
▁Build	-6686
▁urg	-6687
▁wife	-6688
▁connaître	-6689
▁parfaitement	-6690
unis	-6691
▁proced	-6692
▁Jo	-6693
▁10,	-6694
▁Hand	-6695
▁garde	-6696
▁Marketing	-6697
▁president	-6698
▁étudiants	-6699
▁Très	-6700
▁catégorie	-6701
▁Bern	-6702
▁rooms	-6703
îte	-6704
atrice	-6705
▁numer	-6706
▁parle	-6707
▁animal	-6708
▁sch	-6709
▁Under	-6710
▁accom	-6711
▁decor	-6712
▁convert	-6713
▁driving	-6714
mark	-6715
▁Cha	-6716
▁navig	-6717
▁compon	-6718
▁increased	-6719
tection	-6720
▁SU	-6721
▁shared	-6722
▁Soft	-6723
oga	-6724
avor	-6725
arily	-6726
▁Crus	-6727
anging	-6728
environnement	-6729
fa	-6730
accueil	-6731
▁Kn	-6732
▁Click	-6733
▁devra	-6734
▁setting	-6735
▁citoy	-6736
▁DU	-6737
▁texte	-6738
▁threat	-6739
▁responsible	-6740
▁Watch	-6741
▁uniquement	-6742
▁Rh	-6743
▁born	-6744
▁malgré	-6745
▁entraî	-6746
▁update	-6747
▁prol	-6748
▁Los	-6749
▁Qual	-6750
▁moyens	-6751
▁concours	-6752
▁400	-6753
▁vél	-6754
alles	-6755
▁2018,	-6756
▁concl	-6757
▁immediately	-6758
▁gaz	-6759
▁lack	-6760
▁Polit	-6761
▁steel	-6762
▁fro	-6763
▁har	-6764
▁lorsqu	-6765
▁efficient	-6766
▁Merc	-6767
affaires	-6768
▁Réf	-6769
▁journey	-6770
▁Hu	-6771
▁Buy	-6772
appar	-6773
rices	-6774
▁valid	-6775
▁droite	-6776
▁milliards	-6777
▁meilleures	-6778
▁Ir	-6779
▁existing	-6780
▁télév	-6781
▁locaux	-6782
▁turned	-6783
▁surround	-6784
pre	-6785
inger	-6786
▁automatique	-6787
réd	-6788
inal	-6789
irement	-6790
▁Mobile	-6791
▁franch	-6792
▁Although	-6793
entrée	-6794
▁voulez	-6795
▁advantage	-6796
ken	-6797
▁studio	-6798
▁6,	-6799
▁lay	-6800
/12	-6801
ommod	-6802
▁sweet	-6803
▁pattern	-6804
▁Hi	-6805
▁douce	-6806
▁disease	-6807
▁completed	-6808
body	-6809
▁Po	-6810
réal	-6811
▁compt	-6812
▁produce	-6813
opération	-6814
aix	-6815
illé	-6816
▁AD	-6817
itut	-6818
▁ore	-6819
ographie	-6820
▁nord	-6821
novation	-6822
▁Like	-6823
▁laun	-6824
▁gross	-6825
▁thème	-6826
INE	-6827
▁38	-6828
rand	-6829
▁commission	-6830
▁publication	-6831
Is	-6832
▁Mult	-6833
▁idées	-6834
▁finale	-6835
ancing	-6836
▁livraison	-6837
▁République	-6838
▁34	-6839
▁Méd	-6840
mosph	-6841
undred	-6842
▁forte	-6843
IQ	-6844
App	-6845
▁PAR	-6846
▁River	-6847
▁Video	-6848
▁driver	-6849
▁immédi	-6850
icine	-6851
▁basis	-6852
▁British	-6853
▁réalité	-6854
▁premières	-6855
▁Description	-6856
▁Travel	-6857
▁comporte	-6858
▁souhaite	-6859
▁cars	-6860
▁meaning	-6861
▁friendly	-6862
aises	-6863
▁shot	-6864
▁détermin	-6865
▁33	-6866
▁Take	-6867
▁Grâce	-6868
▁belie	-6869
▁incor	-6870
▁buying	-6871
▁Hor	-6872
acité	-6873
▁nouvel	-6874
uty	-6875
▁rav	-6876
▁visual	-6877
êtements	-6878
ologiques	-6879
kin	-6880
pie	-6881
vey	-6882
▁Nom	-6883
ouvre	-6884
▁Dub	-6885
▁agents	-6886
TR	-6887
▁sept	-6888
▁récup	-6889
▁incred	-6890
jectif	-6891
▁participer	-6892
▁délic	-6893
▁politiques	-6894
▁pourtant	-6895
98	-6896
▁Table	-6897
▁videos	-6898
Fi	-6899
tements	-6900
OV	-6901
▁insp	-6902
▁complète	-6903
▁Machine	-6904
▁internationale	-6905
uisse	-6906
▁glass	-6907
▁accompl	-6908
▁(4	-6909
éral	-6910
▁Smart	-6911
▁idéal	-6912
▁secure	-6913
▁Hy	-6914
▁Wi	-6915
▁Tre	-6916
icing	-6917
▁retrouv	-6918
▁faisant	-6919
FA	-6920
état	-6921
▁annivers	-6922
▁associated	-6923
▁roof	-6924
▁numbers	-6925
▁Times	-6926
fit	-6927
sembl	-6928
▁Hill	-6929
▁lines	-6930
adresse	-6931
rite	-6932
enture	-6933
▁operations	-6934
▁gratuitement	-6935
▁Toutes	-6936
▁éviter	-6937
▁bathroom	-6938
ban	-6939
▁aime	-6940
ientôt	-6941
▁sortir	-6942
èrent	-6943
▁consac	-6944
▁highest	-6945
▁challenges	-6946
burg	-6947
▁income	-6948
▁standards	-6949
usé	-6950
èche	-6951
▁porter	-6952
iency	-6953
▁surg	-6954
▁2017,	-6955
▁2019,	-6956
▁marques	-6957
énagement	-6958
▁conception	-6959
uster	-6960
▁demander	-6961
▁consommation	-6962
venus	-6963
▁Link	-6964
▁pull	-6965
onge	-6966
▁Liv	-6967
▁Police	-6968
▁remain	-6969
▁transf	-6970
▁fera	-6971
▁facilities	-6972
pet	-6973
▁AS	-6974
▁bébé	-6975
▁od	-6976
▁fen	-6977
ander	-6978
anned	-6979
▁fête	-6980
▁infr	-6981
▁Charles	-6982
▁cleaning	-6983
▁Pack	-6984
▁doub	-6985
▁manage	-6986
▁fonctionnement	-6987
ty	-6988
▁Ban	-6989
eller	-6990
▁spirit	-6991
▁opening	-6992
▁assistance	-6993
▁ressources	-6994
rian	-6995
▁Digital	-6996
unning	-6997
▁middle	-6998
▁pieces	-6999
irme	-7000
▁prec	-7001
▁performances	-7002
ependant	-7003
▁partage	-7004
irie	-7005
▁impression	-7006
ae	-7007
fait	-7008
andsc	-7009
liers	-7010
onses	-7011
▁Expl	-7012
▁virus	-7013
▁served	-7014
▁residents	-7015
▁reasons	-7016
▁Institute	-7017
Bl	-7018
▁Fun	-7019
▁hôtel	-7020
▁garden	-7021
▁quelle	-7022
▁sin	-7023
▁respond	-7024
74	-7025
▁12,	-7026
▁Marc	-7027
▁dévo	-7028
▁seven	-7029
▁Sans	-7030
▁6.	-7031
▁Hous	-7032
▁outre	-7033
▁IP	-7034
▁parent	-7035
▁finished	-7036
».	-7037
▁changed	-7038
html	-7039
ourse	-7040
▁faud	-7041
▁fonds	-7042
▁Toute	-7043
▁fréqu	-7044
tic	-7045
ainte	-7046
chant	-7047
▁Econom	-7048
▁models	-7049
▁acteurs	-7050
▁comprend	-7051
▁terrasse	-7052
▁Yes	-7053
igu	-7054
oré	-7055
heur	-7056
ènes	-7057
▁TR	-7058
▁Dieu	-7059
▁Offic	-7060
▁mental	-7061
▁windows	-7062
▁villes	-7063
oitation	-7064
▁Auto	-7065
IB	-7066
appro	-7067
▁Cook	-7068
▁letter	-7069
▁programmes	-7070
FR	-7071
▁Men	-7072
ordre	-7073
▁2020,	-7074
▁règles	-7075
▁describ	-7076
▁bio	-7077
poser	-7078
▁fish	-7079
▁publics	-7080
▁lett	-7081
▁Charl	-7082
▁animaux	-7083
lem	-7084
▁hus	-7085
▁gagn	-7086
▁sorte	-7087
Ass	-7088
inée	-7089
▁aid	-7090
▁pair	-7091
ila	-7092
▁!!!	-7093
▁apport	-7094
▁balance	-7095
▁payment	-7096
▁Pays	-7097
▁isol	-7098
▁suffit	-7099
▁Republic	-7100
▁réalisation	-7101
▁Qui	-7102
▁ray	-7103
▁owner	-7104
▁powerful	-7105
▁retrouve	-7106
▁Trip	-7107
▁Writ	-7108
iny	-7109
▁cold	-7110
▁fail	-7111
▁profond	-7112
▁commencer	-7113
▁rig	-7114
▁diss	-7115
▁During	-7116
▁stratégie	-7117
nam	-7118
▁peace	-7119
aman	-7120
▁Series	-7121
rou	-7122
▁dram	-7123
▁Sujet	-7124
fol	-7125
hes	-7126
▁und	-7127
▁uns	-7128
atever	-7129
▁coord	-7130
▁named	-7131
▁Cou	-7132
▁brill	-7133
▁vidéos	-7134
▁hauteur	-7135
oral	-7136
eline	-7137
▁particularly	-7138
look	-7139
▁restrict	-7140
CS	-7141
▁idée	-7142
emment	-7143
▁mining	-7144
▁allowed	-7145
▁fi	-7146
▁Anim	-7147
▁constant	-7148
32	-7149
▁metal	-7150
▁Victor	-7151
aming	-7152
▁mondial	-7153
▁Président	-7154
osh	-7155
▁Lang	-7156
bed	-7157
▁Bed	-7158
friend	-7159
▁mécan	-7160
▁Cependant	-7161
lette	-7162
rated	-7163
LS	-7164
▁paris	-7165
▁helped	-7166
▁England	-7167
▁plateforme	-7168
▁(201	-7169
▁demonst	-7170
▁puisque	-7171
owl	-7172
çons	-7173
phones	-7174
seille	-7175
asp	-7176
iors	-7177
▁fisc	-7178
▁primary	-7179
▁nécessaires	-7180
▁conj	-7181
▁wine	-7182
▁reflect	-7183
▁Rev	-7184
▁discussion	-7185
▁goût	-7186
rimoine	-7187
▁portes	-7188
▁groupes	-7189
▁magazine	-7190
▁immobilier	-7191
rd	-7192
ESS	-7193
▁8,	-7194
▁én	-7195
▁soi	-7196
▁Share	-7197
mé	-7198
▁param	-7199
▁Recher	-7200
▁cinéma	-7201
▁recette	-7202
ourt	-7203
ailed	-7204
▁partout	-7205
▁présenter	-7206
ims	-7207
▁NY	-7208
ètement	-7209
▁beyond	-7210
TH	-7211
ocks	-7212
▁mig	-7213
ôp	-7214
▁Bet	-7215
▁behav	-7216
▁truck	-7217
▁doctor	-7218
▁européenne	-7219
endar	-7220
wers	-7221
▁Sav	-7222
▁Michel	-7223
▁Valley	-7224
▁lois	-7225
▁belles	-7226
▁camera	-7227
▁length	-7228
▁aspects	-7229
1)	-7230
alls	-7231
isent	-7232
▁Games	-7233
▁Radio	-7234
DC	-7235
alyse	-7236
▁determin	-7237
▁Land	-7238
▁rules	-7239
ématique	-7240
▁dix	-7241
▁importante	-7242
▁organisation	-7243
▁55	-7244
▁looked	-7245
▁Mov	-7246
▁reç	-7247
▁finding	-7248
▁senior	-7249
▁Lux	-7250
▁wild	-7251
▁mètres	-7252
▁sector	-7253
▁winter	-7254
▁adresse	-7255
▁(1)	-7256
▁Pop	-7257
▁beauté	-7258
▁methods	-7259
can	-7260
▁tur	-7261
▁Es	-7262
estic	-7263
▁sharing	-7264
onte	-7265
▁measure	-7266
▁AND	-7267
▁rank	-7268
▁entièrement	-7269
▁excited	-7270
▁situations	-7271
ipes	-7272
uters	-7273
▁coût	-7274
▁fabri	-7275
▁useful	-7276
▁Div	-7277
▁Wal	-7278
kn	-7279
▁batt	-7280
esus	-7281
▁Gall	-7282
▁Word	-7283
▁affich	-7284
▁laisse	-7285
OB	-7286
▁compared	-7287
amps	-7288
▁wat	-7289
ispens	-7290
▁proud	-7291
▁testing	-7292
▁Government	-7293
fic	-7294
▁langue	-7295
isco	-7296
▁Bec	-7297
icians	-7298
▁wrote	-7299
▁critical	-7300
▁engagement	-7301
âge	-7302
étude	-7303
▁Whether	-7304
PE	-7305
▁Elles	-7306
▁welcome	-7307
▁George	-7308
och	-7309
apon	-7310
rivée	-7311
▁Niger	-7312
▁Stand	-7313
▁actual	-7314
▁regist	-7315
▁association	-7316
▁stru	-7317
▁haven	-7318
▁posts	-7319
▁Conf	-7320
▁EUR	-7321
offre	-7322
itutions	-7323
▁organizations	-7324
▁Virgin	-7325
▁hôtels	-7326
▁accommod	-7327
▁classique	-7328
▁LED	-7329
▁aren	-7330
▁Chinese	-7331
▁opération	-7332
occup	-7333
▁therap	-7334
▁Bitcoin	-7335
▁défense	-7336
▁although	-7337
▁carrière	-7338
▁dirige	-7339
NA	-7340
cribe	-7341
▁Room	-7342
▁cycle	-7343
avez	-7344
▁evalu	-7345
ERS	-7346
▁TO	-7347
▁cheap	-7348
▁heavy	-7349
▁membre	-7350
▁owners	-7351
installation	-7352
▁professionals	-7353
huile	-7354
▁Security	-7355
▁soin	-7356
▁Canad	-7357
▁Smith	-7358
▁magasin	-7359
▁tendance	-7360
oqu	-7361
▁péd	-7362
▁moved	-7363
▁peine	-7364
▁assure	-7365
ava	-7366
uté	-7367
▁schedule	-7368
▁transfer	-7369
êter	-7370
▁gal	-7371
import	-7372
termine	-7373
▁street	-7374
▁Key	-7375
icale	-7376
▁laws	-7377
▁somme	-7378
nership	-7379
▁seconde	-7380
dire	-7381
▁zones	-7382
▁violence	-7383
▁Bob	-7384
▁ride	-7385
▁Frank	-7386
égét	-7387
craft	-7388
▁Follow	-7389
▁détails	-7390
▁Cup	-7391
FL	-7392
▁Cho	-7393
urers	-7394
▁créé	-7395
▁veux	-7396
▁Rencont	-7397
▁américain	-7398
▁magnifique	-7399
xion	-7400
▁scen	-7401
▁exhib	-7402
utely	-7403
shop	-7404
▁investig	-7405
Il	-7406
▁Ur	-7407
lands	-7408
▁dates	-7409
▁bottom	-7410
▁smooth	-7411
▁conserv	-7412
▁maladie	-7413
▁vitesse	-7414
▁fabrication	-7415
etic	-7416
▁plenty	-7417
▁familles	-7418
▁conference	-7419
bar	-7420
▁lait	-7421
▁repl	-7422
▁guests	-7423
▁prefer	-7424
▁Culture	-7425
arité	-7426
▁prison	-7427
ANT	-7428
duit	-7429
oster	-7430
-6	-7431
appel	-7432
▁dedicated	-7433
wing	-7434
▁11,	-7435
▁Academ	-7436
▁ventes	-7437
▁cabinet	-7438
▁possède	-7439
▁initial	-7440
sec	-7441
▁Hen	-7442
itness	-7443
placer	-7444
▁consc	-7445
▁voice	-7446
▁attrib	-7447
▁economy	-7448
%.	-7449
▁:)	-7450
▁Norm	-7451
▁capacity	-7452
vely	-7453
▁Fac	-7454
▁bonus	-7455
▁commit	-7456
ucky	-7457
uner	-7458
▁dot	-7459
akers	-7460
▁cloud	-7461
▁ancien	-7462
▁updated	-7463
▁numerous	-7464
▁objectif	-7465
ulé	-7466
▁CEO	-7467
icken	-7468
ancien	-7469
▁colors	-7470
▁experiences	-7471
mond	-7472
▁knew	-7473
▁Brown	-7474
▁anglais	-7475
▁hundred	-7476
▁Another	-7477
▁portable	-7478
crete	-7479
riture	-7480
▁shall	-7481
▁connection	-7482
▁biggest	-7483
▁helpful	-7484
▁mondiale	-7485
▁complément	-7486
▁eight	-7487
▁studies	-7488
eneurs	-7489
▁195	-7490
ouvrir	-7491
▁delic	-7492
iat	-7493
▁hyp	-7494
▁trim	-7495
▁greater	-7496
▁Ok	-7497
▁cos	-7498
intég	-7499
▁drop	-7500
▁Philippe	-7501
▁gather	-7502
informations	-7503
▁AC	-7504
inary	-7505
▁lesqu	-7506
▁transpar	-7507
▁découverte	-7508
list	-7509
olit	-7510
▁manger	-7511
bu	-7512
▁Actualités	-7513
▁argu	-7514
France	-7515
▁button	-7516
▁Foundation	-7517
Ag	-7518
▁pod	-7519
▁café	-7520
▁logo	-7521
▁panel	-7522
▁terror	-7523
sung	-7524
▁Litt	-7525
isseur	-7526
▁alone	-7527
reek	-7528
▁authent	-7529
▁keeping	-7530
▁philosoph	-7531
ady	-7532
▁9,	-7533
visor	-7534
▁streaming	-7535
▁colle	-7536
▁voici	-7537
▁Sé	-7538
▁Jon	-7539
▁ryth	-7540
alien	-7541
▁voie	-7542
▁imprim	-7543
▁traffic	-7544
ifts	-7545
quently	-7546
▁études	-7547
▁puissance	-7548
vi	-7549
gas	-7550
▁Help	-7551
iciels	-7552
▁Scott	-7553
▁abord	-7554
▁handle	-7555
▁Chicago	-7556
cean	-7557
inaire	-7558
acles	-7559
▁adding	-7560
▁recevoir	-7561
▁leadership	-7562
▁ski	-7563
▁immobil	-7564
▁talking	-7565
emp	-7566
uns	-7567
bur	-7568
▁pure	-7569
▁arrêt	-7570
▁Ven	-7571
esprit	-7572
▁risques	-7573
uvres	-7574
▁climat	-7575
énom	-7576
▁Set	-7577
▁2016,	-7578
eneur	-7579
▁logement	-7580
▁competition	-7581
igan	-7582
▁extr	-7583
enfant	-7584
▁calme	-7585
▁plants	-7586
▁remove	-7587
▁husband	-7588
▁!!	-7589
iber	-7590
▁Ast	-7591
-7	-7592
▁15,	-7593
▁wire	-7594
▁workers	-7595
▁spectacle	-7596
▁connaissance	-7597
▁7.	-7598
▁golf	-7599
▁listed	-7600
▁requires	-7601
ih	-7602
Tube	-7603
▁2006	-7604
▁réflex	-7605
▁moderne	-7606
▁maintain	-7607
▁appropriate	-7608
ori	-7609
▁websites	-7610
▁Box	-7611
▁ign	-7612
▁stim	-7613
ointe	-7614
▁Perm	-7615
▁assign	-7616
▁Who	-7617
eliers	-7618
▁préparation	-7619
▁120	-7620
▁coc	-7621
andis	-7622
ovation	-7623
ILL	-7624
arts	-7625
▁ath	-7626
▁snow	-7627
▁Jesus	-7628
▁shown	-7629
▁Reviews	-7630
▁communities	-7631
="	-7632
▁Prom	-7633
▁fear	-7634
▁established	-7635
▁rain	-7636
▁Its	-7637
▁envoy	-7638
▁Because	-7639
onnées	-7640
▁importance	-7641
▁hier	-7642
▁Chris	-7643
▁Cit	-7644
▁Royal	-7645
▁map	-7646
▁Person	-7647
▁academ	-7648
▁250	-7649
▁pul	-7650
▁Autom	-7651
▁Peter	-7652
chester	-7653
▁District	-7654
▁chair	-7655
▁developing	-7656
▁Anne	-7657
▁Ball	-7658
▁Daily	-7659
ression	-7660
▁Oper	-7661
▁engage	-7662
▁Town	-7663
▁roman	-7664
▁Même	-7665
aug	-7666
▁ON	-7667
▁étape	-7668
▁bientôt	-7669
ématiques	-7670
▁encourage	-7671
umer	-7672
▁fill	-7673
▁crypt	-7674
▁seeing	-7675
▁indispens	-7676
▁Old	-7677
▁travaille	-7678
onné	-7679
▁guit	-7680
▁produced	-7681
aval	-7682
uted	-7683
esome	-7684
▁réel	-7685
ocation	-7686
▁evening	-7687
▁transition	-7688
yan	-7689
▁Point	-7690
▁Continue	-7691
▁peur	-7692
oureux	-7693
▁discipl	-7694
edy	-7695
▁tele	-7696
effect	-7697
▁déroul	-7698
▁Medical	-7699
▁himself	-7700
….	-7701
ctors	-7702
▁Olymp	-7703
▁approxim	-7704
47	-7705
PC	-7706
▁âg	-7707
▁FOR	-7708
▁Joe	-7709
▁Type	-7710
▁allez	-7711
esses	-7712
▁Maint	-7713
édition	-7714
▁Source	-7715
▁relative	-7716
arde	-7717
▁rot	-7718
xi	-7719
▁37	-7720
▁13,	-7721
▁audience	-7722
▁Nor	-7723
ouche	-7724
▁régulièrement	-7725
▁FL	-7726
town	-7727
▁Ram	-7728
▁impossible	-7729
▁(2	-7730
▁AV	-7731
icks	-7732
▁agent	-7733
▁shape	-7734
importe	-7735
égal	-7736
▁banc	-7737
▁desp	-7738
▁father	-7739
▁culturel	-7740
▁outdoor	-7741
▁Minister	-7742
▁cup	-7743
orney	-7744
▁choisi	-7745
▁tab	-7746
▁glob	-7747
▁chans	-7748
▁waiting	-7749
▁continues	-7750
▁furniture	-7751
▁véhicules	-7752
word	-7753
▁14,	-7754
▁Squ	-7755
▁convention	-7756
illy	-7757
▁Mis	-7758
▁Mons	-7759
▁Avant	-7760
▁description	-7761
TA	-7762
'.	-7763
85	-7764
▁Ref	-7765
▁joy	-7766
▁classic	-7767
MC	-7768
▁USB	-7769
point	-7770
▁Ah	-7771
▁lance	-7772
▁sustain	-7773
▁properties	-7774
▁propriété	-7775
BS	-7776
.00	-7777
▁Ltd	-7778
▁Oui	-7779
▁Union	-7780
▁Lu	-7781
▁hu	-7782
▁Israel	-7783
▁paiement	-7784
▁administrat	-7785
▁govern	-7786
31	-7787
aye	-7788
île	-7789
emic	-7790
▁Bud	-7791
▁systèmes	-7792
▁éd	-7793
▁assurer	-7794
▁markets	-7795
▁personnages	-7796
▁végét	-7797
▁enable	-7798
▁précis	-7799
rine	-7800
bling	-7801
water	-7802
▁CL	-7803
▁bil	-7804
▁fichier	-7805
▁généralement	-7806
▁Mes	-7807
▁designs	-7808
▁premium	-7809
una	-7810
▁relevant	-7811
IX	-7812
▁mir	-7813
▁Eric	-7814
fection	-7815
▁church	-7816
▁visitors	-7817
ads	-7818
▁Ken	-7819
améli	-7820
▁guys	-7821
▁Appar	-7822
▁Montréal	-7823
umé	-7824
▁lutte	-7825
▁Suisse	-7826
▁montant	-7827
▁arts	-7828
iquant	-7829
▁tables	-7830
▁demi	-7831
▁brows	-7832
▁compreh	-7833
uie	-7834
▁codes	-7835
▁mechan	-7836
▁Connect	-7837
intes	-7838
▁joint	-7839
▁sembl	-7840
▁covered	-7841
▁plage	-7842
▁background	-7843
▁Sn	-7844
athol	-7845
▁federal	-7846
▁operating	-7847
▁infrastruct	-7848
▁peinture	-7849
▁vehicles	-7850
▁bénéficier	-7851
ati	-7852
▁remb	-7853
unesse	-7854
▁2018.	-7855
▁Store	-7856
▁joueur	-7857
▁pression	-7858
▁Gh	-7859
asure	-7860
▁compter	-7861
▁Previous	-7862
CD	-7863
esc	-7864
▁Bul	-7865
▁renouv	-7866
▁iP	-7867
▁bande	-7868
▁pét	-7869
▁Toul	-7870
▁prepared	-7871
Se	-7872
icap	-7873
▁souvenir	-7874
',	-7875
agog	-7876
ètes	-7877
▁funds	-7878
▁selected	-7879
And	-7880
▁eth	-7881
arian	-7882
▁Sout	-7883
▁breat	-7884
atively	-7885
▁facility	-7886
▁objectifs	-7887
aven	-7888
▁Tal	-7889
▁touche	-7890
▁AF	-7891
heim	-7892
wel	-7893
▁Syn	-7894
▁célèbre	-7895
▁proches	-7896
▁gone	-7897
▁whose	-7898
▁endroit	-7899
▁determine	-7900
▁thousands	-7901
appr	-7902
▁DVD	-7903
▁Front	-7904
pell	-7905
/2018	-7906
▁iron	-7907
▁2020.	-7908
▁calls	-7909
▁Before	-7910
▁supports	-7911
▁matériaux	-7912
semb	-7913
ateau	-7914
utation	-7915
▁tempor	-7916
▁mac	-7917
▁onto	-7918
▁couldn	-7919
▁neighbor	-7920
▁Atlant	-7921
▁derrière	-7922
▁followed	-7923
▁tes	-7924
avait	-7925
AGE	-7926
▁garder	-7927
▁signal	-7928
▁exciting	-7929
▁Maroc	-7930
▁topic	-7931
▁upgra	-7932
▁spring	-7933
▁stores	-7934
ventions	-7935
▁musical	-7936
▁méthode	-7937
▁cir	-7938
objet	-7939
▁usage	-7940
97	-7941
hips	-7942
itors	-7943
▁réduire	-7944
industrie	-7945
▁MS	-7946
▁pow	-7947
▁ram	-7948
rance	-7949
▁gent	-7950
▁factors	-7951
▁smartphone	-7952
uste	-7953
▁1000	-7954
▁rappel	-7955
▁selling	-7956
You	-7957
▁kit	-7958
▁Fund	-7959
▁fest	-7960
▁task	-7961
▁Associ	-7962
▁YouTube	-7963
▁advanced	-7964
▁daughter	-7965
▁30,	-7966
▁Nice	-7967
▁contrô	-7968
west	-7969
dessus	-7970
▁pieds	-7971
▁Angeles	-7972
▁department	-7973
▁bat	-7974
▁Meet	-7975
▁overs	-7976
▁bought	-7977
▁médias	-7978
▁recycl	-7979
sm	-7980
▁Far	-7981
assurance	-7982
▁télécharge	-7983
46	-7984
onc	-7985
pload	-7986
objectif	-7987
▁indiqué	-7988
▁flat	-7989
ennent	-7990
▁Their	-7991
▁coupe	-7992
appy	-7993
▁lav	-7994
▁crimin	-7995
▁apporter	-7996
▁Eff	-7997
▁cycl	-7998
▁panne	-7999
▁presented	-8000
ende	-8001
▁Film	-8002
▁Santé	-8003
▁continuer	-8004
▁Did	-8005
▁rid	-8006
▁Avis	-8007
▁Util	-8008
▁plastic	-8009
▁Bordeaux	-8010
▁16,	-8011
using	-8012
▁propres	-8013
▁passionn	-8014
iés	-8015
▁rét	-8016
orable	-8017
atement	-8018
▁beauty	-8019
▁métier	-8020
/03	-8021
▁>>	-8022
▁fid	-8023
▁poor	-8024
▁chien	-8025
▁explore	-8026
▁maisons	-8027
▁influence	-8028
▁Ari	-8029
▁Way	-8030
arrivée	-8031
pour	-8032
veur	-8033
État	-8034
▁Pac	-8035
▁ingred	-8036
▁tough	-8037
▁famous	-8038
▁district	-8039
At	-8040
▁20,	-8041
▁joue	-8042
inement	-8043
▁Energy	-8044
igné	-8045
▁bird	-8046
▁Beaut	-8047
▁cadeau	-8048
▁historique	-8049
▁ours	-8050
▁links	-8051
clusion	-8052
▁runs	-8053
▁enjoyed	-8054
▁Fait	-8055
▁Local	-8056
▁larger	-8057
▁bâtiment	-8058
▁generally	-8059
▁beat	-8060
ataires	-8061
▁brings	-8062
▁Richard	-8063
▁architect	-8064
▁Pu	-8065
▁Exper	-8066
owe	-8067
▁0,	-8068
isses	-8069
▁domin	-8070
▁slight	-8071
▁tickets	-8072
▁military	-8073
erry	-8074
▁Wel	-8075
▁Edit	-8076
acters	-8077
illance	-8078
info	-8079
etnam	-8080
▁lose	-8081
▁filles	-8082
▁records	-8083
▁winning	-8084
▁afric	-8085
▁injury	-8086
▁pourront	-8087
▁fantastic	-8088
arc	-8089
▁Ze	-8090
orce	-8091
▁devis	-8092
▁elements	-8093
▁Rose	-8094
▁réce	-8095
▁outil	-8096
▁closed	-8097
▁finance	-8098
éries	-8099
▁vir	-8100
ested	-8101
▁perd	-8102
▁Where	-8103
▁ouverte	-8104
▁package	-8105
▁améliorer	-8106
GE	-8107
▁styl	-8108
▁waste	-8109
annonce	-8110
▁65	-8111
▁féd	-8112
▁mélange	-8113
▁précise	-8114
▁valeurs	-8115
?"	-8116
ataire	-8117
▁coverage	-8118
▁présentation	-8119
add	-8120
▁spac	-8121
▁Obama	-8122
▁totalement	-8123
▁End	-8124
▁lev	-8125
▁Ital	-8126
▁2015,	-8127
▁allemand	-8128
arp	-8129
acks	-8130
uent	-8131
▁Sat	-8132
▁fémin	-8133
▁Patrick	-8134
vet	-8135
accomp	-8136
▁happened	-8137
veille	-8138
▁Categ	-8139
▁girls	-8140
▁placed	-8141
▁Marseille	-8142
▁Tot	-8143
▁annonces	-8144
▁chocolat	-8145
▁concerne	-8146
43	-8147
▁theme	-8148
▁Samsung	-8149
▁finalement	-8150
GB	-8151
ii	-8152
▁dû	-8153
▁Hard	-8154
▁promote	-8155
pendant	-8156
▁regarder	-8157
▁Haut	-8158
▁faible	-8159
▁valu	-8160
▁vill	-8161
▁rasse	-8162
▁passed	-8163
▁chances	-8164
▁circuit	-8165
▁meubles	-8166
▁DES	-8167
▁Pot	-8168
▁disapp	-8169
▁expand	-8170
utiliser	-8171
▁partenariat	-8172
▁Def	-8173
▁carb	-8174
elines	-8175
▁Disney	-8176
▁Bang	-8177
venture	-8178
▁fournir	-8179
▁affordable	-8180
isées	-8181
nelles	-8182
▁concurr	-8183
▁liberté	-8184
▁exercise	-8185
ortunately	-8186
bal	-8187
going	-8188
▁privé	-8189
▁raisons	-8190
▁versions	-8191
▁victoire	-8192
▁cord	-8193
▁artist	-8194
▁Hospital	-8195
▁19,	-8196
▁tree	-8197
▁ferme	-8198
▁bright	-8199
▁chaîne	-8200
blog	-8201
enda	-8202
intage	-8203
▁vital	-8204
▁protéger	-8205
▁continued	-8206
▁particuliers	-8207
UB	-8208
/09	-8209
▁SA	-8210
▁pom	-8211
▁riche	-8212
▁thoughts	-8213
icate	-8214
▁Nicolas	-8215
aches	-8216
▁ship	-8217
▁Belgique	-8218
▁Coupe	-8219
▁south	-8220
▁bonheur	-8221
▁Stock	-8222
▁Financ	-8223
▁acquis	-8224
standing	-8225
▁couver	-8226
▁burn	-8227
atoires	-8228
▁liens	-8229
▁sépar	-8230
▁étude	-8231
▁Electric	-8232
opped	-8233
ifying	-8234
▁perdu	-8235
▁pouvons	-8236
▁contains	-8237
▁institutions	-8238
/2020	-8239
▁sets	-8240
▁taste	-8241
jection	-8242
▁située	-8243
▁suc	-8244
▁volunte	-8245
▁étoiles	-8246
▁evidence	-8247
ingt	-8248
life	-8249
▁17,	-8250
riers	-8251
élect	-8252
▁Beau	-8253
▁perhaps	-8254
▁riv	-8255
anes	-8256
▁thr	-8257
assin	-8258
▁Know	-8259
ao	-8260
avec	-8261
avier	-8262
éroport	-8263
▁partners	-8264
▁ministère	-8265
▁ax	-8266
idité	-8267
▁names	-8268
étiques	-8269
agnement	-8270
cons	-8271
▁brain	-8272
▁deals	-8273
▁fleurs	-8274
▁invite	-8275
▁Champions	-8276
▁ordinateur	-8277
acher	-8278
ocket	-8279
▁catch	-8280
▁rencontrer	-8281
dé	-8282
/2019	-8283
cious	-8284
▁atmosph	-8285
BN	-8286
PM	-8287
▁Nouvelle	-8288
▁réduction	-8289
▁Ext	-8290
▁alg	-8291
▁Clean	-8292
raction	-8293
▁baisse	-8294
▁claire	-8295
▁Shop	-8296
▁effets	-8297
▁entier	-8298
▁visage	-8299
atically	-8300
edom	-8301
abilities	-8302
▁Mah	-8303
▁Ray	-8304
▁Wild	-8305
▁futur	-8306
▁prévu	-8307
▁Lorsque	-8308
DS	-8309
▁Tar	-8310
▁faite	-8311
▁remains	-8312
chat	-8313
▁transl	-8314
].	-8315
▁Petit	-8316
▁communes	-8317
▁réussi	-8318
▁Tax	-8319
▁18,	-8320
▁centres	-8321
.000	-8322
▁Keep	-8323
onneur	-8324
▁profil	-8325
▁mémoire	-8326
▁EX	-8327
▁FA	-8328
▁ja	-8329
▁Dra	-8330
rible	-8331
▁Kore	-8332
▁older	-8333
▁industrial	-8334
oust	-8335
▁Sau	-8336
▁status	-8337
▁artistes	-8338
▁exchange	-8339
▁cependant	-8340
enseignement	-8341
annes	-8342
▁600	-8343
▁Die	-8344
▁fle	-8345
▁diet	-8346
▁plug	-8347
uminium	-8348
▁Comple	-8349
▁visible	-8350
TM	-8351
/06	-8352
eder	-8353
▁causes	-8354
▁dessus	-8355
▁spending	-8356
hors	-8357
itage	-8358
▁sauce	-8359
▁launched	-8360
▁perspective	-8361
/01	-8362
aks	-8363
uant	-8364
▁lancer	-8365
▁becoming	-8366
▁responsabilité	-8367
onnée	-8368
▁Both	-8369
▁Studio	-8370
▁courant	-8371
▁trouble	-8372
▁résidence	-8373
▁jug	-8374
eless	-8375
itent	-8376
▁broyeur	-8377
▁utilise	-8378
▁..	-8379
▁SC	-8380
▁décoration	-8381
▁Daniel	-8382
oirs	-8383
▁Job	-8384
▁rendu	-8385
▁Las	-8386
▁Moh	-8387
ulated	-8388
▁aurez	-8389
▁earth	-8390
▁arrange	-8391
iro	-8392
rad	-8393
sole	-8394
▁inclus	-8395
nés	-8396
▁vul	-8397
▁Mike	-8398
▁medium	-8399
esterday	-8400
▁coronavirus	-8401
éph	-8402
esis	-8403
▁exig	-8404
▁avantages	-8405
▁associations	-8406
▁sea	-8407
▁Spring	-8408
éducation	-8409
63	-8410
ocr	-8411
▁boost	-8412
intérêt	-8413
▁styles	-8414
▁focused	-8415
▁commencé	-8416
▁absolutely	-8417
▁fonctionne	-8418
▁PH	-8419
▁mises	-8420
▁tandis	-8421
▁suspect	-8422
▁FC	-8423
ulpt	-8424
▁detail	-8425
▁conférence	-8426
oz	-8427
▁basket	-8428
▁opened	-8429
▁Party	-8430
aturing	-8431
▁quelqu	-8432
▁ajouter	-8433
▁communiqué	-8434
/05	-8435
▁diz	-8436
▁charm	-8437
▁therefore	-8438
ersey	-8439
▁2005	-8440
iendra	-8441
▁privée	-8442
▁reality	-8443
▁Collection	-8444
▁fuel	-8445
▁tomb	-8446
▁lignes	-8447
▁partenaire	-8448
DT	-8449
▁BR	-8450
▁clubs	-8451
▁ultra	-8452
▁wouldn	-8453
▁Monde	-8454
▁lancé	-8455
ifestyle	-8456
riculture	-8457
▁réponses	-8458
érant	-8459
▁brands	-8460
▁chaleur	-8461
▁Sem	-8462
▁salariés	-8463
ITE	-8464
▁vice	-8465
eries	-8466
▁apart	-8467
▁Policy	-8468
établissement	-8469
▁organisations	-8470
elly	-8471
▁21,	-8472
▁Sher	-8473
▁2019.	-8474
▁caused	-8475
▁starts	-8476
évolution	-8477
▁température	-8478
uries	-8479
▁chante	-8480
▁reliable	-8481
enus	-8482
▁Fond	-8483
▁mist	-8484
▁précédent	-8485
▁administration	-8486
);	-8487
▁Fair	-8488
▁télécharger	-8489
▁Ide	-8490
▁copy	-8491
aliser	-8492
orthern	-8493
▁autorités	-8494
▁ice	-8495
cohol	-8496
crets	-8497
gements	-8498
▁proposons	-8499
oung	-8500
urée	-8501
▁Kim	-8502
▁Pri	-8503
▁core	-8504
▁dimin	-8505
▁hausse	-8506
▁naissance	-8507
▁événement	-8508
ali	-8509
orne	-8510
▁Comb	-8511
▁aware	-8512
▁objets	-8513
▁consulter	-8514
ring	-8515
▁tran	-8516
▁Secret	-8517
dis	-8518
kers	-8519
▁occur	-8520
▁drivers	-8521
▁processes	-8522
uet	-8523
▁8.	-8524
▁unf	-8525
▁warn	-8526
▁Email	-8527
▁2012,	-8528
▁agency	-8529
LA	-8530
▁Control	-8531
▁connected	-8532
riage	-8533
▁deme	-8534
▁2021,	-8535
▁forms	-8536
▁adress	-8537
izer	-8538
▁Ble	-8539
order	-8540
▁Jones	-8541
▁movement	-8542
ami	-8543
anna	-8544
▁Pap	-8545
▁kept	-8546
éraire	-8547
▁bains	-8548
▁Afrique	-8549
▁contexte	-8550
▁expensive	-8551
!"	-8552
zer	-8553
▁units	-8554
▁memory	-8555
▁préparer	-8556
▁événements	-8557
▁partnership	-8558
km	-8559
cks	-8560
▁kid	-8561
▁scr	-8562
▁spons	-8563
▁certific	-8564
▁identify	-8565
▁davantage	-8566
no	-8567
▁phr	-8568
▁grav	-8569
▁Creat	-8570
▁landsc	-8571
▁provider	-8572
prés	-8573
isher	-8574
▁formes	-8575
tw	-8576
▁roy	-8577
lywood	-8578
▁knows	-8579
▁teaching	-8580
FC	-8581
▁novel	-8582
▁eau	-8583
ivier	-8584
▁claims	-8585
▁operation	-8586
▁39	-8587
▁repe	-8588
▁doors	-8589
▁characters	-8590
rip	-8591
▁pic	-8592
creen	-8593
▁ling	-8594
▁purs	-8595
agence	-8596
▁category	-8597
▁pron	-8598
▁advance	-8599
▁foreign	-8600
▁binaires	-8601
▁Jeux	-8602
▁Tech	-8603
▁Steph	-8604
▁champion	-8605
▁emergency	-8606
-9	-8607
▁Card	-8608
ducing	-8609
▁worry	-8610
▁colour	-8611
âche	-8612
économie	-8613
▁seeking	-8614
▁Children	-8615
cial	-8616
▁bleu	-8617
▁gérer	-8618
▁Addition	-8619
▁relationships	-8620
▁Human	-8621
▁Nouve	-8622
▁guess	-8623
▁meant	-8624
▁battery	-8625
criptions	-8626
▁diagnost	-8627
▁SH	-8628
▁Only	-8629
▁decide	-8630
▁dynamique	-8631
▁manufacturing	-8632
zen	-8633
▁switch	-8634
aga	-8635
çant	-8636
▁Boy	-8637
▁tenu	-8638
▁Award	-8639
▁évent	-8640
▁smaller	-8641
▁watching	-8642
Par	-8643
pare	-8644
▁gour	-8645
▁dining	-8646
▁perdre	-8647
▁Society	-8648
▁counter	-8649
▁exclusive	-8650
▁structures	-8651
%,	-8652
▁24,	-8653
▁2014,	-8654
▁excess	-8655
▁fichiers	-8656
▁intérieur	-8657
MM	-8658
TV	-8659
▁Sén	-8660
▁admin	-8661
▁scolaire	-8662
▁separate	-8663
▁enth	-8664
ref	-8665
▁Main	-8666
▁jurid	-8667
▁logiciels	-8668
▁fou	-8669
areil	-8670
▁parl	-8671
icient	-8672
▁Chief	-8673
entation	-8674
▁Télécharger	-8675
ysi	-8676
▁OR	-8677
▁23,	-8678
▁fee	-8679
▁Dern	-8680
▁patrimoine	-8681
inois	-8682
▁Stone	-8683
▁régime	-8684
erst	-8685
▁Cross	-8686
▁corporate	-8687
▁dépl	-8688
▁crème	-8689
▁marchés	-8690
▁volonté	-8691
▁ru	-8692
▁lac	-8693
▁camping	-8694
▁massage	-8695
▁Christop	-8696
▁fasc	-8697
▁tenue	-8698
▁funding	-8699
▁combination	-8700
▁minor	-8701
▁officials	-8702
▁temperature	-8703
▁Commentaires	-8704
ATE	-8705
quée	-8706
▁Sac	-8707
enger	-8708
worth	-8709
▁Diff	-8710
stances	-8711
▁Nature	-8712
▁apprendre	-8713
▁Four	-8714
▁lour	-8715
▁Drive	-8716
▁changing	-8717
han	-8718
oble	-8719
▁Eth	-8720
lines	-8721
▁erre	-8722
aliment	-8723
▁BE	-8724
▁Hon	-8725
▁Lee	-8726
▁MAR	-8727
▁twe	-8728
itifs	-8729
▁Donc	-8730
▁vélo	-8731
époque	-8732
▁majorité	-8733
agée	-8734
▁espaces	-8735
▁missions	-8736
▁accessoires	-8737
éter	-8738
▁Small	-8739
▁termes	-8740
▁processing	-8741
▁satisfaction	-8742
estin	-8743
▁extern	-8744
▁écoles	-8745
▁learned	-8746
Aut	-8747
inds	-8748
ômes	-8749
▁Gab	-8750
▁Webs	-8751
▁Femme	-8752
▁shares	-8753
▁capitale	-8754
tein	-8755
▁Jud	-8756
autom	-8757
écran	-8758
▁Jeff	-8759
▁Maur	-8760
▁agreement	-8761
▁practices	-8762
▁personnage	-8763
▁Pen	-8764
uillez	-8765
▁century	-8766
…)	-8767
oli	-8768
▁Penn	-8769
▁cuir	-8770
iblioth	-8771
▁Casino	-8772
▁Museum	-8773
▁privil	-8774
impression	-8775
REE	-8776
▁swe	-8777
▁Groupe	-8778
▁servir	-8779
▁signed	-8780
▁society	-8781
▁présenté	-8782
SC	-8783
▁Consult	-8784
▁navigation	-8785
ji	-8786
uble	-8787
▁Mun	-8788
▁tor	-8789
ilités	-8790
▁Univers	-8791
▁Ses	-8792
cool	-8793
page	-8794
▁Fra	-8795
▁por	-8796
▁scene	-8797
▁Grande	-8798
▁happens	-8799
▁recettes	-8800
▁utilisation	-8801
olt	-8802
agon	-8803
▁2013,	-8804
▁discount	-8805
avenir	-8806
ôpital	-8807
▁2017.	-8808
▁craft	-8809
▁loans	-8810
▁circulation	-8811
▁Spr	-8812
êtres	-8813
▁west	-8814
▁flight	-8815
▁chemical	-8816
▁représente	-8817
gal	-8818
ials	-8819
▁Mir	-8820
ulate	-8821
▁despite	-8822
▁(8	-8823
iana	-8824
▁Ens	-8825
▁Lord	-8826
▁push	-8827
arrant	-8828
onique	-8829
▁label	-8830
▁Products	-8831
▁innovative	-8832
itant	-8833
ériques	-8834
poration	-8835
▁independent	-8836
▁ur	-8837
▁mens	-8838
ussian	-8839
▁entrée	-8840
levision	-8841
▁Johnson	-8842
▁conform	-8843
▁800	-8844
▁Sales	-8845
▁Joseph	-8846
▁Origin	-8847
▁caractère	-8848
▁mentioned	-8849
adel	-8850
osis	-8851
▁Lin	-8852
tit	-8853
▁22,	-8854
▁Football	-8855
là	-8856
ria	-8857
▁Mid	-8858
▁clés	-8859
étaires	-8860
lix	-8861
▁recommended	-8862
PN	-8863
known	-8864
assage	-8865
▁penser	-8866
▁recipe	-8867
▁affaires	-8868
hér	-8869
▁44	-8870
dits	-8871
front	-8872
ronom	-8873
▁Girl	-8874
▁puisse	-8875
▁raised	-8876
▁demandé	-8877
▁showing	-8878
don	-8879
▁brief	-8880
▁poser	-8881
▁profile	-8882
▁visiter	-8883
Book	-8884
▁crow	-8885
▁oubl	-8886
▁symbol	-8887
▁strategies	-8888
▁bij	-8889
▁apps	-8890
ansion	-8891
▁anticip	-8892
▁revenue	-8893
▁shipping	-8894
clud	-8895
▁innovation	-8896
Est	-8897
icité	-8898
▁desk	-8899
▁Estate	-8900
▁montrer	-8901
while	-8902
▁rise	-8903
ima	-8904
▁95	-8905
▁lend	-8906
yright	-8907
▁robot	-8908
▁lettre	-8909
idemment	-8910
▁breakfast	-8911
▁tellement	-8912
▁Fur	-8913
Union	-8914
ignon	-8915
▁Chall	-8916
assurer	-8917
DI	-8918
▁Math	-8919
▁Ligue	-8920
▁dessin	-8921
▁Crusher	-8922
▁construire	-8923
▁prestations	-8924
▁cities	-8925
▁eating	-8926
▁réunion	-8927
écut	-8928
▁Mars	-8929
ologue	-8930
▁province	-8931
▁Insurance	-8932
▁Published	-8933
vre	-8934
▁Trav	-8935
mercial	-8936
▁habitu	-8937
▁fitness	-8938
▁allowing	-8939
Art	-8940
ayer	-8941
▁rental	-8942
▁hi	-8943
▁mér	-8944
athan	-8945
Afrique	-8946
entretien	-8947
▁récemment	-8948
300	-8949
▁Société	-8950
neur	-8951
autés	-8952
raphe	-8953
▁veget	-8954
▁telles	-8955
▁Through	-8956
▁rêve	-8957
ellect	-8958
▁élections	-8959
▁Dam	-8960
right	-8961
▁Fact	-8962
rative	-8963
ruption	-8964
▁sessions	-8965
!)	-8966
▁tub	-8967
agues	-8968
▁fees	-8969
▁Manufact	-8970
ORT	-8971
orient	-8972
▁Using	-8973
▁favour	-8974
▁obtain	-8975
▁managed	-8976
▁obvious	-8977
▁teacher	-8978
▁committed	-8979
aya	-8980
clé	-8981
plus	-8982
▁prat	-8983
▁Edition	-8984
▁appareil	-8985
▁télévision	-8986
▁wheel	-8987
▁CP	-8988
mental	-8989
▁Quant	-8990
▁Somet	-8991
▁lovely	-8992
▁témoign	-8993
▁nutrition	-8994
▁synth	-8995
▁institution	-8996
/07	-8997
▁Night	-8998
▁Perform	-8999
▁morce	-9000
▁payer	-9001
▁putting	-9002
▁voitures	-9003
▁Bes	-9004
▁jump	-9005
iaires	-9006
▁mêmes	-9007
▁salles	-9008
▁sounds	-9009
▁square	-9010
▁compens	-9011
▁enseign	-9012
▁measures	-9013
▁apartment	-9014
▁installed	-9015
core	-9016
▁Pak	-9017
▁Suite	-9018
▁artists	-9019
▁suitable	-9020
▁whatever	-9021
iot	-9022
iph	-9023
▁mén	-9024
▁Japon	-9025
▁Produ	-9026
▁défaut	-9027
▁showed	-9028
▁Western	-9029
▁consumers	-9030
exploitation	-9031
aisser	-9032
▁aband	-9033
▁garantie	-9034
ef	-9035
▁maîtr	-9036
▁consultation	-9037
abet	-9038
midi	-9039
▁clé	-9040
▁Roll	-9041
▁clair	-9042
▁déche	-9043
▁leaving	-9044
▁concerns	-9045
All	-9046
▁Situ	-9047
▁chercher	-9048
▁principe	-9049
6)	-9050
ius	-9051
▁ami	-9052
▁voilà	-9053
▁presence	-9054
▁previously	-9055
olars	-9056
▁Asia	-9057
option	-9058
▁values	-9059
▁distinct	-9060
orb	-9061
analyse	-9062
▁typically	-9063
▁emotion	-9064
ogne	-9065
ueux	-9066
▁lift	-9067
▁Earth	-9068
▁confidence	-9069
ulf	-9070
▁mic	-9071
▁Carl	-9072
▁Coast	-9073
▁honest	-9074
▁hearing	-9075
ju	-9076
▁Haw	-9077
/2017	-9078
▁Plant	-9079
▁sugar	-9080
axy	-9081
▁faudra	-9082
▁totally	-9083
alty	-9084
érée	-9085
▁bras	-9086
▁chap	-9087
▁covers	-9088
▁niveaux	-9089
▁Magazine	-9090
▁Ap	-9091
▁paix	-9092
▁crédit	-9093
▁joined	-9094
▁becomes	-9095
▁updates	-9096
Université	-9097
▁passant	-9098
▁connaissances	-9099
▁CC	-9100
▁faith	-9101
▁possibly	-9102
▁permanent	-9103
42	-9104
-12	-9105
auc	-9106
▁Santa	-9107
▁leads	-9108
▁dinner	-9109
▁propriétaire	-9110
aro	-9111
▁Puis	-9112
▁accounts	-9113
▁sociétés	-9114
▁$1	-9115
▁guy	-9116
cepte	-9117
▁Afin	-9118
▁Cher	-9119
▁Ford	-9120
▁awesome	-9121
▁heureux	-9122
▁opinion	-9123
EMENT	-9124
▁intr	-9125
▁flash	-9126
eps	-9127
▁Dar	-9128
▁Magn	-9129
▁fell	-9130
▁hall	-9131
▁forget	-9132
gers	-9133
▁10:	-9134
▁busy	-9135
igueur	-9136
▁Georg	-9137
▁grant	-9138
▁honor	-9139
▁remerc	-9140
▁majority	-9141
uma	-9142
▁28,	-9143
▁Forex	-9144
▁siège	-9145
▁Software	-9146
▁instructions	-9147
▁kick	-9148
▁faits	-9149
▁filter	-9150
▁diverses	-9151
▁Ent	-9152
ifiée	-9153
étais	-9154
▁preuve	-9155
▁policies	-9156
dem	-9157
endez	-9158
▁Stat	-9159
▁cris	-9160
▁shut	-9161
letter	-9162
▁perte	-9163
▁asking	-9164
▁formations	-9165
▁ingredients	-9166
▁transformation	-9167
▁legisl	-9168
▁capture	-9169
▁Congress	-9170
▁principaux	-9171
▁reserv	-9172
▁connexion	-9173
▁complètement	-9174
▁DC	-9175
▁lun	-9176
▁Haute	-9177
ternoon	-9178
▁flo	-9179
rages	-9180
▁interior	-9181
▁signature	-9182
▁Rod	-9183
abase	-9184
autor	-9185
▁Hong	-9186
▁died	-9187
▁médecin	-9188
▁handicap	-9189
▁engineering	-9190
▁conversation	-9191
/02	-9192
▁Ty	-9193
-200	-9194
▁écran	-9195
▁Inn	-9196
▁pér	-9197
▁Laurent	-9198
▁properly	-9199
▁transmission	-9200
QU	-9201
▁DR	-9202
orry	-9203
intern	-9204
outube	-9205
▁songs	-9206
▁Silver	-9207
▁démont	-9208
▁serving	-9209
▁Ha	-9210
▁amen	-9211
▁coul	-9212
▁roul	-9213
▁familiar	-9214
▁positions	-9215
▁environmental	-9216
environ	-9217
▁generation	-9218
IST	-9219
▁Gre	-9220
▁Mai	-9221
▁subm	-9222
▁devenu	-9223
heureusement	-9224
▁OS	-9225
▁adapté	-9226
▁combin	-9227
▁detailed	-9228
enz	-9229
uaire	-9230
▁reco	-9231
onction	-9232
▁Excell	-9233
▁remise	-9234
▁strugg	-9235
▁disting	-9236
▁détaill	-9237
yez	-9238
▁49	-9239
▁Maj	-9240
▁faute	-9241
▁dimension	-9242
▁vêtements	-9243
▁Retr	-9244
▁attach	-9245
▁walking	-9246
▁venue	-9247
▁campus	-9248
resh	-9249
▁10.	-9250
▁domaines	-9251
▁douche	-9252
▁entendu	-9253
▁BL	-9254
----	-9255
writ	-9256
▁LES	-9257
alogue	-9258
oubles	-9259
▁(...)	-9260
▁quantité	-9261
▁MO	-9262
▁truth	-9263
▁affirm	-9264
▁fonctions	-9265
▁utilisant	-9266
▁visiteurs	-9267
/08	-9268
aimer	-9269
▁Hope	-9270
▁Join	-9271
▁seat	-9272
▁séance	-9273
▁Environ	-9274
▁proposé	-9275
moins	-9276
oston	-9277
▁prepare	-9278
▁rejoindre	-9279
▁accompagner	-9280
▁manufacturer	-9281
php	-9282
▁27,	-9283
posit	-9284
▁2016.	-9285
▁Minist	-9286
actualité	-9287
▁européen	-9288
▁équipements	-9289
79	-9290
▁Auc	-9291
▁Oil	-9292
icien	-9293
hou	-9294
ript	-9295
▁shel	-9296
aissez	-9297
▁ended	-9298
▁Germany	-9299
▁comprehensive	-9300
▁Ec	-9301
▁26,	-9302
▁pun	-9303
/2021	-9304
izens	-9305
sen	-9306
enew	-9307
▁Arab	-9308
▁tient	-9309
▁survey	-9310
▁designer	-9311
▁milliers	-9312
▁américaine	-9313
verg	-9314
▁inn	-9315
duire	-9316
▁Cand	-9317
▁achie	-9318
▁telle	-9319
▁dépend	-9320
▁démarche	-9321
▁election	-9322
▁Toy	-9323
▁viennent	-9324
inv	-9325
▁conç	-9326
wan	-9327
ibly	-9328
irez	-9329
▁25,	-9330
how	-9331
uple	-9332
érale	-9333
▁vingt	-9334
▁confront	-9335
▁utile	-9336
▁corner	-9337
▁establish	-9338
▁Rub	-9339
▁froid	-9340
night	-9341
▁chain	-9342
▁animals	-9343
▁pharmac	-9344
▁flexible	-9345
▁célé	-9346
imming	-9347
▁decisions	-9348
nées	-9349
ailles	-9350
▁Hello	-9351
▁cream	-9352
rentissage	-9353
▁Gi	-9354
▁Second	-9355
▁composé	-9356
▁components	-9357
89	-9358
iki	-9359
osen	-9360
riel	-9361
aques	-9362
ciale	-9363
▁debt	-9364
▁pilot	-9365
▁Donald	-9366
▁Justice	-9367
ARD	-9368
Inst	-9369
hiver	-9370
ician	-9371
▁guest	-9372
▁prime	-9373
▁plantes	-9374
IQUE	-9375
▁SEO	-9376
▁ring	-9377
▁Steve	-9378
▁condam	-9379
▁approximately	-9380
▁Made	-9381
▁raise	-9382
▁battle	-9383
▁holding	-9384
▁revenir	-9385
▁Ath	-9386
union	-9387
semblée	-9388
▁Install	-9389
▁Library	-9390
▁willing	-9391
▁dispositif	-9392
▁neur	-9393
▁pray	-9394
vision	-9395
▁envir	-9396
▁42	-9397
uting	-9398
▁Barb	-9399
▁Academy	-9400
▁sanitaire	-9401
▁recherches	-9402
PL	-9403
▁Aqu	-9404
▁Dog	-9405
▁Brand	-9406
▁beaux	-9407
retagne	-9408
▁ressem	-9409
▁opérations	-9410
ére	-9411
évé	-9412
icul	-9413
rees	-9414
▁Golf	-9415
▁scén	-9416
▁housing	-9417
▁PA	-9418
yard	-9419
▁ait	-9420
▁appears	-9421
▁Restaurant	-9422
ricité	-9423
extérieur	-9424
▁64	-9425
▁doux	-9426
entraî	-9427
pection	-9428
▁DI	-9429
▁kg	-9430
onna	-9431
érém	-9432
iales	-9433
yo	-9434
étr	-9435
▁NEW	-9436
▁leaves	-9437
▁recovery	-9438
Ou	-9439
PT	-9440
http	-9441
▁Farm	-9442
▁lights	-9443
▁populaire	-9444
▁CS	-9445
atri	-9446
with	-9447
▁Blanc	-9448
▁argent	-9449
rot	-9450
road	-9451
▁Mini	-9452
▁chim	-9453
manuel	-9454
▁Little	-9455
▁éclair	-9456
ractions	-9457
▁Committee	-9458
76	-9459
Nous	-9460
alon	-9461
unal	-9462
icher	-9463
itime	-9464
▁étud	-9465
▁Vente	-9466
▁trial	-9467
▁pandemic	-9468
▁BM	-9469
▁Thé	-9470
▁incont	-9471
▁champions	-9472
kins	-9473
ulte	-9474
ionnat	-9475
▁cable	-9476
▁principale	-9477
ican	-9478
▁Cru	-9479
▁Very	-9480
▁Salon	-9481
▁stated	-9482
▁virtual	-9483
▁Caf	-9484
▁coal	-9485
▁myst	-9486
▁votes	-9487
▁organisé	-9488
ints	-9489
izza	-9490
isans	-9491
plate	-9492
▁calling	-9493
▁Need	-9494
érateur	-9495
ettre	-9496
▁History	-9497
▁pédagog	-9498
▁Articles	-9499
▁dialogue	-9500
▁candidate	-9501
▁AU	-9502
▁Parc	-9503
orough	-9504
▁tarifs	-9505
▁spécialiste	-9506
HS	-9507
olis	-9508
urre	-9509
elves	-9510
▁Noir	-9511
▁forc	-9512
▁Belle	-9513
▁ok	-9514
itue	-9515
étéo	-9516
▁Nav	-9517
▁Express	-9518
▁indépend	-9519
/04	-9520
alo	-9521
▁forg	-9522
▁chief	-9523
▁fleur	-9524
▁pêche	-9525
▁listen	-9526
▁bringing	-9527
3)	-9528
nez	-9529
angle	-9530
odies	-9531
▁conseiller	-9532
▁German	-9533
▁agence	-9534
▁arriver	-9535
administration	-9536
▁AG	-9537
hand	-9538
▁Does	-9539
▁courage	-9540
ko	-9541
oubl	-9542
▁Bad	-9543
▁Area	-9544
espère	-9545
▁maire	-9546
▁tenir	-9547
quality	-9548
éros	-9549
▁gram	-9550
▁jack	-9551
▁Print	-9552
▁appart	-9553
▁Pendant	-9554
▁veulent	-9555
▁conseill	-9556
▁division	-9557
▁executive	-9558
ALL	-9559
idden	-9560
▁gall	-9561
▁révél	-9562
▁Respons	-9563
▁missing	-9564
gue	-9565
▁Arm	-9566
▁Iss	-9567
▁NOT	-9568
▁Prime	-9569
▁revient	-9570
aco	-9571
but	-9572
écl	-9573
▁Line	-9574
▁côtés	-9575
▁signe	-9576
▁médica	-9577
▁présents	-9578
▁Solutions	-9579
▁réglement	-9580
rans	-9581
▁edge	-9582
▁manip	-9583
univers	-9584
▁Jacques	-9585
▁surgery	-9586
▁réception	-9587
▁supérieur	-9588
rès	-9589
faire	-9590
▁Vietnam	-9591
RL	-9592
log	-9593
▁Imp	-9594
▁youth	-9595
▁confident	-9596
URE	-9597
▁29,	-9598
▁Bru	-9599
▁Bell	-9600
▁moit	-9601
▁teachers	-9602
▁utilisés	-9603
▁électronique	-9604
▁sculpt	-9605
▁centrale	-9606
▁Image	-9607
▁tranqu	-9608
▁théâtre	-9609
▁Training	-9610
▁crushing	-9611
▁var	-9612
▁Orange	-9613
▁academic	-9614
▁::	-9615
▁Vill	-9616
▁obst	-9617
▁Story	-9618
lock	-9619
agnes	-9620
▁scale	-9621
▁except	-9622
▁prises	-9623
▁ticket	-9624
▁consumer	-9625
▁convenient	-9626
▁différence	-9627
delà	-9628
itre	-9629
▁Lis	-9630
iest	-9631
onto	-9632
▁Côte	-9633
uation	-9634
▁convient	-9635
▁negative	-9636
▁classement	-9637
▁difficultés	-9638
▁responsables	-9639
win	-9640
▁Bio	-9641
▁tas	-9642
inners	-9643
▁Parmi	-9644
▁kinds	-9645
▁reached	-9646
If	-9647
tery	-9648
▁cant	-9649
▁approved	-9650
▁appareils	-9651
▁investors	-9652
▁certification	-9653
▁établissements	-9654
.'	-9655
aked	-9656
▁Sky	-9657
ifiés	-9658
▁Spir	-9659
▁judic	-9660
▁Boston	-9661
▁practical	-9662
▁financement	-9663
ional	-9664
▁noter	-9665
▁script	-9666
▁veille	-9667
▁contest	-9668
▁tableau	-9669
▁afternoon	-9670
▁Jenn	-9671
▁amén	-9672
itoring	-9673
▁Russian	-9674
▁convain	-9675
▁Financial	-9676
▁delicious	-9677
41	-9678
▁génération	-9679
▁jet	-9680
▁Vinc	-9681
▁thus	-9682
▁grade	-9683
▁miner	-9684
▁rapid	-9685
EE	-9686
▁85	-9687
▁Cry	-9688
▁Fri	-9689
▁Pra	-9690
roits	-9691
▁Chef	-9692
asters	-9693
▁moitié	-9694
ilé	-9695
race	-9696
uves	-9697
▁export	-9698
▁rh	-9699
▁sitting	-9700
▁Fa	-9701
▁fame	-9702
▁tact	-9703
▁délég	-9704
▁officiel	-9705
Esp	-9706
▁EU	-9707
▁ec	-9708
▁deck	-9709
▁Bureau	-9710
▁Toulouse	-9711
AA	-9712
tech	-9713
▁bac	-9714
▁locale	-9715
opper	-9716
▁Cart	-9717
▁Exam	-9718
▁Tele	-9719
▁tight	-9720
▁nettoyage	-9721
▁plastique	-9722
▁efficiency	-9723
roir	-9724
▁Resort	-9725
▁rythme	-9726
▁climate	-9727
▁internal	-9728
▁multiples	-9729
olo	-9730
iante	-9731
covery	-9732
▁Steel	-9733
▁avanc	-9734
▁kilom	-9735
▁replac	-9736
▁retraite	-9737
For	-9738
▁1:	-9739
▁McC	-9740
▁server	-9741
▁lancement	-9742
▁principalement	-9743
ICE	-9744
eper	-9745
▁math	-9746
▁serez	-9747
érieurs	-9748
▁Action	-9749
▁adults	-9750
▁demain	-9751
▁crucial	-9752
▁commitment	-9753
▁spécifique	-9754
DR	-9755
▁bid	-9756
▁trees	-9757
▁liquid	-9758
▁channel	-9759
▁combined	-9760
▁printemps	-9761
Qu	-9762
▁Camer	-9763
▁Terre	-9764
▁stret	-9765
▁Mexico	-9766
▁déje	-9767
ieuses	-9768
▁Photos	-9769
▁rating	-9770
▁employee	-9771
▁considering	-9772
▁neighborhood	-9773
asting	-9774
▁enquête	-9775
▁chiffres	-9776
▁Lac	-9777
▁Low	-9778
▁hotels	-9779
▁constat	-9780
▁initiative	-9781
ears	-9782
ucle	-9783
▁Sin	-9784
force	-9785
▁north	-9786
itations	-9787
▁instance	-9788
▁introduced	-9789
▁2.0	-9790
▁Amb	-9791
▁aéri	-9792
▁replace	-9793
rs	-9794
igé	-9795
▁thick	-9796
▁régions	-9797
▁atteindre	-9798
enue	-9799
tics	-9800
▁crime	-9801
▁voire	-9802
▁Senior	-9803
▁180	-9804
▁nar	-9805
▁cock	-9806
▁gran	-9807
urgence	-9808
▁jeunesse	-9809
▁victimes	-9810
▁supplémentaires	-9811
bro	-9812
cha	-9813
!!!!	-9814
ît	-9815
ANS	-9816
odge	-9817
▁Credit	-9818
▁Canadian	-9819
▁depending	-9820
▁Tel	-9821
index	-9822
oquer	-9823
▁Young	-9824
▁signs	-9825
▁médi	-9826
weight	-9827
▁toutefois	-9828
▁pourraient	-9829
▁Professional	-9830
née	-9831
▁Li	-9832
▁rang	-9833
▁quiet	-9834
▁shift	-9835
▁flowers	-9836
▁anywhere	-9837
61	-9838
▁gym	-9839
rants	-9840
▁inspired	-9841
▁installer	-9842
▁candidates	-9843
▁educational	-9844
▁Jam	-9845
▁aqu	-9846
agent	-9847
▁specifically	-9848
▁envis	-9849
ivalent	-9850
▁African	-9851
▁Capital	-9852
▁simples	-9853
▁indispensable	-9854
▁ox	-9855
éche	-9856
▁2011,	-9857
▁Trois	-9858
▁privilég	-9859
▁candidats	-9860
rest	-9861
▁Number	-9862
▁ateliers	-9863
▁highlight	-9864
▁Conference	-9865
▁SN	-9866
▁huit	-9867
▁nurs	-9868
▁veter	-9869
▁relief	-9870
87	-9871
▁egg	-9872
▁Rome	-9873
▁pump	-9874
▁Leave	-9875
▁Three	-9876
▁sujets	-9877
▁étapes	-9878
▁Quality	-9879
▁Développ	-9880
▁feedback	-9881
OO	-9882
▁tôt	-9883
▁Updated	-9884
▁chiffre	-9885
▁predict	-9886
▁câ	-9887
▁goods	-9888
▁Awards	-9889
▁enhance	-9890
aza	-9891
Cont	-9892
▁Mme	-9893
▁Force	-9894
iquement	-9895
▁extrême	-9896
▁Manchester	-9897
▁liés	-9898
▁élég	-9899
▁Avenue	-9900
▁delight	-9901
▁matches	-9902
▁guarantee	-9903
▁compétition	-9904
▁effectively	-9905
CR	-9906
▁Os	-9907
iami	-9908
▁dance	-9909
▁doubt	-9910
uxelles	-9911
▁filled	-9912
VER	-9913
▁Jim	-9914
▁Process	-9915
gs	-9916
▁Hôtel	-9917
▁ajouté	-9918
▁supporting	-9919
▁11:	-9920
annon	-9921
▁shoes	-9922
▁protected	-9923
▁Az	-9924
▁Rap	-9925
▁spok	-9926
▁Summer	-9927
▁Australian	-9928
▁dri	-9929
▁2004	-9930
▁Rand	-9931
▁textes	-9932
▁meal	-9933
▁rear	-9934
▁DJ	-9935
▁semi	-9936
▁vaut	-9937
ellite	-9938
▁Those	-9939
▁brown	-9940
▁Garden	-9941
▁contient	-9942
▁extraordin	-9943
▁intervention	-9944
rin	-9945
▁cann	-9946
ultural	-9947
▁movies	-9948
▁mortgage	-9949
fts	-9950
ivez	-9951
▁tire	-9952
areness	-9953
▁limite	-9954
ialement	-9955
▁Certains	-9956
▁worldwide	-9957
▁SS	-9958
pool	-9959
▁Faites	-9960
▁vérifier	-9961
▁978	-9962
▁Iran	-9963
▁boute	-9964
▁Madrid	-9965
▁arrière	-9966
▁delivered	-9967
▁edition	-9968
▁Students	-9969
upp	-9970
▁Vit	-9971
abeth	-9972
▁taxes	-9973
bration	-9974
▁parfaite	-9975
▁Da	-9976
▁tag	-9977
▁Name	-9978
▁hire	-9979
▁Portug	-9980
▁ajoute	-9981
VC	-9982
▁Ask	-9983
▁gun	-9984
▁Mand	-9985
▁pont	-9986
▁feels	-9987
▁tarif	-9988
diction	-9989
▁Building	-9990
▁revealed	-9991
▁competitive	-9992
▁Uk	-9993
illets	-9994
▁Bernard	-9995
▁therapy	-9996
▁improved	-9997
▁salt	-9998
▁Books	-9999
▁tissu	-10000
cut	-10001
asts	-10002
anish	-10003
▁Quest	-10004
▁shower	-10005
▁supported	-10006
aland	-10007
ospit	-10008
▁island	-10009
▁signifie	-10010
▁upcoming	-10011
gets	-10012
▁bilan	-10013
honneur	-10014
▁Virginia	-10015
▁prospect	-10016
▁2021.	-10017
▁performed	-10018
▁university	-10019
▁190	-10020
/2016	-10021
▁quas	-10022
▁horiz	-10023
▁allons	-10024
▁topics	-10025
▁birthday	-10026
▁anniversaire	-10027
awa	-10028
▁Ak	-10029
oppos	-10030
▁bars	-10031
▁attendre	-10032
▁symptoms	-10033
wa	-10034
poses	-10035
▁Analy	-10036
anmoins	-10037
▁affili	-10038
▁Systems	-10039
▁library	-10040
▁Sciences	-10041
▁chaussures	-10042
▁HP	-10043
▁soph	-10044
Advisor	-10045
▁providers	-10046
▁advertising	-10047
bles	-10048
▁Clin	-10049
▁enje	-10050
▁sauv	-10051
▁Tunis	-10052
▁carbon	-10053
▁toward	-10054
▁yesterday	-10055
autes	-10056
▁colon	-10057
▁renforcer	-10058
▁supérieure	-10059
▁die	-10060
▁icon	-10061
▁exter	-10062
▁chicken	-10063
▁déchets	-10064
amer	-10065
wich	-10066
inent	-10067
plois	-10068
▁titres	-10069
▁writer	-10070
▁described	-10071
▁featuring	-10072
▁perfectly	-10073
izz	-10074
away	-10075
▁foc	-10076
▁applied	-10077
▁Recherche	-10078
▁Easy	-10079
▁bour	-10080
▁throw	-10081
▁Russie	-10082
▁intens	-10083
▁Current	-10084
▁adultes	-10085
▁compare	-10086
▁intellect	-10087
▁confortable	-10088
ILLE	-10089
utch	-10090
▁Lun	-10091
▁Sus	-10092
▁Tél	-10093
▁pier	-10094
▁Russia	-10095
▁effectu	-10096
entin	-10097
▁Jackson	-10098
▁choices	-10099
▁indique	-10100
▁CBD	-10101
▁neut	-10102
earing	-10103
▁Columb	-10104
▁sentiment	-10105
▁lif	-10106
▁Mort	-10107
▁Phone	-10108
▁cells	-10109
▁Welcome	-10110
▁demandes	-10111
▁valuable	-10112
▁bloc	-10113
▁canad	-10114
▁removed	-10115
▁concrete	-10116
▁effectuer	-10117
▁formulaire	-10118
▁entertainment	-10119
OUS	-10120
▁regr	-10121
aluation	-10122
igration	-10123
▁compatible	-10124
ASS	-10125
▁fly	-10126
usage	-10127
▁vieux	-10128
▁Should	-10129
▁crisis	-10130
▁extension	-10131
▁Construction	-10132
ming	-10133
idays	-10134
▁bear	-10135
▁ciel	-10136
▁Space	-10137
▁collective	-10138
ueille	-10139
▁lumine	-10140
▁Kitchen	-10141
▁seconds	-10142
▁changements	-10143
▁infrastructure	-10144
▁Cin	-10145
▁massive	-10146
imag	-10147
oking	-10148
print	-10149
▁....	-10150
▁Prin	-10151
▁préd	-10152
unting	-10153
▁greatest	-10154
▁Retrouvez	-10155
▁scientifique	-10156
po	-10157
▁pale	-10158
▁Right	-10159
▁tours	-10160
▁modifier	-10161
▁appearance	-10162
▁communications	-10163
oue	-10164
▁Vac	-10165
▁sucre	-10166
▁Macron	-10167
▁répart	-10168
▁ourselves	-10169
▁conscience	-10170
news	-10171
▁Kat	-10172
▁Base	-10173
▁cout	-10174
MI	-10175
ibl	-10176
folio	-10177
▁2015.	-10178
▁Cloud	-10179
▁Faire	-10180
raw	-10181
ragon	-10182
▁régl	-10183
endrier	-10184
▁desire	-10185
▁stable	-10186
▁Nations	-10187
▁prolong	-10188
▁attentes	-10189
avis	-10190
▁lam	-10191
▁pne	-10192
▁glad	-10193
▁extensive	-10194
▁XV	-10195
gérie	-10196
isodes	-10197
▁respir	-10198
atherine	-10199
▁obligatoire	-10200
ouc	-10201
▁Juin	-10202
iteurs	-10203
▁école	-10204
rétaire	-10205
▁Profess	-10206
▁clearly	-10207
▁searching	-10208
▁composition	-10209
ART	-10210
ésie	-10211
aider	-10212
▁fraî	-10213
▁boîte	-10214
▁dépos	-10215
▁Hotels	-10216
▁Living	-10217
▁artific	-10218
▁stations	-10219
lights	-10220
▁élevé	-10221
▁issued	-10222
▁mostly	-10223
▁atteint	-10224
▁registered	-10225
▁collections	-10226
▁AB	-10227
ilibre	-10228
▁gel	-10229
irurg	-10230
ourir	-10231
isations	-10232
roniques	-10233
▁Account	-10234
▁hundreds	-10235
▁otherwise	-10236
▁pi	-10237
class	-10238
▁facult	-10239
▁législ	-10240
▁element	-10241
▁médical	-10242
▁slightly	-10243
aa	-10244
▁360	-10245
▁Fut	-10246
▁Sab	-10247
elled	-10248
▁Brun	-10249
▁Chair	-10250
▁Having	-10251
▁cooking	-10252
▁professeur	-10253
hom	-10254
èce	-10255
▁Dj	-10256
othing	-10257
reed	-10258
▁Dès	-10259
ographe	-10260
▁appelé	-10261
cert	-10262
irms	-10263
▁Lot	-10264
▁Tok	-10265
▁grave	-10266
▁Rac	-10267
▁nor	-10268
▁tun	-10269
▁dois	-10270
▁Domin	-10271
▁entour	-10272
▁puisqu	-10273
▁celebrate	-10274
▁TripAdvisor	-10275
▁immédiatement	-10276
flix	-10277
ista	-10278
▁Ash	-10279
▁Jer	-10280
itées	-10281
▁audit	-10282
▁Finance	-10283
▁artisan	-10284
▁critique	-10285
▁certainement	-10286
▁Rs	-10287
▁Ron	-10288
roche	-10289
▁Employ	-10290
▁supplies	-10291
ifer	-10292
▁Deb	-10293
▁Mix	-10294
oween	-10295
▁bond	-10296
▁Brook	-10297
▁Vegas	-10298
▁Station	-10299
▁financière	-10300
▁incredible	-10301
▁industries	-10302
ANCE	-10303
▁Tag	-10304
▁masc	-10305
▁coméd	-10306
▁fermet	-10307
▁batterie	-10308
▁Rencontre	-10309
rég	-10310
▁Williams	-10311
▁Executive	-10312
▁contribution	-10313
jo	-10314
clos	-10315
▁pra	-10316
▁Fant	-10317
▁désir	-10318
▁gorge	-10319
▁Singap	-10320
▁visiting	-10321
▁regularly	-10322
inery	-10323
lande	-10324
▁summ	-10325
▁Galaxy	-10326
▁matern	-10327
▁Personal	-10328
▁soutenir	-10329
▁naturelle	-10330
HA	-10331
agir	-10332
▁Gro	-10333
▁pin	-10334
▁Safety	-10335
▁paying	-10336
▁voyageurs	-10337
,...	-10338
riez	-10339
▁Try	-10340
▁agg	-10341
▁neck	-10342
asions	-10343
mettre	-10344
▁attent	-10345
▁analyse	-10346
TP	-10347
▁Ni	-10348
▁(19	-10349
▁Jos	-10350
exerc	-10351
▁plats	-10352
▁resol	-10353
▁fourth	-10354
▁interface	-10355
érir	-10356
▁Kit	-10357
▁Pin	-10358
atric	-10359
siers	-10360
aching	-10361
▁Premium	-10362
▁Japanese	-10363
▁rénovation	-10364
▁appointment	-10365
▁Effect	-10366
▁anciens	-10367
▁figures	-10368
▁montagne	-10369
▁installations	-10370
▁responsibility	-10371
Ab	-10372
▁Tay	-10373
▁voud	-10374
ainless	-10375
▁shooting	-10376
▁household	-10377
▁Wil	-10378
▁Quelle	-10379
▁détail	-10380
▁totale	-10381
▁Italian	-10382
▁essayer	-10383
▁candidat	-10384
▁purchased	-10385
▁inspiration	-10386
▁(7	-10387
▁//	-10388
itée	-10389
▁nov	-10390
▁peuple	-10391
▁cutting	-10392
▁contraire	-10393
▁functions	-10394
▁discovered	-10395
▁Baby	-10396
▁Roman	-10397
▁fields	-10398
▁intéressant	-10399
isk	-10400
wear	-10401
▁Rue	-10402
ccess	-10403
▁Bath	-10404
▁boat	-10405
▁pâte	-10406
▁disque	-10407
▁arrived	-10408
▁coordin	-10409
▁planned	-10410
exposition	-10411
▁informatique	-10412
▁Guy	-10413
▁Jord	-10414
▁dogs	-10415
▁moul	-10416
alisme	-10417
▁Anton	-10418
▁Loire	-10419
▁Marine	-10420
▁tennis	-10421
/5	-10422
4)	-10423
▁Requ	-10424
▁nine	-10425
quipped	-10426
▁banque	-10427
▁offert	-10428
▁mauvais	-10429
▁vacation	-10430
▁Appartement	-10431
▁principales	-10432
tle	-10433
serv	-10434
▁Rog	-10435
▁cig	-10436
▁spa	-10437
avance	-10438
▁Enjoy	-10439
▁japon	-10440
antages	-10441
▁suffis	-10442
▁sciences	-10443
▁couverture	-10444
▁lu	-10445
▁explos	-10446
▁prepar	-10447
▁approche	-10448
▁behavior	-10449
▁Francisco	-10450
Et	-10451
RS	-10452
-11	-10453
alg	-10454
arry	-10455
▁Sir	-10456
artiste	-10457
▁circum	-10458
▁romant	-10459
▁episode	-10460
▁imagine	-10461
▁supprim	-10462
▁#1	-10463
▁Bat	-10464
▁tea	-10465
▁tort	-10466
▁frust	-10467
▁chinois	-10468
▁gratuits	-10469
▁chauffage	-10470
IVE	-10471
▁Civ	-10472
▁Band	-10473
▁tech	-10474
▁tension	-10475
▁Commercial	-10476
▁stands	-10477
bergement	-10478
▁purposes	-10479
▁réussite	-10480
irect	-10481
▁crée	-10482
▁assur	-10483
▁pouvant	-10484
▁Colorado	-10485
▁reference	-10486
oti	-10487
alism	-10488
▁lunch	-10489
▁poche	-10490
▁trend	-10491
▁monthly	-10492
▁featured	-10493
▁electronic	-10494
▁sides	-10495
▁tiers	-10496
▁orders	-10497
▁Federal	-10498
aph	-10499
▁47	-10500
▁Ut	-10501
▁sert	-10502
▁louer	-10503
▁Malgré	-10504
▁routes	-10505
▁answers	-10506
▁clinical	-10507
▁incident	-10508
infl	-10509
▁Bol	-10510
▁Coff	-10511
sembly	-10512
▁explain	-10513
▁oublier	-10514
▁Carolina	-10515
▁confidential	-10516
endo	-10517
mann	-10518
▁Occ	-10519
formes	-10520
▁Reply	-10521
▁voyages	-10522
▁critères	-10523
▁Bruxelles	-10524
emn	-10525
jan	-10526
▁brit	-10527
▁chosen	-10528
▁stages	-10529
▁troubles	-10530
▁forcément	-10531
▁Protection	-10532
Be	-10533
Tra	-10534
agra	-10535
qués	-10536
▁12:	-10537
▁rug	-10538
▁soup	-10539
ussion	-10540
▁sable	-10541
CL	-10542
GA	-10543
▁III	-10544
▁faç	-10545
▁hur	-10546
opter	-10547
▁avoc	-10548
▁faster	-10549
▁reduced	-10550
▁assurance	-10551
▁CE	-10552
ansas	-10553
onnés	-10554
plant	-10555
▁Case	-10556
▁rule	-10557
▁2010,	-10558
▁Style	-10559
▁Think	-10560
▁Tagged	-10561
édération	-10562
▁consiste	-10563
▁Transport	-10564
▁alimentaire	-10565
made	-10566
ults	-10567
what	-10568
▁Jobs	-10569
▁Xbox	-10570
▁Money	-10571
▁achat	-10572
▁blanche	-10573
▁rappelle	-10574
▁réservation	-10575
▁Miami	-10576
▁repos	-10577
▁confirmed	-10578
power	-10579
▁myth	-10580
▁locales	-10581
▁appreciate	-10582
62	-10583
▁weak	-10584
▁Dream	-10585
▁privacy	-10586
▁révolution	-10587
▁Airport	-10588
▁constitue	-10589
▁challenging	-10590
igible	-10591
reland	-10592
▁Posts	-10593
▁factor	-10594
▁alcohol	-10595
▁personnelles	-10596
anth	-10597
▁Cub	-10598
▁Tog	-10599
▁Nick	-10600
▁Quick	-10601
▁killed	-10602
▁manner	-10603
▁cultural	-10604
▁méthodes	-10605
ugh	-10606
pack	-10607
▁Ache	-10608
▁Walk	-10609
▁suivantes	-10610
▁43	-10611
▁Pont	-10612
▁serr	-10613
▁error	-10614
▁Double	-10615
▁métiers	-10616
▁réserve	-10617
▁secondes	-10618
%)	-10619
oted	-10620
▁rect	-10621
▁statut	-10622
▁multipl	-10623
▁wearing	-10624
oqué	-10625
▁Jeu	-10626
arrêt	-10627
▁vary	-10628
ighter	-10629
▁coast	-10630
▁poker	-10631
▁height	-10632
▁compact	-10633
▁QU	-10634
▁fib	-10635
▁emploi	-10636
▁Country	-10637
▁routine	-10638
▁eventually	-10639
▁WH	-10640
berry	-10641
ensed	-10642
ipedia	-10643
▁danse	-10644
obtenir	-10645
▁facing	-10646
▁merveille	-10647
ppe	-10648
▁GM	-10649
adow	-10650
▁tro	-10651
▁Staff	-10652
▁biens	-10653
▁appeared	-10654
▁Référence	-10655
0.	-10656
▁drugs	-10657
▁trail	-10658
iveness	-10659
écurité	-10660
▁resource	-10661
▁settings	-10662
▁automobile	-10663
▁discussions	-10664
ISS	-10665
ghan	-10666
▁Anth	-10667
▁Holl	-10668
▁bike	-10669
▁Golden	-10670
▁obtenu	-10671
▁sister	-10672
▁Londres	-10673
▁Website	-10674
▁Politique	-10675
▁faciliter	-10676
▁procédure	-10677
fs	-10678
vient	-10679
▁Tick	-10680
▁Maybe	-10681
▁tourisme	-10682
▁buildings	-10683
orship	-10684
▁Venez	-10685
▁horse	-10686
▁readers	-10687
ELL	-10688
▁Vin	-10689
▁Vos	-10690
primer	-10691
uisine	-10692
écoute	-10693
▁citoyens	-10694
▁proposed	-10695
▁Engineering	-10696
BI	-10697
ador	-10698
▁boul	-10699
▁barre	-10700
▁Albert	-10701
▁extended	-10702
▁Plusieurs	-10703
News	-10704
chent	-10705
▁fixed	-10706
▁Sainte	-10707
▁elimin	-10708
▁sympath	-10709
▁affected	-10710
▁Six	-10711
▁Sous	-10712
▁Happy	-10713
▁internation	-10714
agu	-10715
rum	-10716
▁Mét	-10717
▁Trib	-10718
acheter	-10719
▁pleased	-10720
▁lifestyle	-10721
charg	-10722
▁Harr	-10723
▁curr	-10724
▁équipée	-10725
ted	-10726
▁Voilà	-10727
▁decre	-10728
▁Village	-10729
▁évidemment	-10730
▁participate	-10731
anz	-10732
andre	-10733
ipped	-10734
rowse	-10735
▁Nigeria	-10736
▁sociales	-10737
▁outstanding	-10738
▁Circ	-10739
▁vise	-10740
▁parad	-10741
estation	-10742
▁Standard	-10743
▁extérieur	-10744
▁entrepreneurs	-10745
▁EP	-10746
irts	-10747
rial	-10748
verse	-10749
▁connait	-10750
▁interpr	-10751
▁licence	-10752
▁accurate	-10753
▁lighting	-10754
▁Vie	-10755
stone	-10756
▁Laur	-10757
▁tail	-10758
▁normes	-10759
bury	-10760
▁Fig	-10761
▁Pur	-10762
▁Chap	-10763
▁FREE	-10764
▁ouvrir	-10765
▁portée	-10766
▁RT	-10767
ibil	-10768
▁butter	-10769
▁incroy	-10770
▁patron	-10771
▁contacts	-10772
▁stockage	-10773
▁99	-10774
fond	-10775
▁Tru	-10776
ockey	-10777
▁fini	-10778
▁iPad	-10779
▁toit	-10780
▁thread	-10781
▁carried	-10782
▁decades	-10783
▁revenus	-10784
▁suivante	-10785
OF	-10786
▁Fall	-10787
▁Soph	-10788
▁délai	-10789
▁poign	-10790
▁Looking	-10791
▁warrant	-10792
just	-10793
▁Pil	-10794
ilton	-10795
▁Ohio	-10796
ilation	-10797
▁unless	-10798
▁téléchargement	-10799
zil	-10800
abol	-10801
yers	-10802
▁Ill	-10803
▁billet	-10804
▁cheval	-10805
▁remont	-10806
▁téléph	-10807
▁expliqué	-10808
▁supplémentaire	-10809
hyd	-10810
éton	-10811
▁Fox	-10812
ether	-10813
quant	-10814
▁Which	-10815
▁configuration	-10816
▁tox	-10817
▁orange	-10818
▁atelier	-10819
▁superbe	-10820
ographique	-10821
▁automatically	-10822
œuvre	-10823
érapie	-10824
▁Labor	-10825
▁Trust	-10826
▁conçu	-10827
▁Modern	-10828
▁pointe	-10829
▁Quelques	-10830
INT	-10831
▁Mean	-10832
▁brut	-10833
▁plays	-10834
▁dental	-10835
▁apporte	-10836
▁brother	-10837
▁television	-10838
▁manufacturers	-10839
▁Bab	-10840
▁cass	-10841
▁clar	-10842
▁luxe	-10843
▁bound	-10844
▁noted	-10845
▁creation	-10846
▁matières	-10847
▁militaire	-10848
▁initiatives	-10849
▁économiques	-10850
▁om	-10851
▁légumes	-10852
▁largement	-10853
Act	-10854
reté	-10855
▁frag	-10856
rating	-10857
lemagne	-10858
▁bouton	-10859
▁married	-10860
▁regional	-10861
▁Mas	-10862
eling	-10863
▁Info	-10864
▁Tool	-10865
▁sauf	-10866
ushing	-10867
▁musée	-10868
▁river	-10869
▁expériment	-10870
▁importants	-10871
▁introduction	-10872
Post	-10873
ridge	-10874
▁Paper	-10875
▁Monsieur	-10876
▁scheduled	-10877
▁Ox	-10878
bing	-10879
▁Tou	-10880
▁Plat	-10881
▁promo	-10882
▁Jersey	-10883
▁Season	-10884
▁tester	-10885
▁Ireland	-10886
▁reprise	-10887
bas	-10888
▁46	-10889
home	-10890
▁Regard	-10891
▁silver	-10892
ho	-10893
quin	-10894
▁mit	-10895
Press	-10896
▁Ryan	-10897
▁Tips	-10898
▁cache	-10899
inaires	-10900
itiative	-10901
▁instruct	-10902
▁standing	-10903
▁entretien	-10904
▁MD	-10905
▁integ	-10906
▁physi	-10907
▁vitam	-10908
▁comptes	-10909
▁revanche	-10910
My	-10911
aha	-10912
nant	-10913
▁Diam	-10914
▁Pict	-10915
▁Berlin	-10916
▁complexe	-10917
▁déjeuner	-10918
EP	-10919
iden	-10920
▁flav	-10921
▁pauv	-10922
entions	-10923
issante	-10924
▁officer	-10925
▁Directeur	-10926
▁franchise	-10927
aka	-10928
exist	-10929
▁Save	-10930
▁acid	-10931
▁rail	-10932
▁souc	-10933
▁county	-10934
▁operate	-10935
▁CF	-10936
hire	-10937
There	-10938
▁Kids	-10939
▁Kevin	-10940
▁hyper	-10941
▁Toronto	-10942
▁license	-10943
▁collectif	-10944
86	-10945
▁Lag	-10946
olesc	-10947
rient	-10948
▁servi	-10949
▁ressort	-10950
▁Experience	-10951
▁(9	-10952
▁Ba	-10953
▁Né	-10954
▁index	-10955
▁Square	-10956
▁failed	-10957
▁Collect	-10958
400	-10959
▁pit	-10960
▁Chez	-10961
▁Java	-10962
astern	-10963
▁knowing	-10964
où	-10965
mod	-10966
aints	-10967
▁Bout	-10968
▁female	-10969
▁traite	-10970
▁Gas	-10971
▁meat	-10972
ureaux	-10973
▁débat	-10974
▁browser	-10975
▁(@	-10976
uces	-10977
▁iOS	-10978
▁Peut	-10979
▁teeth	-10980
▁interp	-10981
▁rentrée	-10982
▁returned	-10983
agen	-10984
▁coups	-10985
▁context	-10986
▁gourmand	-10987
▁réserver	-10988
▁commandes	-10989
No	-10990
pg	-10991
ilst	-10992
enter	-10993
▁sample	-10994
▁defense	-10995
▁concerned	-10996
▁improvement	-10997
▁énergétique	-10998
▁probablement	-10999
▁SM	-11000
▁radi	-11001
▁tank	-11002
▁Chois	-11003
▁Nantes	-11004
▁mainly	-11005
▁tenter	-11006
▁Houston	-11007
▁pouvait	-11008
▁Michigan	-11009
cycl	-11010
real	-11011
▁Hab	-11012
▁Sony	-11013
▁bowl	-11014
▁moto	-11015
▁neige	-11016
▁begins	-11017
▁everyday	-11018
icit	-11019
▁Run	-11020
▁Grow	-11021
▁lapt	-11022
▁2014.	-11023
▁Auteur	-11024
▁recover	-11025
▁chocolate	-11026
ibliothèque	-11027
▁registration	-11028
▁surveillance	-11029
site	-11030
▁sad	-11031
▁trés	-11032
▁Harry	-11033
▁Pract	-11034
▁jolie	-11035
▁syndic	-11036
▁Strateg	-11037
▁logements	-11038
▁propriétaires	-11039
estes	-11040
▁vols	-11041
▁luxury	-11042
▁transm	-11043
▁Ensuite	-11044
▁coaching	-11045
▁secteurs	-11046
▁Alli	-11047
▁Lind	-11048
naires	-11049
▁étage	-11050
▁croire	-11051
▁investigation	-11052
oft	-11053
pat	-11054
sect	-11055
▁1/2	-11056
▁Ira	-11057
avons	-11058
▁Wind	-11059
▁chefs	-11060
▁Georgia	-11061
▁texture	-11062
▁surfaces	-11063
yst	-11064
dent	-11065
▁Ans	-11066
▁véc	-11067
alisé	-11068
▁dédié	-11069
▁remote	-11070
▁Commerce	-11071
▁Property	-11072
▁hardware	-11073
▁diffusion	-11074
RC	-11075
itate	-11076
▁1999	-11077
▁Conn	-11078
▁foll	-11079
▁heating	-11080
mo	-11081
:45	-11082
▁Od	-11083
▁LLC	-11084
▁Wat	-11085
▁vain	-11086
▁valor	-11087
▁faisait	-11088
▁interact	-11089
▁artistique	-11090
bel	-11091
irty	-11092
oyez	-11093
▁murs	-11094
▁Résult	-11095
▁Vincent	-11096
▁realize	-11097
▁9.	-11098
▁milk	-11099
unction	-11100
aki	-11101
ione	-11102
umps	-11103
▁sel	-11104
▁Camb	-11105
▁inde	-11106
▁winner	-11107
▁Gestion	-11108
▁fiction	-11109
▁species	-11110
▁Learning	-11111
▁résistance	-11112
OY	-11113
▁Cos	-11114
▁Dés	-11115
chain	-11116
iqués	-11117
▁vins	-11118
▁décès	-11119
▁poudre	-11120
▁actuelle	-11121
▁Esc	-11122
▁Sea	-11123
owned	-11124
▁pref	-11125
▁Pharm	-11126
▁Psych	-11127
▁caught	-11128
.-	-11129
Ind	-11130
▁(2)	-11131
▁Catég	-11132
▁Simon	-11133
▁bread	-11134
▁bigger	-11135
piration	-11136
▁Natural	-11137
▁plateau	-11138
▁healthcare	-11139
▁presentation	-11140
mans	-11141
▁Lam	-11142
iesel	-11143
▁Kong	-11144
▁savez	-11145
▁récomp	-11146
▁Netflix	-11147
▁Bretagne	-11148
▁accueillir	-11149
▁spécifiques	-11150
pson	-11151
▁Egy	-11152
unter	-11153
▁cake	-11154
espite	-11155
▁Motor	-11156
▁manual	-11157
▁Reading	-11158
▁Pakistan	-11159
▁payments	-11160
▁disappoint	-11161
/1	-11162
case	-11163
iane	-11164
▁devraient	-11165
▁explained	-11166
▁transactions	-11167
iac	-11168
What	-11169
teau	-11170
▁divid	-11171
▁foods	-11172
▁belong	-11173
▁courts	-11174
▁sérieux	-11175
▁Attention	-11176
▁identified	-11177
▁Hay	-11178
▁yes	-11179
êtement	-11180
▁Americans	-11181
ôtes	-11182
▁Bag	-11183
▁MON	-11184
▁chev	-11185
▁airport	-11186
ufs	-11187
alise	-11188
▁Stan	-11189
▁Total	-11190
▁holds	-11191
affaire	-11192
▁balcon	-11193
▁décide	-11194
▁commerciale	-11195
anny	-11196
▁Grat	-11197
▁spaces	-11198
▁managing	-11199
▁intention	-11200
▁constitution	-11201
▁Ms	-11202
utor	-11203
rolog	-11204
uetooth	-11205
importance	-11206
lyn	-11207
▁ol	-11208
▁Event	-11209
▁cérém	-11210
▁houses	-11211
▁Message	-11212
▁fenêtre	-11213
▁marriage	-11214
rooms	-11215
▁coiff	-11216
▁trends	-11217
▁transports	-11218
▁suggestions	-11219
▁Cu	-11220
▁Aub	-11221
Pierre	-11222
heless	-11223
▁confl	-11224
▁devoir	-11225
aéroport	-11226
interest	-11227
▁database	-11228
▁poursuiv	-11229
▁significantly	-11230
gen	-11231
agés	-11232
lise	-11233
▁Ell	-11234
▁robe	-11235
▁crash	-11236
▁Select	-11237
▁dehors	-11238
▁Kingdom	-11239
▁resolution	-11240
bra	-11241
▁2:	-11242
otive	-11243
▁ends	-11244
▁enthus	-11245
▁utiles	-11246
▁Chambre	-11247
▁humaine	-11248
▁ongoing	-11249
quisition	-11250
▁surrounding	-11251
▁faux	-11252
▁cabin	-11253
▁draft	-11254
▁recev	-11255
▁gaming	-11256
▁stocks	-11257
étranger	-11258
▁Mountain	-11259
▁Syl	-11260
ustral	-11261
related	-11262
▁cheese	-11263
▁intense	-11264
▁réalisée	-11265
▁fonctionnalités	-11266
▁50%	-11267
fléch	-11268
icipe	-11269
words	-11270
▁Adam	-11271
▁cerem	-11272
▁piano	-11273
▁Mission	-11274
▁victime	-11275
▁réflexion	-11276
▁guidelines	-11277
IO	-11278
▁Win	-11279
▁plong	-11280
▁étrang	-11281
▁intended	-11282
utilisateur	-11283
▁financiers	-11284
▁suspension	-11285
▁replacement	-11286
bell	-11287
▁dish	-11288
▁eleg	-11289
urrent	-11290
▁finir	-11291
▁sizes	-11292
▁depend	-11293
▁diagnostic	-11294
érés	-11295
▁renew	-11296
▁Région	-11297
▁native	-11298
▁Command	-11299
▁rédaction	-11300
▁frequently	-11301
UC	-11302
iée	-11303
▁52	-11304
▁utilisée	-11305
▁Equipment	-11306
▁receiving	-11307
phas	-11308
▁Heart	-11309
▁walls	-11310
pellier	-11311
▁module	-11312
▁powder	-11313
▁resort	-11314
▁motivation	-11315
ete	-11316
▁Lic	-11317
effic	-11318
glise	-11319
icide	-11320
tered	-11321
▁Scot	-11322
études	-11323
▁folks	-11324
▁Change	-11325
▁diplom	-11326
sa	-11327
600	-11328
▁pel	-11329
▁âge	-11330
haust	-11331
▁Past	-11332
▁voulu	-11333
▁Images	-11334
▁élément	-11335
▁platforms	-11336
▁respecter	-11337
▁lad	-11338
▁ISBN	-11339
▁Delhi	-11340
▁keeps	-11341
▁modes	-11342
▁broken	-11343
▁Fashion	-11344
▁dimensions	-11345
ste	-11346
crib	-11347
sian	-11348
adium	-11349
▁2013.	-11350
▁output	-11351
commerce	-11352
▁Industry	-11353
▁proposés	-11354
▁foundation	-11355
▁établissement	-11356
ika	-11357
osse	-11358
zona	-11359
▁Lew	-11360
▁morts	-11361
▁arrivée	-11362
▁vintage	-11363
▁agencies	-11364
▁amateurs	-11365
▁ambiance	-11366
▁domestic	-11367
▁substant	-11368
▁originale	-11369
▁proposent	-11370
▁kilomètres	-11371
cor	-11372
rors	-11373
ardins	-11374
▁bouche	-11375
▁consol	-11376
▁parfum	-11377
▁interne	-11378
▁grinding	-11379
▁impressive	-11380
▁proposition	-11381
▁residential	-11382
see	-11383
ilib	-11384
▁Der	-11385
asant	-11386
▁twice	-11387
▁detect	-11388
▁Programme	-11389
▁contemporary	-11390
▁restauration	-11391
Te	-11392
▁3-	-11393
▁Mu	-11394
rable	-11395
▁Spanish	-11396
▁attorney	-11397
▁$5	-11398
inson	-11399
▁boss	-11400
▁signé	-11401
options	-11402
▁league	-11403
érieures	-11404
▁offrant	-11405
Ang	-11406
▁joué	-11407
▁charme	-11408
▁retard	-11409
▁Instead	-11410
▁auteurs	-11411
▁Chaussures	-11412
▁OK	-11413
▁700	-11414
▁Aur	-11415
▁buff	-11416
▁récl	-11417
market	-11418
▁2012.	-11419
▁Intro	-11420
▁Visit	-11421
▁garantir	-11422
▁stunning	-11423
▁suivants	-11424
▁Sometimes	-11425
01	-11426
igo	-11427
▁(10	-11428
https	-11429
▁clip	-11430
▁tack	-11431
▁liées	-11432
▁owned	-11433
▁Middle	-11434
▁nearby	-11435
▁mobiles	-11436
/7	-11437
▁Dur	-11438
▁Inv	-11439
icial	-11440
oting	-11441
▁Fast	-11442
▁regul	-11443
▁Analys	-11444
ribution	-11445
▁Further	-11446
▁choosing	-11447
▁fulf	-11448
▁Bonne	-11449
▁Cours	-11450
tainment	-11451
▁château	-11452
▁invités	-11453
mentation	-11454
▁reporting	-11455
▁constantly	-11456
▁transaction	-11457
ev	-11458
▁31,	-11459
▁Gren	-11460
quence	-11461
▁losing	-11462
▁papers	-11463
▁réfléch	-11464
▁clientèle	-11465
▁NC	-11466
pter	-11467
▁Nut	-11468
endue	-11469
▁Crit	-11470
▁gris	-11471
▁Italy	-11472
▁solar	-11473
▁conviv	-11474
▁Nouveau	-11475
▁diverse	-11476
▁électriques	-11477
▁SK	-11478
uclear	-11479
▁Short	-11480
▁feuilles	-11481
▁guidance	-11482
▁possibles	-11483
iere	-11484
quir	-11485
▁Chat	-11486
▁Coup	-11487
quette	-11488
▁assets	-11489
▁lecteur	-11490
Go	-11491
▁yoga	-11492
▁concepts	-11493
investissement	-11494
pa	-11495
▁alt	-11496
▁Capt	-11497
▁joli	-11498
▁cooper	-11499
▁equipped	-11500
▁interests	-11501
▁Oak	-11502
▁nul	-11503
opath	-11504
▁Maria	-11505
▁affaire	-11506
▁conflic	-11507
▁procedures	-11508
▁collaborateurs	-11509
")	-11510
▁41	-11511
ésil	-11512
▁idéale	-11513
▁découvert	-11514
▁fournisseurs	-11515
Me	-11516
▁Nat	-11517
▁Tam	-11518
/2014	-11519
▁dang	-11520
▁king	-11521
▁filed	-11522
hétique	-11523
▁Limited	-11524
▁longueur	-11525
▁procedure	-11526
jou	-11527
lie	-11528
loc	-11529
▁Dun	-11530
reuve	-11531
▁Dall	-11532
▁Prim	-11533
▁tube	-11534
access	-11535
▁bénév	-11536
▁léger	-11537
▁skill	-11538
▁humain	-11539
▁listing	-11540
▁chantier	-11541
kh	-11542
▁Sept	-11543
▁Bible	-11544
▁Large	-11545
▁avail	-11546
▁enrich	-11547
▁freedom	-11548
▁accueille	-11549
peut	-11550
books	-11551
▁turns	-11552
▁organic	-11553
▁employés	-11554
▁monitoring	-11555
▁layer	-11556
▁phénom	-11557
▁restent	-11558
▁thorough	-11559
▁légèrement	-11560
usqu	-11561
▁Emb	-11562
▁Dark	-11563
▁advis	-11564
▁Emmanuel	-11565
▁examples	-11566
▁qualified	-11567
PG	-11568
star	-11569
lever	-11570
▁teen	-11571
▁magasins	-11572
▁catalogue	-11573
aze	-11574
▁NO	-11575
aped	-11576
ikes	-11577
annique	-11578
▁Though	-11579
▁solide	-11580
▁offices	-11581
▁Aux	-11582
adore	-11583
excell	-11584
▁amour	-11585
▁auront	-11586
▁meetings	-11587
▁painting	-11588
▁juge	-11589
▁tasks	-11590
▁viens	-11591
▁chasse	-11592
▁motion	-11593
▁charged	-11594
▁victory	-11595
▁discours	-11596
▁Allemagne	-11597
etty	-11598
▁attendant	-11599
▁goû	-11600
agnol	-11601
▁Chem	-11602
▁bearing	-11603
événement	-11604
▁avantage	-11605
59	-11606
cal	-11607
aron	-11608
▁oub	-11609
Ouest	-11610
ushed	-11611
▁ster	-11612
▁éche	-11613
▁pregn	-11614
▁determined	-11615
DP	-11616
▁78	-11617
▁TX	-11618
abis	-11619
stal	-11620
habit	-11621
tario	-11622
▁Corn	-11623
▁banks	-11624
▁involve	-11625
▁talents	-11626
▁possibilités	-11627
VE	-11628
uce	-11629
▁Cad	-11630
▁Spa	-11631
▁Model	-11632
▁interm	-11633
▁missed	-11634
hew	-11635
ôts	-11636
allée	-11637
▁Must	-11638
▁bases	-11639
▁shops	-11640
▁parole	-11641
▁leather	-11642
▁Map	-11643
enced	-11644
▁Mise	-11645
▁debut	-11646
▁muscle	-11647
▁cadeaux	-11648
▁citizens	-11649
▁contenus	-11650
▁remaining	-11651
▁Corporation	-11652
enseignements	-11653
Con	-11654
Lire	-11655
obby	-11656
▁Musée	-11657
rédients	-11658
▁lesquels	-11659
▁Formation	-11660
▁capacités	-11661
GO	-11662
▁Wars	-11663
▁lived	-11664
▁envoyer	-11665
▁suppliers	-11666
▁expectations	-11667
KE	-11668
▁Lor	-11669
▁wond	-11670
▁répar	-11671
▁chargé	-11672
▁billets	-11673
▁chanson	-11674
▁Assistant	-11675
▁Therefore	-11676
arre	-11677
asty	-11678
▁vast	-11679
▁Andrew	-11680
▁chiens	-11681
▁faveur	-11682
▁improving	-11683
inscription	-11684
▁historical	-11685
▁(200	-11686
▁Size	-11687
isement	-11688
▁closer	-11689
▁centaines	-11690
oen	-11691
/2013	-11692
▁défi	-11693
▁Diego	-11694
▁grown	-11695
▁maman	-11696
▁matters	-11697
▁stopped	-11698
▁external	-11699
▁reprendre	-11700
▁spécialisée	-11701
▁Arn	-11702
▁input	-11703
▁quote	-11704
▁Events	-11705
▁athlet	-11706
▁chirurg	-11707
▁planète	-11708
▁experiment	-11709
▁successfully	-11710
/2	-11711
▁$10	-11712
▁fif	-11713
▁boys	-11714
▁fier	-11715
meuble	-11716
▁auteur	-11717
▁vaccin	-11718
▁strategic	-11719
/4	-11720
▁Mél	-11721
▁dév	-11722
▁ages	-11723
▁Sarah	-11724
▁seemed	-11725
▁serves	-11726
▁déclaration	-11727
link	-11728
▁CAR	-11729
▁Pic	-11730
which	-11731
▁2003	-11732
▁drag	-11733
▁gare	-11734
ronics	-11735
▁Broad	-11736
▁maintenir	-11737
▁championnat	-11738
rem	-11739
amel	-11740
rics	-11741
▁Docu	-11742
▁Sche	-11743
ignons	-11744
▁conce	-11745
▁storm	-11746
▁yellow	-11747
▁treated	-11748
▁expériences	-11749
▁58	-11750
▁nic	-11751
iform	-11752
porte	-11753
▁piste	-11754
▁failure	-11755
▁monitor	-11756
▁authorities	-11757
you	-11758
owers	-11759
▁Ocean	-11760
▁worse	-11761
▁conducted	-11762
73	-11763
olé	-11764
Read	-11765
▁Mom	-11766
orges	-11767
riger	-11768
▁frère	-11769
▁incontourn	-11770
BO	-11771
Don	-11772
▁bru	-11773
▁slot	-11774
▁drain	-11775
▁objet	-11776
▁tente	-11777
▁chauss	-11778
▁collèg	-11779
▁Despite	-11780
▁supposed	-11781
▁Vidé	-11782
▁rural	-11783
ènement	-11784
▁Vendre	-11785
▁racont	-11786
▁hosting	-11787
▁publiques	-11788
▁clairement	-11789
▁architecture	-11790
▁restrictions	-11791
ova	-11792
▁Has	-11793
▁duo	-11794
▁Mode	-11795
▁eaux	-11796
▁Being	-11797
▁loves	-11798
▁typical	-11799
▁vigueur	-11800
▁produire	-11801
ito	-11802
▁54	-11803
mart	-11804
▁Cut	-11805
▁Ever	-11806
▁Sort	-11807
acteur	-11808
▁2009,	-11809
▁Islam	-11810
▁align	-11811
ajouter	-11812
asbourg	-11813
▁Recent	-11814
▁boiler	-11815
▁tested	-11816
▁sensible	-11817
▁chercheurs	-11818
▁spécialisé	-11819
▁_	-11820
pin	-11821
▁''	-11822
role	-11823
umeur	-11824
▁Sens	-11825
▁Stéph	-11826
▁Questions	-11827
usée	-11828
Saint	-11829
▁Bois	-11830
▁whom	-11831
▁pilote	-11832
▁announce	-11833
▁awareness	-11834
▁employment	-11835
▁mel	-11836
▁Term	-11837
▁Vent	-11838
▁digit	-11839
▁guitar	-11840
Man	-11841
▁Opp	-11842
aping	-11843
encer	-11844
ingham	-11845
ouvoir	-11846
▁Queen	-11847
▁fêtes	-11848
▁inaug	-11849
▁natur	-11850
friendly	-11851
▁Private	-11852
▁factory	-11853
▁witness	-11854
▁dirigeants	-11855
▁exposition	-11856
▁journaliste	-11857
▁69	-11858
foot	-11859
èces	-11860
rates	-11861
▁aimé	-11862
autant	-11863
▁Salle	-11864
▁fiche	-11865
augment	-11866
imately	-11867
▁oeuvre	-11868
▁analyst	-11869
▁portion	-11870
▁cultures	-11871
▁comportement	-11872
▁51	-11873
▁72	-11874
▁loy	-11875
armée	-11876
gling	-11877
▁bapt	-11878
▁cach	-11879
attention	-11880
▁exigences	-11881
Em	-11882
ls	-11883
cop	-11884
/2015	-11885
▁Army	-11886
▁risks	-11887
▁offrent	-11888
▁trained	-11889
▁concerts	-11890
▁trouvent	-11891
▁vertical	-11892
▁financier	-11893
▁scre	-11894
▁doubl	-11895
amental	-11896
▁reconst	-11897
▁chaleure	-11898
▁clothing	-11899
▁conséquences	-11900
SI	-11901
Off	-11902
upe	-11903
▁gear	-11904
impact	-11905
▁Flash	-11906
▁crack	-11907
▁shock	-11908
hôpital	-11909
▁hospit	-11910
elligence	-11911
▁Cer	-11912
ydney	-11913
▁Update	-11914
▁forest	-11915
ismes	-11916
▁Step	-11917
▁solo	-11918
▁allant	-11919
▁Officer	-11920
▁fraîche	-11921
▁prestig	-11922
▁occasions	-11923
ACK	-11924
▁Coc	-11925
▁inéd	-11926
▁rond	-11927
▁comité	-11928
▁comprom	-11929
▁douceur	-11930
▁conduite	-11931
▁absolument	-11932
▁concurrence	-11933
▁Gir	-11934
▁Nik	-11935
▁Tony	-11936
▁enjeux	-11937
▁ordered	-11938
▁URL	-11939
▁doig	-11940
▁luck	-11941
inform	-11942
▁noire	-11943
▁sheet	-11944
▁usual	-11945
▁estime	-11946
▁recorded	-11947
▁religion	-11948
▁speaking	-11949
▁happening	-11950
BM	-11951
OUT	-11952
▁59	-11953
atar	-11954
▁cute	-11955
▁mouth	-11956
▁populations	-11957
Gu	-11958
rac	-11959
pire	-11960
▁Enf	-11961
▁hack	-11962
▁jaune	-11963
▁vaste	-11964
▁proport	-11965
▁maladies	-11966
▁certified	-11967
▁accompagné	-11968
▁instruments	-11969
ACT	-11970
▁CG	-11971
edes	-11972
▁Cham	-11973
▁agreed	-11974
▁concassage	-11975
▁56	-11976
▁Sou	-11977
▁gout	-11978
▁inqui	-11979
instant	-11980
▁Taylor	-11981
▁dollar	-11982
émission	-11983
▁interven	-11984
▁$3	-11985
▁Brad	-11986
▁coûts	-11987
▁fascin	-11988
▁prompt	-11989
▁Ajouter	-11990
▁dossiers	-11991
aceut	-11992
▁trig	-11993
▁Alain	-11994
▁laser	-11995
▁proté	-11996
▁appris	-11997
▁pierres	-11998
▁stretch	-11999
▁visites	-12000
▁Northern	-12001
▁officers	-12002
▁mâ	-12003
édia	-12004
/2012	-12005
enser	-12006
onyme	-12007
owing	-12008
pected	-12009
▁Bourg	-12010
▁urban	-12011
▁scheme	-12012
▁submit	-12013
▁Options	-12014
▁accéder	-12015
▁clothes	-12016
▁potentiel	-12017
▁extrêmement	-12018
VA	-12019
vy	-12020
har	-12021
▁ME	-12022
▁10%	-12023
▁dose	-12024
▁Villa	-12025
▁Winter	-12026
▁casinos	-12027
▁toiture	-12028
▁remettre	-12029
▁Ho	-12030
▁Put	-12031
▁rough	-12032
cluding	-12033
▁taught	-12034
▁trafic	-12035
▁emotional	-12036
▁fermeture	-12037
apprentissage	-12038
▁automatiquement	-12039
Op	-12040
RI	-12041
▁Ta	-12042
▁pav	-12043
▁ros	-12044
▁élus	-12045
ophone	-12046
▁coûte	-12047
▁delay	-12048
▁stade	-12049
atholic	-12050
▁promise	-12051
▁accepted	-12052
Association	-12053
alimentation	-12054
onda	-12055
▁Unf	-12056
▁Lille	-12057
▁Mater	-12058
▁Prince	-12059
▁couples	-12060
▁muscles	-12061
▁returns	-12062
▁installé	-12063
▁recognized	-12064
More	-12065
reme	-12066
▁Body	-12067
▁Mail	-12068
▁fins	-12069
▁gifts	-12070
▁sinon	-12071
▁Consul	-12072
▁monter	-12073
▁Trading	-12074
▁considé	-12075
▁incorpor	-12076
▁trimestre	-12077
▁contribute	-12078
▁Application	-12079
▁bab	-12080
▁ham	-12081
▁Host	-12082
▁Jess	-12083
▁Kenn	-12084
▁bomb	-12085
▁lect	-12086
▁linked	-12087
▁widely	-12088
▁betting	-12089
▁Division	-12090
▁Exchange	-12091
▁aluminium	-12092
▁carefully	-12093
▁scientific	-12094
83	-12095
hem	-12096
▁("	-12097
▁2-	-12098
▁WC	-12099
ector	-12100
emain	-12101
▁aper	-12102
▁ease	-12103
semble	-12104
▁villa	-12105
▁creates	-12106
▁favourite	-12107
To	-12108
▁POUR	-12109
▁2008,	-12110
▁paire	-12111
▁scored	-12112
▁développé	-12113
▁attractive	-12114
▁particulière	-12115
usc	-12116
▁fo	-12117
apor	-12118
▁lin	-12119
bourne	-12120
inture	-12121
itudes	-12122
▁fraud	-12123
▁Senate	-12124
▁Things	-12125
▁masque	-12126
▁Arizona	-12127
▁spectac	-12128
▁Medicine	-12129
lon	-12130
▁advoc	-12131
▁aspir	-12132
▁lever	-12133
▁devait	-12134
▁infect	-12135
▁échanges	-12136
▁difficulté	-12137
▁expression	-12138
PP	-12139
prof	-12140
effet	-12141
▁Insp	-12142
▁forced	-12143
▁sentir	-12144
▁sensation	-12145
eté	-12146
▁impr	-12147
▁Privacy	-12148
▁loisirs	-12149
▁poursuit	-12150
▁villages	-12151
▁specialist	-12152
▁scientifiques	-12153
▁transportation	-12154
ti	-12155
pass	-12156
▁Rab	-12157
▁gast	-12158
annels	-12159
▁hoping	-12160
▁follows	-12161
▁protest	-12162
▁pollution	-12163
cad	-12164
onym	-12165
▁Lum	-12166
▁Wire	-12167
▁wash	-12168
▁Break	-12169
▁Homes	-12170
▁moist	-12171
▁talks	-12172
▁random	-12173
▁suscept	-12174
▁Singapore	-12175
nee	-12176
pdf	-12177
▁Ali	-12178
▁fold	-12179
▁civile	-12180
▁earned	-12181
▁équipé	-12182
▁Details	-12183
▁Related	-12184
▁dangere	-12185
▁assistant	-12186
▁graphique	-12187
▁consommateurs	-12188
▁NAS	-12189
▁sympa	-12190
absence	-12191
▁Pacific	-12192
▁Royaume	-12193
▁secrets	-12194
installer	-12195
▁injuries	-12196
mun	-12197
▁mg	-12198
reur	-12199
inton	-12200
▁Dead	-12201
▁forêt	-12202
▁esprit	-12203
▁négoci	-12204
▁strict	-12205
▁fortement	-12206
▁excellente	-12207
ubs	-12208
iquée	-12209
▁Kent	-12210
commun	-12211
▁métal	-12212
▁tells	-12213
▁vraie	-12214
▁medicine	-12215
▁Resources	-12216
▁relatives	-12217
▁Less	-12218
▁ench	-12219
▁arrivé	-12220
▁hommage	-12221
▁raconte	-12222
▁implementation	-12223
vé	-12224
ACH	-12225
▁lou	-12226
eront	-12227
▁Want	-12228
▁hang	-12229
▁laissé	-12230
▁integrated	-12231
▁XX	-12232
oyen	-12233
▁USD	-12234
etime	-12235
ettez	-12236
érance	-12237
▁bateau	-12238
appareil	-12239
▁horaires	-12240
▁patterns	-12241
entreprises	-12242
▁administrative	-12243
1]	-12244
pas	-12245
Alle	-12246
born	-12247
▁Chi	-12248
▁Voy	-12249
orith	-12250
▁Inde	-12251
▁Phys	-12252
▁segment	-12253
▁Challenge	-12254
▁batteries	-12255
▁landscape	-12256
▁remplacer	-12257
▁sustainable	-12258
Cal	-12259
arks	-12260
uten	-12261
▁Lyn	-12262
▁pdf	-12263
▁Jour	-12264
▁flood	-12265
▁laugh	-12266
▁advers	-12267
▁deploy	-12268
▁revenu	-12269
▁viande	-12270
▁formule	-12271
▁graduate	-12272
▁Administration	-12273
Sc	-12274
cho	-12275
oda	-12276
chons	-12277
proof	-12278
▁baign	-12279
▁postes	-12280
▁terrible	-12281
▁purchasing	-12282
▁Entertainment	-12283
êcher	-12284
▁Rent	-12285
▁Self	-12286
▁joie	-12287
ifiant	-12288
▁Andre	-12289
▁Italie	-12290
▁bottle	-12291
ignement	-12292
élection	-12293
▁tourner	-12294
▁contrast	-12295
innovation	-12296
▁packaging	-12297
CF	-12298
▁Dak	-12299
uites	-12300
▁Homme	-12301
▁sorti	-12302
▁degrees	-12303
▁récupérer	-12304
▁conversion	-12305
72	-12306
boy	-12307
nic	-12308
▁Sle	-12309
▁ads	-12310
▁edit	-12311
uminum	-12312
▁Cover	-12313
▁Sound	-12314
▁appeal	-12315
▁courte	-12316
aventure	-12317
▁sensibil	-12318
▁workshop	-12319
▁Toutefois	-12320
▁commerces	-12321
▁framework	-12322
▁atmosphere	-12323
▁internautes	-12324
erman	-12325
iciens	-12326
▁Trade	-12327
▁mixed	-12328
▁bijoux	-12329
▁chaude	-12330
▁vivant	-12331
▁mountain	-12332
▁researchers	-12333
élève	-12334
▁mart	-12335
▁Order	-12336
▁reply	-12337
▁usine	-12338
▁Agency	-12339
▁picked	-12340
▁managers	-12341
▁bâtiments	-12342
oly	-12343
ombre	-12344
▁Font	-12345
▁hook	-12346
▁inch	-12347
▁noms	-12348
▁Spirit	-12349
▁Stephen	-12350
▁réussir	-12351
▁tomorrow	-12352
▁suggested	-12353
▁déplacement	-12354
▁indépendant	-12355
syl	-12356
▁Pa	-12357
▁Forest	-12358
▁Sydney	-12359
▁portfolio	-12360
▁assessment	-12361
ni	-12362
▁IM	-12363
.....	-12364
duate	-12365
▁Olivier	-12366
▁sportif	-12367
▁Hollywood	-12368
.»	-12369
cat	-12370
urier	-12371
▁Come	-12372
▁calc	-12373
▁cess	-12374
abetes	-12375
orized	-12376
▁Quels	-12377
▁Expert	-12378
enregist	-12379
▁alleged	-12380
▁cliquez	-12381
▁singles	-12382
▁recommande	-12383
pot	-12384
▁Cot	-12385
▁wet	-12386
rains	-12387
▁bata	-12388
▁ille	-12389
▁Essay	-12390
▁Parce	-12391
aissent	-12392
▁Colomb	-12393
▁reward	-12394
▁moindre	-12395
▁sorties	-12396
▁Victoria	-12397
▁expansion	-12398
sol	-12399
angl	-12400
▁brace	-12401
▁likes	-12402
▁masse	-12403
▁porté	-12404
▁phrase	-12405
▁sacrif	-12406
▁Communication	-12407
PD	-12408
▁Bac	-12409
▁Hyd	-12410
▁Treat	-12411
▁prévue	-12412
▁Finally	-12413
▁closely	-12414
▁ouvrage	-12415
▁amoureux	-12416
▁mouvements	-12417
▁officielle	-12418
▁Montpellier	-12419
TI	-12420
cue	-12421
▁spr	-12422
▁Vice	-12423
▁plaf	-12424
▁abuse	-12425
▁forex	-12426
▁Brazil	-12427
▁quitter	-12428
▁sending	-12429
lla	-12430
sey	-12431
irmer	-12432
ounge	-12433
âches	-12434
▁adds	-12435
▁depth	-12436
▁grosse	-12437
▁bedrooms	-12438
Co	-12439
▁DIY	-12440
▁Han	-12441
profit	-12442
▁acier	-12443
▁Common	-12444
▁beurre	-12445
pectives	-12446
▁booking	-12447
▁humains	-12448
▁procure	-12449
▁reconnu	-12450
▁turning	-12451
▁municipal	-12452
▁représentant	-12453
she	-12454
▁IV	-12455
▁brû	-12456
▁ital	-12457
iterran	-12458
▁inches	-12459
▁noticed	-12460
▁remport	-12461
▁mobilité	-12462
▁Strasbourg	-12463
idas	-12464
adapt	-12465
ouest	-12466
▁Spéc	-12467
enquête	-12468
▁cérémonie	-12469
▁conclusion	-12470
▁prévention	-12471
world	-12472
▁hybr	-12473
▁seats	-12474
▁spots	-12475
▁maître	-12476
▁appelle	-12477
▁règlement	-12478
▁recrutement	-12479
FF	-12480
ells	-12481
vres	-12482
▁NFL	-12483
▁ade	-12484
▁Retour	-12485
▁attached	-12486
▁importantes	-12487
édé	-12488
lies	-12489
▁ear	-12490
▁Kind	-12491
iament	-12492
▁Again	-12493
▁chart	-12494
▁pitch	-12495
▁quitt	-12496
▁wealth	-12497
▁savings	-12498
▁poursuivre	-12499
▁progression	-12500
7)	-12501
Des	-12502
▁CM	-12503
▁Na	-12504
▁ran	-12505
uling	-12506
▁Henry	-12507
▁Level	-12508
quences	-12509
▁actuel	-12510
▁bureaux	-12511
▁lettres	-12512
▁instrument	-12513
hr	-12514
:05	-12515
welry	-12516
▁Hold	-12517
▁Château	-12518
▁recours	-12519
▁organise	-12520
.1	-12521
58	-12522
▁CV	-12523
acte	-12524
izon	-12525
under	-12526
▁Classic	-12527
▁mauvaise	-12528
▁q	-12529
atte	-12530
ulin	-12531
ingly	-12532
▁basse	-12533
▁upper	-12534
cu	-12535
iva	-12536
iège	-12537
▁Bén	-12538
▁buyers	-12539
▁podcast	-12540
lications	-12541
▁normally	-12542
▁publicité	-12543
▁membership	-12544
▁Performance	-12545
▁intelligence	-12546
Car	-12547
rien	-12548
▁Equ	-12549
▁bags	-12550
▁Taille	-12551
▁mairie	-12552
▁connaît	-12553
▁implant	-12554
▁networks	-12555
▁wireless	-12556
▁interactive	-12557
cers	-12558
gard	-12559
▁Moi	-12560
cknow	-12561
▁cens	-12562
ignant	-12563
▁couvre	-12564
▁Cuisine	-12565
▁Zealand	-12566
▁réparation	-12567
▁modification	-12568
▁dil	-12569
▁rab	-12570
terre	-12571
▁Poly	-12572
▁pink	-12573
▁truc	-12574
▁béton	-12575
▁acheté	-12576
▁sudden	-12577
▁Pourtant	-12578
▁dangerous	-12579
law	-12580
▁DS	-12581
▁gri	-12582
▁Tokyo	-12583
▁Dallas	-12584
▁matchs	-12585
▁Gallery	-12586
▁fournit	-12587
placements	-12588
▁augmenter	-12589
web	-12590
▁SD	-12591
oter	-12592
pton	-12593
chauff	-12594
iphone	-12595
▁changé	-12596
▁myster	-12597
▁Holiday	-12598
▁adaptée	-12599
▁dynamic	-12600
iley	-12601
inage	-12602
▁empr	-12603
▁cockt	-12604
▁newly	-12605
▁noise	-12606
▁situe	-12607
▁marqué	-12608
▁Wedding	-12609
▁longues	-12610
▁protein	-12611
▁vouloir	-12612
▁environs	-12613
▁DO	-12614
lett	-12615
▁coins	-12616
▁coton	-12617
▁newsp	-12618
▁solve	-12619
holders	-12620
▁awards	-12621
▁délais	-12622
▁tonnes	-12623
identité	-12624
▁Southern	-12625
▁discipline	-12626
▁prochaines	-12627
▁relatively	-12628
▁coopération	-12629
hé	-12630
tu	-12631
ERE	-12632
▁(6	-12633
▁BB	-12634
▁2002	-12635
▁cité	-12636
ocratic	-12637
▁protoc	-12638
▁renouvel	-12639
▁scholars	-12640
▁fabricant	-12641
▁Fédération	-12642
▁circumstances	-12643
▁concentration	-12644
aba	-12645
dou	-12646
emy	-12647
pty	-12648
chet	-12649
icaux	-12650
▁elev	-12651
▁male	-12652
inions	-12653
▁Govern	-12654
▁quotes	-12655
▁contrats	-12656
▁tribunal	-12657
▁conserver	-12658
hist	-12659
▁Anc	-12660
▁Cant	-12661
▁dust	-12662
▁déco	-12663
▁tons	-12664
▁Still	-12665
▁Banque	-12666
▁Personn	-12667
▁console	-12668
▁enables	-12669
▁extract	-12670
▁committee	-12671
▁développe	-12672
▁souvenirs	-12673
▁regulations	-12674
▁196	-12675
ading	-12676
▁Minn	-12677
▁anxi	-12678
▁Field	-12679
▁Austin	-12680
▁entrer	-12681
▁staying	-12682
▁Provence	-12683
▁françaises	-12684
END	-12685
▁68	-12686
teen	-12687
▁Pit	-12688
ondre	-12689
▁Lady	-12690
▁Histor	-12691
▁fishing	-12692
▁lessons	-12693
▁remarqu	-12694
▁variété	-12695
▁gorgeous	-12696
▁adventure	-12697
▁capabilities	-12698
▁travailleurs	-12699
54	-12700
▁NS	-12701
▁Kir	-12702
▁rues	-12703
▁assum	-12704
▁liked	-12705
▁plain	-12706
present	-12707
▁Jordan	-12708
▁attacks	-12709
▁démocrat	-12710
▁écologique	-12711
:15	-12712
UIT	-12713
str	-12714
▁Gér	-12715
ulous	-12716
▁Egypt	-12717
▁blogs	-12718
▁border	-12719
How	-12720
▁53	-12721
▁ml	-12722
eria	-12723
igny	-12724
▁vel	-12725
sters	-12726
▁Vert	-12727
▁defe	-12728
▁midi	-12729
▁Month	-12730
▁accum	-12731
▁quels	-12732
▁réduit	-12733
écriture	-12734
▁séances	-12735
▁Direction	-12736
▁infection	-12737
LY	-12738
▁ya	-12739
▁Dém	-12740
▁beer	-12741
▁flor	-12742
▁imper	-12743
▁maroc	-12744
▁soyez	-12745
▁détect	-12746
▁speech	-12747
▁minimal	-12748
▁accessories	-12749
arme	-12750
ésus	-12751
▁Ton	-12752
▁bron	-12753
▁cous	-12754
▁venu	-12755
▁regret	-12756
Institut	-12757
▁combine	-12758
▁dealing	-12759
▁generate	-12760
▁Halloween	-12761
▁Lé	-12762
▁pluie	-12763
▁negoti	-12764
▁Sénégal	-12765
▁flights	-12766
▁forecast	-12767
▁Secretary	-12768
▁reasonable	-12769
RO	-12770
kg	-12771
ERT	-12772
êle	-12773
▁PE	-12774
▁900	-12775
▁Déf	-12776
▁Mic	-12777
unité	-12778
▁merc	-12779
▁revend	-12780
▁trailer	-12781
▁régional	-12782
▁treatments	-12783
56	-12784
▁Bor	-12785
▁Iron	-12786
▁proof	-12787
▁guides	-12788
▁silence	-12789
animation	-12790
▁lendemain	-12791
▁transfert	-12792
▁performing	-12793
gie	-12794
▁os	-12795
oves	-12796
Miche	-12797
▁Match	-12798
▁contro	-12799
▁emphas	-12800
▁chacune	-12801
▁compose	-12802
▁présidentielle	-12803
oncé	-12804
urse	-12805
album	-12806
oncer	-12807
▁dens	-12808
▁fixe	-12809
▁Spain	-12810
▁weekly	-12811
▁Fondation	-12812
▁travaillé	-12813
LD	-12814
Plus	-12815
aite	-12816
▁Age	-12817
iseur	-12818
shire	-12819
▁clôt	-12820
▁sinc	-12821
▁chrét	-12822
▁Fabric	-12823
▁execut	-12824
▁fellow	-12825
▁épisode	-12826
université	-12827
▁familiale	-12828
sea	-12829
▁Mi	-12830
▁Dol	-12831
▁Floor	-12832
▁plomb	-12833
▁scand	-12834
▁Course	-12835
▁presents	-12836
▁précision	-12837
▁recognize	-12838
▁reduction	-12839
▁opposition	-12840
▁populaires	-12841
war	-12842
▁BBC	-12843
▁quin	-12844
illion	-12845
▁tapis	-12846
▁lawyer	-12847
▁plaque	-12848
▁Question	-12849
▁criminal	-12850
uz	-12851
cade	-12852
▁vig	-12853
ricul	-12854
▁Meth	-12855
▁mener	-12856
▁nuclé	-12857
▁ensuring	-12858
▁Hub	-12859
▁Sug	-12860
▁dad	-12861
erland	-12862
▁chute	-12863
▁préal	-12864
▁passing	-12865
▁profondeur	-12866
▁57	-12867
▁Aw	-12868
▁Ga	-12869
oved	-12870
▁Lamb	-12871
▁marks	-12872
▁Samedi	-12873
▁essays	-12874
▁vérité	-12875
▁Student	-12876
▁augmentation	-12877
imb	-12878
amic	-12879
▁max	-12880
▁choc	-12881
▁kill	-12882
Americ	-12883
▁ouvre	-12884
▁Simple	-12885
▁miroir	-12886
▁exhaust	-12887
▁removal	-12888
Assemblée	-12889
▁Ministry	-12890
▁Christophe	-12891
las	-12892
long	-12893
attend	-12894
▁Capit	-12895
▁laptop	-12896
▁tomber	-12897
▁Cliquez	-12898
▁resistance	-12899
▁Py	-12900
▁350	-12901
▁Som	-12902
ômage	-12903
▁dorm	-12904
▁flux	-12905
▁Multi	-12906
▁montage	-12907
▁handling	-12908
▁tendances	-12909
▁classiques	-12910
▁enterprise	-12911
UX	-12912
eu	-12913
ECT	-12914
▁(20	-12915
▁140	-12916
categ	-12917
▁Bleu	-12918
▁Near	-12919
▁Spot	-12920
▁pomp	-12921
▁stake	-12922
▁actifs	-12923
▁mandat	-12924
▁séries	-12925
▁époque	-12926
▁demeure	-12927
▁telling	-12928
▁sections	-12929
FO	-12930
▁°	-12931
voire	-12932
▁Cele	-12933
▁Anthony	-12934
▁détente	-12935
▁Features	-12936
▁personnels	-12937
▁solidarité	-12938
▁Additionally	-12939
▁Unfortunately	-12940
WE	-12941
▁GPS	-12942
▁Nad	-12943
stream	-12944
▁composée	-12945
▁entirely	-12946
▁critiques	-12947
▁participé	-12948
Av	-12949
Int	-12950
orc	-12951
****	-12952
▁AFP	-12953
▁grab	-12954
▁alert	-12955
▁meals	-12956
▁france	-12957
▁replaced	-12958
▁developer	-12959
▁intérieure	-12960
intervention	-12961
▁GT	-12962
chest	-12963
Intern	-12964
cepter	-12965
enault	-12966
▁Liver	-12967
▁pistes	-12968
▁donnent	-12969
▁secrétaire	-12970
▁manifestation	-12971
aska	-12972
cker	-12973
human	-12974
▁Sylv	-12975
▁none	-12976
▁sexe	-12977
▁Would	-12978
intendo	-12979
▁phones	-12980
▁spéciale	-12981
▁producing	-12982
▁Categories	-12983
▁reputation	-12984
AFP	-12985
ahoo	-12986
activ	-12987
outes	-12988
▁Marg	-12989
▁Snow	-12990
▁pren	-12991
▁Repair	-12992
▁cigare	-12993
▁visant	-12994
▁donnant	-12995
▁formats	-12996
▁découvrez	-12997
▁Jr	-12998
▁File	-12999
▁Hair	-13000
▁Korea	-13001
▁reform	-13002
▁combien	-13003
▁Catherine	-13004
▁utilisées	-13005
▁developers	-13006
▁numériques	-13007
emb	-13008
wall	-13009
▁Déb	-13010
▁ber	-13011
▁fal	-13012
▁lie	-13013
▁Used	-13014
▁mold	-13015
▁Altern	-13016
▁Latest	-13017
▁liquide	-13018
▁documentation	-13019
▁da	-13020
inés	-13021
▁Bah	-13022
▁Furn	-13023
▁spat	-13024
▁opens	-13025
enfants	-13026
▁entend	-13027
▁Springs	-13028
▁dropped	-13029
▁Customer	-13030
▁attended	-13031
acer	-13032
dale	-13033
ulée	-13034
▁BMW	-13035
▁Bry	-13036
▁TVA	-13037
▁jun	-13038
▁ceci	-13039
▁bridge	-13040
▁decade	-13041
▁portant	-13042
▁identity	-13043
▁européens	-13044
▁immediate	-13045
▁consistent	-13046
asa	-13047
otic	-13048
▁SER	-13049
▁cyl	-13050
▁pir	-13051
▁pant	-13052
▁2011.	-13053
▁facts	-13054
▁closing	-13055
▁serveur	-13056
▁accomplish	-13057
Pour	-13058
▁genu	-13059
▁aimer	-13060
▁firms	-13061
▁worst	-13062
▁Argent	-13063
▁enjoying	-13064
▁informed	-13065
▁seriously	-13066
ISE	-13067
▁77	-13068
▁Buff	-13069
▁crew	-13070
▁antib	-13071
▁seuls	-13072
▁Choose	-13073
▁Claude	-13074
▁critic	-13075
▁ceremony	-13076
▁historic	-13077
▁surprised	-13078
▁Production	-13079
El	-13080
▁Ici	-13081
▁exec	-13082
▁hits	-13083
▁Jésus	-13084
▁Bridge	-13085
ua	-13086
New	-13087
▁ped	-13088
▁sén	-13089
vania	-13090
▁Text	-13091
▁éduc	-13092
▁panor	-13093
▁saving	-13094
▁unable	-13095
▁Working	-13096
▁maîtrise	-13097
expression	-13098
▁satellite	-13099
▁incredibly	-13100
</	-13101
Ce	-13102
:35	-13103
▁1)	-13104
▁Fix	-13105
▁cuisson	-13106
▁énergie	-13107
▁calendrier	-13108
▁définition	-13109
▁electrical	-13110
jon	-13111
▁CAN	-13112
▁Lav	-13113
▁roi	-13114
issue	-13115
pondu	-13116
▁lecteurs	-13117
▁originally	-13118
▁photography	-13119
-01	-13120
▁Dor	-13121
▁1980	-13122
▁split	-13123
▁vendeur	-13124
Col	-13125
▁IL	-13126
etry	-13127
▁Him	-13128
▁cod	-13129
▁tip	-13130
magne	-13131
▁1990	-13132
▁Cool	-13133
▁Greg	-13134
▁Rece	-13135
▁cosm	-13136
▁evol	-13137
▁hers	-13138
▁acknow	-13139
▁avions	-13140
▁domain	-13141
▁lutter	-13142
▁tagged	-13143
▁theory	-13144
▁alongside	-13145
▁ingrédients	-13146
-)	-13147
Rh	-13148
uzz	-13149
omber	-13150
shirt	-13151
iquent	-13152
▁accro	-13153
▁Toyota	-13154
▁boulev	-13155
▁designers	-13156
▁interventions	-13157
92	-13158
-15	-13159
anged	-13160
▁flower	-13161
▁plante	-13162
▁publiée	-13163
▁qualités	-13164
▁swimming	-13165
▁nécessite	-13166
▁alternatives	-13167
/3	-13168
bul	-13169
dep	-13170
▁GP	-13171
illons	-13172
▁prove	-13173
▁steam	-13174
▁Mining	-13175
améliorer	-13176
▁memories	-13177
▁Relations	-13178
▁pleinement	-13179
chi	-13180
▁Ay	-13181
▁FO	-13182
lied	-13183
pore	-13184
wick	-13185
emple	-13186
umble	-13187
▁Bert	-13188
▁grew	-13189
▁Ident	-13190
▁Porte	-13191
▁héros	-13192
▁WordPress	-13193
▁juridique	-13194
▁organisée	-13195
CP	-13196
:01	-13197
▁Ing	-13198
outez	-13199
▁Eliz	-13200
▁dure	-13201
▁vues	-13202
atrième	-13203
▁sollic	-13204
aménagement	-13205
habil	-13206
▁pois	-13207
▁Professor	-13208
vas	-13209
rect	-13210
andes	-13211
▁Pasc	-13212
▁russe	-13213
férence	-13214
product	-13215
▁channels	-13216
▁pleasure	-13217
▁rubrique	-13218
▁prestation	-13219
▁enseignants	-13220
▁spécialistes	-13221
▁représentants	-13222
96	-13223
pal	-13224
exam	-13225
rock	-13226
▁gig	-13227
▁Mali	-13228
▁hole	-13229
▁intit	-13230
▁islam	-13231
embourg	-13232
▁fighting	-13233
▁Actualité	-13234
agriculture	-13235
▁bol	-13236
ivals	-13237
▁Leur	-13238
▁Vari	-13239
▁ratt	-13240
énieur	-13241
▁Brian	-13242
▁Genève	-13243
▁assort	-13244
▁upload	-13245
iliation	-13246
▁Writing	-13247
▁awarded	-13248
▁recipes	-13249
▁artisans	-13250
▁eligible	-13251
▁médecine	-13252
▁religious	-13253
▁categories	-13254
▁personally	-13255
-18	-13256
▁160	-13257
▁cave	-13258
▁sick	-13259
▁portrait	-13260
▁basketball	-13261
93	-13262
Hz	-13263
▁110	-13264
▁mou	-13265
arant	-13266
èques	-13267
▁mood	-13268
aisons	-13269
estone	-13270
▁Solid	-13271
▁magic	-13272
▁roule	-13273
▁smile	-13274
▁Member	-13275
▁assuré	-13276
▁répert	-13277
▁aventure	-13278
▁effectué	-13279
▁pandémie	-13280
▁basically	-13281
▁increases	-13282
AE	-13283
:03	-13284
bie	-13285
▁Was	-13286
aution	-13287
▁Guill	-13288
▁Livre	-13289
▁Roche	-13290
▁Study	-13291
▁musul	-13292
▁langues	-13293
▁potenti	-13294
électricité	-13295
▁nourriture	-13296
▁Jay	-13297
▁NBA	-13298
ilson	-13299
▁Inte	-13300
▁Poss	-13301
▁Carte	-13302
▁Davis	-13303
▁résid	-13304
▁belief	-13305
▁encoun	-13306
▁sommet	-13307
exercice	-13308
▁forfait	-13309
▁Computer	-13310
▁souligne	-13311
being	-13312
▁Mosc	-13313
design	-13314
▁faces	-13315
▁prennent	-13316
▁entrepreneur	-13317
:10	-13318
ervez	-13319
▁Zone	-13320
▁actif	-13321
▁lucky	-13322
▁prêts	-13323
limited	-13324
▁exempl	-13325
▁poster	-13326
▁navigateur	-13327
▁recommendations	-13328
EX	-13329
Our	-13330
nger	-13331
▁Berg	-13332
▁scan	-13333
érations	-13334
▁Ontario	-13335
▁cherchez	-13336
▁découvre	-13337
▁essentiel	-13338
chés	-13339
▁Joy	-13340
Alpes	-13341
▁Creek	-13342
▁trick	-13343
▁entered	-13344
IONS	-13345
inch	-13346
▁pât	-13347
shops	-13348
▁Chel	-13349
▁chers	-13350
▁tombe	-13351
▁severe	-13352
▁undert	-13353
▁ancienne	-13354
▁proposal	-13355
▁créations	-13356
▁Immobilier	-13357
▁souhaitent	-13358
▁personnelle	-13359
▁reconnaissance	-13360
AST	-13361
osa	-13362
raul	-13363
▁Mol	-13364
undry	-13365
▁Side	-13366
▁maqu	-13367
▁créée	-13368
▁Perfect	-13369
▁banques	-13370
▁perfection	-13371
▁publications	-13372
▁GB	-13373
ader	-13374
eted	-13375
ierry	-13376
▁Stay	-13377
▁Vend	-13378
▁caps	-13379
▁chic	-13380
▁Rights	-13381
▁planet	-13382
▁feuille	-13383
▁Particip	-13384
▁branches	-13385
▁lesquelles	-13386
▁fournisseur	-13387
AK	-13388
▁Pod	-13389
▁sky	-13390
grade	-13391
▁Dave	-13392
▁hurt	-13393
▁Ultra	-13394
▁camer	-13395
▁huile	-13396
▁inner	-13397
inction	-13398
▁Beauty	-13399
▁fiscal	-13400
▁iphone	-13401
▁solaire	-13402
▁catégories	-13403
……	-13404
▁pc	-13405
ston	-13406
▁raf	-13407
apers	-13408
èvres	-13409
▁basé	-13410
adelph	-13411
annage	-13412
▁Major	-13413
▁albums	-13414
▁notion	-13415
▁remind	-13416
▁intégré	-13417
▁organized	-13418
▁exactement	-13419
ottes	-13420
▁Jason	-13421
▁manif	-13422
▁ancient	-13423
▁deposit	-13424
▁terminé	-13425
dam	-13426
▁Bh	-13427
ôles	-13428
about	-13429
▁Angl	-13430
▁ence	-13431
▁Jardin	-13432
▁histoires	-13433
mal	-13434
rob	-13435
plan	-13436
usses	-13437
▁Aucun	-13438
▁revue	-13439
▁Single	-13440
▁couche	-13441
▁chapter	-13442
▁invited	-13443
▁letters	-13444
▁controll	-13445
▁preparation	-13446
▁conservation	-13447
accompagnement	-13448
▁accommodation	-13449
],	-13450
-21	-13451
▁Via	-13452
level	-13453
rator	-13454
toine	-13455
▁Gran	-13456
▁Asian	-13457
▁Friends	-13458
▁authors	-13459
▁espèces	-13460
▁réforme	-13461
▁currency	-13462
▁nécessité	-13463
▁proposées	-13464
▁submitted	-13465
▁tournament	-13466
▁Informations	-13467
▁destinations	-13468
▁renseignements	-13469
▁UV	-13470
▁hect	-13471
▁jury	-13472
▁vécu	-13473
▁Seine	-13474
▁angle	-13475
▁moves	-13476
▁météo	-13477
▁Version	-13478
▁favoriser	-13479
▁confidentialité	-13480
adi	-13481
▁Gil	-13482
▁ISO	-13483
▁œuvres	-13484
▁amélior	-13485
▁prépare	-13486
▁Remember	-13487
▁believes	-13488
▁directed	-13489
▁naturels	-13490
▁seraient	-13491
▁Raj	-13492
athon	-13493
▁Dragon	-13494
▁Encore	-13495
▁bancaire	-13496
▁organiser	-13497
▁applicable	-13498
▁Gam	-13499
avion	-13500
▁Bron	-13501
▁réve	-13502
▁wins	-13503
▁Marsh	-13504
▁bruit	-13505
▁murder	-13506
▁repres	-13507
▁participe	-13508
▁spécialement	-13509
QL	-13510
bn	-13511
▁GO	-13512
Tech	-13513
▁1.5	-13514
▁asc	-13515
ifies	-13516
▁Nike	-13517
▁Block	-13518
▁reven	-13519
▁pricing	-13520
▁regards	-13521
▁sophist	-13522
▁continuing	-13523
”.	-13524
whel	-13525
eping	-13526
▁Magic	-13527
▁blind	-13528
▁roles	-13529
▁récol	-13530
▁thèmes	-13531
▁Section	-13532
▁printed	-13533
▁Contract	-13534
aken	-13535
▁Dét	-13536
▁Aussi	-13537
▁Celui	-13538
▁funny	-13539
▁shots	-13540
twitter	-13541
▁Atlanta	-13542
▁Pennsyl	-13543
▁compréh	-13544
▁fallait	-13545
▁toucher	-13546
▁expenses	-13547
GS	-13548
ALE	-13549
▁66	-13550
isol	-13551
▁VPN	-13552
▁pon	-13553
optim	-13554
regon	-13555
onnaie	-13556
▁broker	-13557
▁fairly	-13558
▁attitude	-13559
▁gambling	-13560
▁YOU	-13561
▁Moon	-13562
▁guard	-13563
▁pizza	-13564
▁erreur	-13565
▁élabor	-13566
▁morceaux	-13567
opposition	-13568
▁exceptional	-13569
▁médicaments	-13570
▁alimentaires	-13571
IGH	-13572
IGN	-13573
mus	-13574
rov	-13575
dans	-13576
▁Ott	-13577
eding	-13578
▁bass	-13579
assion	-13580
▁Achat	-13581
▁Linux	-13582
▁sache	-13583
adapter	-13584
▁confér	-13585
▁conduit	-13586
▁répondu	-13587
▁superior	-13588
▁Following	-13589
▁2)	-13590
burgh	-13591
riving	-13592
▁Irish	-13593
▁Paint	-13594
▁Chrome	-13595
▁flavor	-13596
▁révèle	-13597
▁déplacer	-13598
▁puissant	-13599
▁smartphones	-13600
84	-13601
angh	-13602
ueuse	-13603
▁Cash	-13604
illant	-13605
▁alent	-13606
▁doctors	-13607
▁objects	-13608
▁proceed	-13609
▁younger	-13610
▁Jonathan	-13611
▁rapports	-13612
▁Bluetooth	-13613
▁spiritual	-13614
8)	-13615
HD	-13616
post	-13617
▁Jér	-13618
achel	-13619
▁Barn	-13620
▁Lion	-13621
▁hate	-13622
▁raff	-13623
▁react	-13624
▁stimul	-13625
▁journées	-13626
▁maintien	-13627
▁priority	-13628
▁750	-13629
▁mad	-13630
const	-13631
itary	-13632
▁arms	-13633
▁Compl	-13634
▁pensez	-13635
▁founded	-13636
▁obtained	-13637
▁whenever	-13638
▁collected	-13639
▁diversité	-13640
▁décisions	-13641
▁Conditions	-13642
▁excellence	-13643
fil	-13644
▁RO	-13645
They	-13646
▁Dép	-13647
techn	-13648
inations	-13649
inéraire	-13650
▁collège	-13651
▁joining	-13652
▁laissez	-13653
▁ultimate	-13654
▁advantages	-13655
:20	-13656
:55	-13657
anga	-13658
▁hér	-13659
makers	-13660
▁Graph	-13661
▁tirer	-13662
▁branch	-13663
▁rouges	-13664
▁inscrit	-13665
▁Vendredi	-13666
▁humaines	-13667
▁Excellent	-13668
▁construit	-13669
:37	-13670
Can	-13671
spe	-13672
▁EC	-13673
____	-13674
thur	-13675
▁jaw	-13676
▁Tree	-13677
▁Dress	-13678
▁Tours	-13679
ologist	-13680
▁connue	-13681
▁pensée	-13682
▁discrim	-13683
▁difficiles	-13684
▁possibility	-13685
▁Burn	-13686
▁Leon	-13687
▁crazy	-13688
▁Général	-13689
▁counsel	-13690
▁aliments	-13691
▁cannabis	-13692
▁licensed	-13693
▁supplier	-13694
▁réellement	-13695
▁programming	-13696
▁contributions	-13697
III	-13698
iox	-13699
jpg	-13700
ented	-13701
▁Pick	-13702
▁prét	-13703
rières	-13704
▁birds	-13705
▁sauve	-13706
▁hidden	-13707
▁Analysis	-13708
▁rappeler	-13709
évaluation	-13710
▁connecter	-13711
▁accompagne	-13712
▁quotidienne	-13713
TT	-13714
:04	-13715
uée	-13716
ouri	-13717
▁Gene	-13718
▁tiny	-13719
▁Quart	-13720
▁envoyé	-13721
▁refuge	-13722
activités	-13723
▁exposure	-13724
▁médecins	-13725
▁Nationale	-13726
▁preferred	-13727
▁rembourse	-13728
▁promotions	-13729
▁availability	-13730
▁20%	-13731
▁Fat	-13732
▁yards	-13733
▁whilst	-13734
inscrire	-13735
▁confirmé	-13736
▁feelings	-13737
▁Available	-13738
▁controvers	-13739
▁represents	-13740
▁confirmation	-13741
rec	-13742
▁Rug	-13743
heast	-13744
▁yard	-13745
offrir	-13746
▁rated	-13747
▁Renault	-13748
▁traiter	-13749
▁upgrade	-13750
▁Creative	-13751
▁holidays	-13752
▁estimated	-13753
making	-13754
feuille	-13755
▁listening	-13756
▁newsletter	-13757
▁97	-13758
▁130	-13759
▁Hal	-13760
▁Var	-13761
uages	-13762
éviter	-13763
▁Impro	-13764
▁equal	-13765
▁pause	-13766
▁paysage	-13767
▁volumes	-13768
▁Développement	-13769
▁]	-13770
▁Jew	-13771
▁PSG	-13772
iable	-13773
▁1970	-13774
▁tome	-13775
▁trem	-13776
astien	-13777
expert	-13778
▁desired	-13779
▁believed	-13780
▁discuter	-13781
▁facebook	-13782
IEN	-13783
het	-13784
zes	-13785
▁ED	-13786
ship	-13787
▁Cell	-13788
▁Rain	-13789
▁jazz	-13790
apping	-13791
▁Among	-13792
▁Lewis	-13793
▁Speed	-13794
mir	-13795
▁67	-13796
▁Forums	-13797
▁devenue	-13798
▁proposant	-13799
▁définitive	-13800
▁maintaining	-13801
5)	-13802
WS	-13803
gne	-13804
▁(+	-13805
▁4-	-13806
▁Lem	-13807
▁hasn	-13808
▁soil	-13809
▁Rouge	-13810
▁finds	-13811
ressive	-13812
▁pounds	-13813
▁Espagne	-13814
▁dressing	-13815
date	-13816
fall	-13817
▁Anti	-13818
▁jamb	-13819
employ	-13820
▁crowd	-13821
▁Meille	-13822
▁centers	-13823
▁writers	-13824
▁échange	-13825
▁discussed	-13826
▁supporters	-13827
▁WE	-13828
ardo	-13829
îtes	-13830
▁Bus	-13831
child	-13832
▁Bref	-13833
▁Iraq	-13834
écution	-13835
▁globale	-13836
engagement	-13837
▁conseille	-13838
▁confinement	-13839
▁traditionnelle	-13840
▁Ye	-13841
▁Hur	-13842
▁coque	-13843
▁enfor	-13844
▁explo	-13845
content	-13846
échange	-13847
▁sommeil	-13848
▁trouvez	-13849
▁Register	-13850
▁étrangers	-13851
▁malheureusement	-13852
moi	-13853
pha	-13854
ébéc	-13855
▁Mrs	-13856
▁oct	-13857
▁pire	-13858
▁sons	-13859
▁Audio	-13860
▁escal	-13861
▁Basket	-13862
▁tracks	-13863
▁elegant	-13864
exception	-13865
▁Copyright	-13866
▁scolaires	-13867
zo	-13868
▁fus	-13869
mêmes	-13870
▁Civil	-13871
▁Movie	-13872
achelor	-13873
▁driven	-13874
▁associé	-13875
▁defined	-13876
▁Portugal	-13877
▁consists	-13878
▁explains	-13879
▁reducing	-13880
▁comprenant	-13881
▁flam	-13882
▁fibre	-13883
▁globe	-13884
▁issus	-13885
▁règle	-13886
▁récit	-13887
▁dessert	-13888
▁Nintendo	-13889
▁surprises	-13890
▁compliance	-13891
pan	-13892
Hotel	-13893
▁Ceci	-13894
▁Fred	-13895
▁Give	-13896
▁actor	-13897
▁fuite	-13898
▁Julien	-13899
▁Rennes	-13900
▁robust	-13901
PH	-13902
:59	-13903
ITY	-13904
Uni	-13905
omi	-13906
quie	-13907
jamin	-13908
▁Final	-13909
▁Ideas	-13910
arrière	-13911
▁Create	-13912
▁Making	-13913
▁sourire	-13914
▁interrog	-13915
▁obligations	-13916
BL	-13917
ORD	-13918
mée	-13919
▁EST	-13920
erved	-13921
▁Guard	-13922
▁artiste	-13923
▁intérêt	-13924
▁préoccup	-13925
Up	-13926
lu	-13927
:47	-13928
:56	-13929
▁SO	-13930
▁rup	-13931
andie	-13932
rones	-13933
watch	-13934
▁Rien	-13935
▁Roof	-13936
▁Wine	-13937
ertion	-13938
▁Metal	-13939
▁insight	-13940
▁arrested	-13941
▁marchand	-13942
▁legislation	-13943
53	-13944
ECH	-13945
▁**	-13946
▁Pi	-13947
éraux	-13948
▁Cord	-13949
▁Virt	-13950
▁horm	-13951
▁avent	-13952
▁téléc	-13953
▁Without	-13954
▁destiné	-13955
▁graphic	-13956
▁involves	-13957
▁producteurs	-13958
▁compensation	-13959
:02	-13960
:36	-13961
apé	-13962
▁Yet	-13963
▁wra	-13964
atoes	-13965
▁lave	-13966
▁lets	-13967
▁rede	-13968
▁alarm	-13969
▁hydro	-13970
▁Nation	-13971
▁column	-13972
▁divert	-13973
▁formal	-13974
▁accueil	-13975
▁publish	-13976
▁Beautiful	-13977
▁Philadelph	-13978
▁propositions	-13979
▁76	-13980
mais	-13981
▁SUR	-13982
▁cub	-13983
▁lip	-13984
▁côte	-13985
▁thro	-13986
▁vest	-13987
▁Bruno	-13988
▁Outre	-13989
▁rising	-13990
▁Seattle	-13991
▁adaptés	-13992
▁courtes	-13993
▁visited	-13994
▁courrier	-13995
▁existence	-13996
▁volunteers	-13997
abad	-13998
▁lud	-13999
umber	-14000
▁duty	-14001
▁catast	-14002
▁illness	-14003
▁ressent	-14004
▁drinking	-14005
▁opinions	-14006
Acc	-14007
oln	-14008
paper	-14009
invent	-14010
▁refus	-14011
appelle	-14012
▁Cancer	-14013
▁marine	-14014
▁chômage	-14015
▁réalise	-14016
▁tournée	-14017
▁Consider	-14018
▁aircraft	-14019
▁facteurs	-14020
▁recording	-14021
▁Maintenant	-14022
▁déterminer	-14023
:52	-14024
mbler	-14025
▁orig	-14026
▁Mother	-14027
ographic	-14028
▁Eastern	-14029
▁authentic	-14030
▁quatrième	-14031
▁similaires	-14032
▁communiquer	-14033
elli	-14034
▁Nar	-14035
▁phen	-14036
alcool	-14037
▁Conne	-14038
▁saved	-14039
▁Comité	-14040
▁gallery	-14041
▁mettant	-14042
▁Everyone	-14043
▁Profitez	-14044
▁consultant	-14045
▁connections	-14046
dic	-14047
▁ALL	-14048
▁MLS	-14049
crits	-14050
celone	-14051
▁patch	-14052
▁smoke	-14053
▁verte	-14054
▁flying	-14055
habitude	-14056
▁dessins	-14057
▁douleur	-14058
▁légales	-14059
▁broadcast	-14060
▁différent	-14061
▁laboratoire	-14062
BR	-14063
xe	-14064
-04	-14065
▁PD	-14066
endance	-14067
▁tâches	-14068
▁dépenses	-14069
auf	-14070
▁3:	-14071
▁BD	-14072
▁Obs	-14073
▁raw	-14074
▁bric	-14075
▁east	-14076
▁rice	-14077
linois	-14078
▁Youth	-14079
▁hopes	-14080
▁hosted	-14081
▁métall	-14082
▁reçoit	-14083
▁packages	-14084
▁interpret	-14085
▁industriel	-14086
:33	-14087
▁Eag	-14088
▁Had	-14089
hetic	-14090
▁boot	-14091
▁grass	-14092
oureuse	-14093
▁cultiv	-14094
▁Princip	-14095
▁functional	-14096
oa	-14097
-17	-14098
aver	-14099
équip	-14100
▁Soul	-14101
▁anne	-14102
▁mile	-14103
▁2010.	-14104
▁Trail	-14105
▁lycée	-14106
▁saint	-14107
▁vague	-14108
olesale	-14109
▁fatigue	-14110
▁nations	-14111
▁Dimanche	-14112
:48	-14113
utés	-14114
▁pig	-14115
▁Core	-14116
▁enne	-14117
▁pill	-14118
▁Wales	-14119
▁britannique	-14120
:57	-14121
asted	-14122
▁Cars	-14123
▁Prot	-14124
▁legs	-14125
stract	-14126
▁sèche	-14127
▁Ukraine	-14128
▁affirme	-14129
▁exploit	-14130
▁Luxembourg	-14131
▁increasingly	-14132
91	-14133
94	-14134
HL	-14135
30.	-14136
din	-14137
▁Ult	-14138
abled	-14139
▁acte	-14140
crivez	-14141
▁withd	-14142
▁Annual	-14143
▁dishes	-14144
▁vulner	-14145
▁succeed	-14146
▁algorith	-14147
▁approval	-14148
▁printing	-14149
▁referred	-14150
▁statements	-14151
:42	-14152
▁63	-14153
stan	-14154
uties	-14155
▁Dess	-14156
▁Rail	-14157
iseaux	-14158
▁Extra	-14159
▁Petite	-14160
▁floors	-14161
▁Content	-14162
▁accepte	-14163
▁council	-14164
▁streets	-14165
:09	-14166
:32	-14167
▁HE	-14168
▁Due	-14169
▁Lut	-14170
▁mol	-14171
▁Hills	-14172
▁actes	-14173
▁remis	-14174
ections	-14175
▁envers	-14176
▁vieill	-14177
▁Planning	-14178
▁achieved	-14179
▁personnalisé	-14180
PI	-14181
exc	-14182
▁Ger	-14183
▁nez	-14184
▁Anna	-14185
giving	-14186
▁Feder	-14187
▁Indep	-14188
▁flour	-14189
▁Studies	-14190
▁apprécié	-14191
▁struggle	-14192
▁commander	-14193
▁communicate	-14194
▁requirement	-14195
57	-14196
:31	-14197
Val	-14198
▁ES	-14199
izen	-14200
▁194	-14201
▁Lég	-14202
lessly	-14203
rairie	-14204
▁défis	-14205
▁calendar	-14206
▁independ	-14207
▁programmation	-14208
▁$2	-14209
athy	-14210
host	-14211
▁Syst	-14212
▁Bloom	-14213
▁Focus	-14214
▁Kelly	-14215
▁spray	-14216
▁Future	-14217
▁Switch	-14218
▁engaged	-14219
▁finances	-14220
▁Technical	-14221
▁primarily	-14222
:53	-14223
mor	-14224
▁Ra	-14225
hour	-14226
▁Rot	-14227
▁tie	-14228
oenix	-14229
▁Fresh	-14230
▁nuclear	-14231
▁accidents	-14232
▁alentours	-14233
iré	-14234
Voir	-14235
raits	-14236
▁Doll	-14237
▁orth	-14238
affich	-14239
aurais	-14240
origin	-14241
▁Benef	-14242
▁chips	-14243
▁cyber	-14244
▁moral	-14245
▁placé	-14246
ropolit	-14247
▁Impact	-14248
▁couper	-14249
Allemagne	-14250
▁commonly	-14251
▁somewhere	-14252
▁comparison	-14253
▁conséquent	-14254
▁naturelles	-14255
▁effectivement	-14256
:51	-14257
▁Où	-14258
agan	-14259
tures	-14260
utors	-14261
▁bench	-14262
▁sight	-14263
▁slots	-14264
▁achats	-14265
▁endroits	-14266
▁Innovation	-14267
▁differences	-14268
:08	-14269
:46	-14270
ozy	-14271
▁pip	-14272
etary	-14273
▁aims	-14274
▁Nancy	-14275
▁dents	-14276
▁Autres	-14277
▁decent	-14278
▁forums	-14279
▁scores	-14280
▁Théâtre	-14281
▁heading	-14282
▁seniors	-14283
efficacité	-14284
▁celebration	-14285
▁journalistes	-14286
▁perspectives	-14287
UD	-14288
ey	-14289
cia	-14290
essed	-14291
▁buts	-14292
▁tape	-14293
▁Jusqu	-14294
▁judge	-14295
▁claimed	-14296
▁remplir	-14297
▁conduire	-14298
▁component	-14299
▁traveling	-14300
ubl	-14301
iène	-14302
▁hés	-14303
ounce	-14304
▁Five	-14305
▁dépôt	-14306
▁forth	-14307
▁breast	-14308
▁pocket	-14309
▁pouces	-14310
▁Illinois	-14311
▁Toujours	-14312
▁carrying	-14313
▁collecte	-14314
▁réalisés	-14315
▁placement	-14316
▁substance	-14317
▁américains	-14318
▁militaires	-14319
9)	-14320
▁HR	-14321
▁PRO	-14322
▁Ple	-14323
▁Rio	-14324
▁Vér	-14325
atile	-14326
▁Swed	-14327
▁Talk	-14328
▁corn	-14329
▁seed	-14330
▁stup	-14331
Ivoire	-14332
▁ratio	-14333
▁trajet	-14334
▁écoute	-14335
ancouver	-14336
▁shouldn	-14337
:07	-14338
itié	-14339
wart	-14340
▁root	-14341
▁carré	-14342
▁glace	-14343
▁sharp	-14344
▁arrêté	-14345
▁formed	-14346
▁nights	-14347
▁Theatre	-14348
▁herself	-14349
▁Columbia	-14350
▁spacious	-14351
▁incroyable	-14352
▁maintained	-14353
▁équipement	-14354
rav	-14355
idal	-14356
icious	-14357
▁Appro	-14358
▁auxqu	-14359
▁gagne	-14360
▁refin	-14361
idation	-14362
▁caméra	-14363
▁pommes	-14364
▁Channel	-14365
▁depends	-14366
▁healing	-14367
▁immense	-14368
▁Catholic	-14369
▁speakers	-14370
:38	-14371
alm	-14372
tons	-14373
▁gay	-14374
▁Mind	-14375
▁Ross	-14376
igneur	-14377
parole	-14378
érable	-14379
▁recre	-14380
▁Coffee	-14381
▁behalf	-14382
▁borrow	-14383
▁breath	-14384
▁drinks	-14385
▁simult	-14386
▁repairs	-14387
▁minister	-14388
▁overwhel	-14389
▁Elizabeth	-14390
appartement	-14391
▁Entreprise	-14392
▁propriétés	-14393
▁sanitaires	-14394
▁attractions	-14395
▁candidature	-14396
Sp	-14397
OUN	-14398
lige	-14399
ouis	-14400
rire	-14401
▁Viv	-14402
▁god	-14403
cycle	-14404
▁mask	-14405
▁subl	-14406
▁immun	-14407
▁Europé	-14408
▁procès	-14409
▁écrire	-14410
▁Mercedes	-14411
▁Liverpool	-14412
▁coordination	-14413
Gr	-14414
sk	-14415
:54	-14416
▁emer	-14417
encing	-14418
ermont	-14419
▁biais	-14420
▁casual	-14421
▁définir	-14422
▁positif	-14423
▁tracking	-14424
▁brilliant	-14425
05	-14426
:58	-14427
COM	-14428
assé	-14429
days	-14430
oria	-14431
▁Ten	-14432
▁Clar	-14433
▁Holy	-14434
engers	-14435
▁Apart	-14436
▁accus	-14437
▁Battle	-14438
▁panier	-14439
▁sexual	-14440
▁titles	-14441
▁optimal	-14442
▁Jennifer	-14443
▁controls	-14444
▁retourner	-14445
▁stainless	-14446
▁exceptionnelle	-14447
:43	-14448
iage	-14449
olec	-14450
pent	-14451
▁Fan	-14452
▁Mit	-14453
▁Song	-14454
▁recr	-14455
▁élim	-14456
▁2022,	-14457
▁meets	-14458
▁pilotes	-14459
▁graphics	-14460
▁littérature	-14461
afe	-14462
eld	-14463
▁Kam	-14464
ocurr	-14465
agerie	-14466
images	-14467
▁blend	-14468
▁Livres	-14469
▁plages	-14470
▁checked	-14471
▁posting	-14472
▁tournoi	-14473
▁Meanwhile	-14474
▁electricity	-14475
▁remplacement	-14476
▁modifications	-14477
▁BO	-14478
▁Om	-14479
▁2007,	-14480
▁indeed	-14481
▁suisse	-14482
▁Britain	-14483
▁causing	-14484
▁agricole	-14485
▁satisfait	-14486
▁Pennsylvania	-14487
:49	-14488
abe	-14489
rig	-14490
▁ye	-14491
uset	-14492
▁2001	-14493
▁Bird	-14494
▁cogn	-14495
▁spin	-14496
▁gains	-14497
▁allait	-14498
▁annuel	-14499
▁absence	-14500
▁destroy	-14501
▁Veuillez	-14502
immobilier	-14503
▁suffering	-14504
▁statistiques	-14505
.3	-14506
run	-14507
▁Ky	-14508
▁Dry	-14509
▁dor	-14510
▁Cape	-14511
▁Import	-14512
▁Cabinet	-14513
▁adolesc	-14514
▁delivering	-14515
▁bibliothèque	-14516
NS	-14517
GER	-14518
oop	-14519
▁brush	-14520
▁hiver	-14521
▁allerg	-14522
ambiance	-14523
astiques	-14524
▁Schools	-14525
▁Melbourne	-14526
▁automatic	-14527
▁quartiers	-14528
▁colleagues	-14529
▁Technologies	-14530
▁consideration	-14531
ONE	-14532
rose	-14533
▁ACT	-14534
▁Joh	-14535
▁tone	-14536
rénées	-14537
▁emails	-14538
▁strike	-14539
▁mettent	-14540
▁priorité	-14541
▁Bienvenue	-14542
▁preparing	-14543
acquisition	-14544
▁Republican	-14545
:11	-14546
pay	-14547
▁/>	-14548
▁PVC	-14549
▁Sym	-14550
issan	-14551
▁Euro	-14552
église	-14553
▁déliv	-14554
▁union	-14555
▁yield	-14556
▁affirmé	-14557
▁Memorial	-14558
▁argument	-14559
▁reprises	-14560
dd	-14561
style	-14562
▁Item	-14563
▁rass	-14564
▁trag	-14565
incoln	-14566
rocher	-14567
▁cesse	-14568
▁cinqu	-14569
▁Nombre	-14570
▁Wilson	-14571
▁commod	-14572
▁soumis	-14573
ruitment	-14574
▁Thierry	-14575
▁astuces	-14576
▁pension	-14577
▁préféré	-14578
▁rejoint	-14579
▁continent	-14580
Une	-14581
hal	-14582
▁Abd	-14583
▁lol	-14584
ocier	-14585
▁bills	-14586
▁freel	-14587
▁editor	-14588
▁marked	-14589
▁pulled	-14590
▁Francis	-14591
▁downtown	-14592
▁compléter	-14593
▁européennes	-14594
▁inscription	-14595
▁considérable	-14596
ACE	-14597
uan	-14598
▁ER	-14599
erte	-14600
▁dual	-14601
▁zero	-14602
▁rares	-14603
▁stuck	-14604
leterre	-14605
▁Turkey	-14606
▁dreams	-14607
▁exprim	-14608
▁Trouvez	-14609
▁divorce	-14610
▁Création	-14611
▁paysages	-14612
▁sportifs	-14613
avi	-14614
mag	-14615
When	-14616
auto	-14617
érez	-14618
▁Hug	-14619
arque	-14620
▁Boul	-14621
▁Mine	-14622
▁meme	-14623
ropole	-14624
▁exige	-14625
▁grain	-14626
▁hasard	-14627
▁drawing	-14628
▁Companies	-14629
▁Everything	-14630
▁exceptionnel	-14631
▁internationaux	-14632
▁investissement	-14633
wp	-14634
-05	-14635
:06	-14636
flow	-14637
▁Alb	-14638
▁issu	-14639
Agence	-14640
émique	-14641
▁riches	-14642
▁anxiety	-14643
▁dessous	-14644
▁modules	-14645
▁wondering	-14646
▁personality	-14647
ido	-14648
▁1-	-14649
▁EV	-14650
iders	-14651
▁Moul	-14652
▁Shel	-14653
▁Turn	-14654
▁alter	-14655
▁cible	-14656
▁crush	-14657
▁subse	-14658
ventures	-14659
eb	-14660
Vous	-14661
ogen	-14662
isser	-14663
issait	-14664
▁Oregon	-14665
▁Supreme	-14666
▁Barcelone	-14667
▁animations	-14668
▁Présentation	-14669
FS	-14670
cking	-14671
▁COMP	-14672
▁Mots	-14673
▁rêves	-14674
▁écriv	-14675
automne	-14676
riculum	-14677
▁Justin	-14678
▁hiring	-14679
▁regions	-14680
▁stronger	-14681
▁principles	-14682
10.	-14683
anka	-14684
▁lake	-14685
▁Meeting	-14686
▁Tickets	-14687
▁forever	-14688
▁recharge	-14689
categorized	-14690
amélioration	-14691
aret	-14692
clés	-14693
miss	-14694
▁Imag	-14695
éclair	-14696
▁félic	-14697
▁parall	-14698
▁dizaine	-14699
▁outcomes	-14700
▁realized	-14701
▁vaccination	-14702
hh	-14703
:41	-14704
IES	-14705
ués	-14706
uche	-14707
▁Emploi	-14708
▁Junior	-14709
▁plates	-14710
▁revers	-14711
▁stabil	-14712
▁fondament	-14713
▁Département	-14714
▁98	-14715
fire	-14716
▁Mos	-14717
icule	-14718
▁cuts	-14719
▁visa	-14720
▁Rhône	-14721
▁nommé	-14722
▁Server	-14723
▁citron	-14724
▁careful	-14725
▁Category	-14726
▁diseases	-14727
▁recueill	-14728
▁Contactez	-14729
▁bénévoles	-14730
But	-14731
lik	-14732
olk	-14733
▁MB	-14734
▁[#	-14735
apos	-14736
▁Tes	-14737
▁André	-14738
▁recon	-14739
▁Johnny	-14740
▁prévoit	-14741
▁quantity	-14742
▁expressed	-14743
▁suffisamment	-14744
▁internationales	-14745
dr	-14746
ueur	-14747
journ	-14748
▁Rick	-14749
▁dict	-14750
▁Alpes	-14751
▁célib	-14752
▁patio	-14753
▁Inform	-14754
▁blocks	-14755
▁debate	-14756
▁menace	-14757
▁impacts	-14758
▁everywhere	-14759
▁accessibles	-14760
30,	-14761
▁2.5	-14762
▁unex	-14763
▁Stage	-14764
▁Voice	-14765
▁arbit	-14766
▁boxes	-14767
▁rejet	-14768
▁Batter	-14769
▁covering	-14770
▁prochains	-14771
gi	-14772
:44	-14773
Bay	-14774
oué	-14775
Paul	-14776
▁Pie	-14777
▁era	-14778
▁fits	-14779
▁gras	-14780
isters	-14781
▁Activ	-14782
▁Jeudi	-14783
▁accél	-14784
▁giant	-14785
aujourd	-14786
▁Results	-14787
▁vibrant	-14788
▁chansons	-14789
▁checking	-14790
▁dizaines	-14791
▁souligné	-14792
▁tablette	-14793
:40	-14794
frig	-14795
▁ara	-14796
▁dys	-14797
▁Based	-14798
▁Charg	-14799
▁empty	-14800
▁bullet	-14801
▁champs	-14802
▁pertin	-14803
aisselle	-14804
▁affiche	-14805
▁enthusi	-14806
▁trigger	-14807
▁Administ	-14808
▁Benjamin	-14809
▁panneaux	-14810
▁résoudre	-14811
▁sufficient	-14812
▁functionality	-14813
ONT	-14814
▁62	-14815
appli	-14816
▁Days	-14817
▁Julie	-14818
▁tooth	-14819
▁curios	-14820
▁insect	-14821
▁connais	-14822
▁confirme	-14823
▁variable	-14824
▁Interview	-14825
▁inspection	-14826
▁ultimately	-14827
▁personnalité	-14828
fi	-14829
▁Mb	-14830
▁VA	-14831
▁ft	-14832
▁row	-14833
arium	-14834
▁croy	-14835
▁Clear	-14836
▁fortes	-14837
▁gained	-14838
▁Getting	-14839
▁colours	-14840
▁illegal	-14841
▁logique	-14842
aboration	-14843
▁Advanced	-14844
▁Histoire	-14845
▁évolution	-14846
▁exhibition	-14847
▁possession	-14848
▁Responsable	-14849
▁naturellement	-14850
52	-14851
ITH	-14852
aus	-14853
▁AI	-14854
▁Own	-14855
▁Sel	-14856
/2011	-14857
redit	-14858
▁Audi	-14859
▁flag	-14860
▁Allen	-14861
▁Girls	-14862
▁Laura	-14863
▁incom	-14864
closure	-14865
▁avance	-14866
▁panels	-14867
▁remark	-14868
▁réelle	-14869
jections	-14870
▁diplôme	-14871
▁portail	-14872
▁screens	-14873
▁entendre	-14874
▁phénomène	-14875
intégration	-14876
ensus	-14877
▁pace	-14878
▁nette	-14879
▁ordre	-14880
▁spoke	-14881
ancienne	-14882
▁émotion	-14883
▁Discover	-14884
▁conflict	-14885
▁#2	-14886
▁74	-14887
▁88	-14888
ercle	-14889
icone	-14890
▁bare	-14891
▁saur	-14892
▁Intel	-14893
▁Never	-14894
▁motif	-14895
▁quête	-14896
▁Advert	-14897
▁Kansas	-14898
▁Method	-14899
▁Sophie	-14900
▁Voyage	-14901
▁bodies	-14902
▁privés	-14903
▁agences	-14904
▁devront	-14905
▁Beaucoup	-14906
▁promouvoir	-14907
▁transformer	-14908
FM	-14909
-13	-14910
:39	-14911
hyp	-14912
uri	-14913
▁FM	-14914
iges	-14915
▁ben	-14916
elson	-14917
Espagne	-14918
▁anyway	-14919
▁frères	-14920
▁fromage	-14921
▁médicale	-14922
▁involving	-14923
▁néanmoins	-14924
▁returning	-14925
▁culturelle	-14926
▁intelligent	-14927
doors	-14928
▁Chev	-14929
▁Deep	-14930
▁sacs	-14931
▁sink	-14932
▁salad	-14933
▁arbres	-14934
▁slowly	-14935
ondition	-14936
▁langage	-14937
▁saisons	-14938
président	-14939
▁Dernière	-14940
▁regroupe	-14941
▁parlement	-14942
▁randonnée	-14943
▁guaranteed	-14944
▁interviews	-14945
▁coordonnées	-14946
▁bow	-14947
▁mos	-14948
email	-14949
Christ	-14950
▁seasons	-14951
▁amenities	-14952
▁favorable	-14953
.2	-14954
/24	-14955
tent	-14956
zzle	-14957
▁Pow	-14958
▁hip	-14959
esota	-14960
▁Carn	-14961
▁bref	-14962
isible	-14963
▁Album	-14964
▁mixture	-14965
▁profits	-14966
▁fenêtres	-14967
▁bénéficie	-14968
▁resulting	-14969
▁fabricants	-14970
:12	-14971
:34	-14972
ENS	-14973
▁NJ	-14974
▁TN	-14975
îner	-14976
Photo	-14977
▁Drug	-14978
▁Grant	-14979
▁Roger	-14980
▁Therm	-14981
▁pensé	-14982
▁setup	-14983
▁Garage	-14984
▁classé	-14985
iquettes	-14986
▁engines	-14987
▁rencontré	-14988
▁sensitive	-14989
UP	-14990
eli	-14991
low	-14992
▁foi	-14993
▁crypto	-14994
▁motifs	-14995
▁disponibilité	-14996
endie	-14997
▁Lanc	-14998
▁Sark	-14999
▁Unit	-15000
▁puts	-15001
▁Parti	-15002
▁Sever	-15003
▁cater	-15004
▁prête	-15005
▁Compar	-15006
▁donnée	-15007
▁Quelles	-15008
▁poisson	-15009
▁breaking	-15010
▁semblent	-15011
▁mécanique	-15012
▁principes	-15013
▁régionale	-15014
▁retirement	-15015
▁potentially	-15016
▁recognition	-15017
:50	-15018
nom	-15019
Part	-15020
aria	-15021
issa	-15022
alisée	-15023
▁posit	-15024
▁spark	-15025
▁Miller	-15026
▁Scient	-15027
▁auquel	-15028
▁talked	-15029
▁Tunisie	-15030
▁Vancouver	-15031
▁paramètres	-15032
▁supplement	-15033
ICH	-15034
ght	-15035
mad	-15036
impl	-15037
▁Hav	-15038
▁thin	-15039
onnant	-15040
▁armes	-15041
▁basée	-15042
atelier	-15043
▁indoor	-15044
▁Signaler	-15045
▁bataille	-15046
▁utilisez	-15047
équipement	-15048
▁screening	-15049
▁obligation	-15050
▁précisément	-15051
-07	-15052
cou	-15053
uez	-15054
▁Isab	-15055
▁Khan	-15056
▁Emerg	-15057
▁Spect	-15058
▁encad	-15059
▁volet	-15060
attaque	-15061
▁gender	-15062
▁persons	-15063
▁secours	-15064
▁applying	-15065
▁authority	-15066
▁violences	-15067
▁relaxation	-15068
architecture	-15069
▁Restaurants	-15070
KS	-15071
bag	-15072
gov	-15073
▁LP	-15074
▁Pure	-15075
ateful	-15076
▁mille	-15077
▁Afghan	-15078
▁Morgan	-15079
▁casque	-15080
▁christ	-15081
▁majeur	-15082
▁sensor	-15083
▁default	-15084
▁supprimer	-15085
▁compliment	-15086
▁Philadelphia	-15087
▁manifestations	-15088
lys	-15089
uum	-15090
▁Jane	-15091
▁amie	-15092
▁Coach	-15093
▁Round	-15094
▁blank	-15095
▁fifth	-15096
▁stric	-15097
▁google	-15098
▁énorme	-15099
▁Alliance	-15100
▁baseball	-15101
▁politics	-15102
▁contrôler	-15103
▁workplace	-15104
▁directions	-15105
▁CAP	-15106
▁SUV	-15107
state	-15108
▁Mans	-15109
▁fert	-15110
▁oven	-15111
▁soud	-15112
oeuvre	-15113
usetts	-15114
▁Greek	-15115
▁chats	-15116
▁carpet	-15117
▁garçon	-15118
▁attendu	-15119
▁précisé	-15120
achusetts	-15121
[...]
