<unk>	0
<s>	0
</s>	0
<pad>	0
<0x00>	0
<0x01>	0
<0x02>	0
<0x03>	0
<0x04>	0
<0x05>	0
<0x06>	0
<0x07>	0
<0x08>	0
<0x09>	0
<0x0A>	0
<0x0B>	0
<0x0C>	0
<0x0D>	0
<0x0E>	0
<0x0F>	0
<0x10>	0
<0x11>	0
<0x12>	0
<0x13>	0
<0x14>	0
<0x15>	0
<0x16>	0
<0x17>	0
<0x18>	0
<0x19>	0
<0x1A>	0
<0x1B>	0
<0x1C>	0
<0x1D>	0
<0x1E>	0
<0x1F>	0
<0x20>	0
<0x21>	0
<0x22>	0
<0x23>	0
<0x24>	0
<0x25>	0
<0x26>	0
<0x27>	0
<0x28>	0
<0x29>	0
<0x2A>	0
<0x2B>	0
<0x2C>	0
<0x2D>	0
<0x2E>	0
<0x2F>	0
<0x30>	0
<0x31>	0
<0x32>	0
<0x33>	0
<0x34>	0
<0x35>	0
<0x36>	0
<0x37>	0
<0x38>	0
<0x39>	0
<0x3A>	0
<0x3B>	0
<0x3C>	0
<0x3D>	0
<0x3E>	0
<0x3F>	0
<0x40>	0
<0x41>	0
<0x42>	0
<0x43>	0
<0x44>	0
<0x45>	0
<0x46>	0
<0x47>	0
<0x48>	0
<0x49>	0
<0x4A>	0
<0x4B>	0
<0x4C>	0
<0x4D>	0
<0x4E>	0
<0x4F>	0
<0x50>	0
<0x51>	0
<0x52>	0
<0x53>	0
<0x54>	0
<0x55>	0
<0x56>	0
<0x57>	0
<0x58>	0
<0x59>	0
<0x5A>	0
<0x5B>	0
<0x5C>	0
<0x5D>	0
<0x5E>	0
<0x5F>	0
<0x60>	0
<0x61>	0
<0x62>	0
<0x63>	0
<0x64>	0
<0x65>	0
<0x66>	0
<0x67>	0
<0x68>	0
<0x69>	0
<0x6A>	0
<0x6B>	0
<0x6C>	0
<0x6D>	0
<0x6E>	0
<0x6F>	0
<0x70>	0
<0x71>	0
<0x72>	0
<0x73>	0
<0x74>	0
<0x75>	0
<0x76>	0
<0x77>	0
<0x78>	0
<0x79>	0
<0x7A>	0
<0x7B>	0
<0x7C>	0
<0x7D>	0
<0x7E>	0
<0x7F>	0
<0x80>	0
<0x81>	0
<0x82>	0
<0x83>	0
<0x84>	0
<0x85>	0
<0x86>	0
<0x87>	0
<0x88>	0
<0x89>	0
<0x8A>	0
<0x8B>	0
<0x8C>	0
<0x8D>	0
<0x8E>	0
<0x8F>	0
<0x90>	0
<0x91>	0
<0x92>	0
<0x93>	0
<0x94>	0
<0x95>	0
<0x96>	0
<0x97>	0
<0x98>	0
<0x99>	0
<0x9A>	0
<0x9B>	0
<0x9C>	0
<0x9D>	0
<0x9E>	0
<0x9F>	0
<0xA0>	0
<0xA1>	0
<0xA2>	0
<0xA3>	0
<0xA4>	0
<0xA5>	0
<0xA6>	0
<0xA7>	0
<0xA8>	0
<0xA9>	0
<0xAA>	0
<0xAB>	0
<0xAC>	0
<0xAD>	0
<0xAE>	0
<0xAF>	0
<0xB0>	0
<0xB1>	0
<0xB2>	0
<0xB3>	0
<0xB4>	0
<0xB5>	0
<0xB6>	0
<0xB7>	0
<0xB8>	0
<0xB9>	0
<0xBA>	0
<0xBB>	0
<0xBC>	0
<0xBD>	0
<0xBE>	0
<0xBF>	0
<0xC0>	0
<0xC1>	0
<0xC2>	0
<0xC3>	0
<0xC4>	0
<0xC5>	0
<0xC6>	0
<0xC7>	0
<0xC8>	0
<0xC9>	0
<0xCA>	0
<0xCB>	0
<0xCC>	0
<0xCD>	0
<0xCE>	0
<0xCF>	0
<0xD0>	0
<0xD1>	0
<0xD2>	0
<0xD3>	0
<0xD4>	0
<0xD5>	0
<0xD6>	0
<0xD7>	0
<0xD8>	0
<0xD9>	0
<0xDA>	0
<0xDB>	0
<0xDC>	0
<0xDD>	0
<0xDE>	0
<0xDF>	0
<0xE0>	0
<0xE1>	0
<0xE2>	0
<0xE3>	0
<0xE4>	0
<0xE5>	0
<0xE6>	0
<0xE7>	0
<0xE8>	0
<0xE9>	0
<0xEA>	0
<0xEB>	0
<0xEC>	0
<0xED>	0
<0xEE>	0
<0xEF>	0
<0xF0>	0
<0xF1>	0
<0xF2>	0
<0xF3>	0
<0xF4>	0
<0xF5>	0
<0xF6>	0
<0xF7>	0
<0xF8>	0
<0xF9>	0
<0xFA>	0
<0xFB>	0
<0xFC>	0
<0xFD>	0
<0xFE>	0
<0xFF>	0
an	-0
es	-1
in	-2
er	-3
on	-4
▁d	-5
▁t	-6
en	-7
he	-8
▁a	-9
is	-10
▁l	-11
or	-12
▁s	-13
ar	-14
▁p	-15
ti	-16
▁c	-17
re	-18
al	-19
▁the	-20
it	-21
ou	-22
▁de	-23
▁f	-24
▁o	-25
ed	-26
at	-27
▁S	-28
le	-29
om	-30
▁in	-31
▁C	-32
and	-33
as	-34
▁of	-35
ic	-36
▁w	-37
ent	-38
▁m	-39
▁b	-40
il	-41
▁1	-42
▁A	-43
tion	-44
et	-45
un	-46
ur	-47
▁T	-48
▁L	-49
▁(	-50
▁M	-51
ing	-52
el	-53
▁P	-54
▁and	-55
qu	-56
ol	-57
▁B	-58
us	-59
ra	-60
ro	-61
▁R	-62
am	-63
▁n	-64
te	-65
▁la	-66
▁h	-67
▁I	-68
▁19	-69
est	-70
▁D	-71
ri	-72
▁H	-73
ch	-74
ation	-75
▁to	-76
ers	-77
▁2	-78
ce	-79
▁F	-80
▁N	-81
▁G	-82
th	-83
▁E	-84
ir	-85
▁et	-86
▁le	-87
▁en	-88
em	-89
▁g	-90
ter	-91
▁un	-92
os	-93
▁re	-94
ig	-95
▁r	-96
ad	-97
ist	-98
ie	-99
ec	-100
la	-101
▁v	-102
id	-103
ant	-104
▁20	-105
our	-106
ot	-107
▁des	-108
▁com	-109
▁The	-110
um	-111
▁e	-112
ul	-113
ag	-114
▁J	-115
▁W	-116
▁à	-117
▁was	-118
iv	-119
▁du	-120
que	-121
ion	-122
▁is	-123
op	-124
ans	-125
▁for	-126
▁par	-127
ut	-128
im	-129
▁on	-130
▁con	-131
▁est	-132
oc	-133
ne	-134
▁th	-135
ac	-136
▁al	-137
▁O	-138
ly	-139
ain	-140
▁fr	-141
ces	-142
ow	-143
▁as	-144
ay	-145
▁V	-146
ire	-147
▁:	-148
og	-149
ab	-150
▁st	-151
▁K	-152
st	-153
res	-154
▁an	-155
od	-156
▁U	-157
ith	-158
▁pro	-159
me	-160
se	-161
▁In	-162
au	-163
ment	-164
▁les	-165
ve	-166
▁by	-167
▁é	-168
),	-169
ct	-170
ge	-171
oun	-172
ia	-173
ver	-174
ée	-175
all	-176
ap	-177
▁Ch	-178
▁200	-179
ort	-180
▁at	-181
ip	-182
ien	-183
ard	-184
▁wh	-185
ud	-186
ub	-187
ine	-188
if	-189
▁qu	-190
és	-191
▁with	-192
ér	-193
ate	-194
ais	-195
▁from	-196
▁ch	-197
▁Le	-198
▁au	-199
ont	-200
ph	-201
ord	-202
▁"	-203
tic	-204
les	-205
ber	-206
▁se	-207
uc	-208
▁St	-209
ian	-210
19	-211
▁Re	-212
▁ex	-213
▁dans	-214
ill	-215
ure	-216
ish	-217
ity	-218
mer	-219
▁une	-220
▁be	-221
tern	-222
ond	-223
pp	-224
ences	-225
ue	-226
▁j	-227
end	-228
▁ré	-229
▁dé	-230
fer	-231
ong	-232
ement	-233
▁he	-234
ere	-235
ks	-236
ts	-237
ich	-238
▁comm	-239
ass	-240
ak	-241
▁comp	-242
00	-243
▁199	-244
▁it	-245
ric	-246
ique	-247
▁Un	-248
ale	-249
▁or	-250
▁18	-251
ies	-252
ite	-253
ran	-254
av	-255
).	-256
ille	-257
ous	-258
▁pr	-259
ov	-260
▁pla	-261
ew	-262
ier	-263
ear	-264
ated	-265
▁pl	-266
une	-267
up	-268
igh	-269
▁;	-270
rit	-271
▁sur	-272
art	-273
▁pe	-274
so	-275
ff	-276
ell	-277
age	-278
ign	-279
ary	-280
ang	-281
ast	-282
▁201	-283
▁En	-284
iss	-285
rou	-286
▁av	-287
▁La	-288
▁ar	-289
gh	-290
▁-	-291
▁ou	-292
ame	-293
▁An	-294
ust	-295
▁He	-296
ial	-297
▁pour	-298
▁are	-299
▁Al	-300
ens	-301
▁Ar	-302
ib	-303
land	-304
elle	-305
▁Th	-306
té	-307
▁his	-308
ld	-309
▁that	-310
▁Y	-311
ux	-312
▁also	-313
▁qui	-314
▁–	-315
ore	-316
ath	-317
ère	-318
▁3	-319
▁sp	-320
erv	-321
ther	-322
raph	-323
▁(19	-324
ations	-325
▁It	-326
ition	-327
ess	-328
ound	-329
ferences	-330
ors	-331
ction	-332
▁198	-333
ité	-334
erm	-335
cl	-336
ait	-337
▁References	-338
▁Com	-339
ins	-340
pr	-341
ry	-342
▁su	-343
ès	-344
ide	-345
▁Mar	-346
ke	-347
ach	-348
ons	-349
ational	-350
iti	-351
▁Se	-352
én	-353
de	-354
ance	-355
ilm	-356
ograph	-357
▁tra	-358
onn	-359
▁play	-360
orn	-361
ost	-362
ubl	-363
ati	-364
ois	-365
▁Il	-366
▁ra	-367
orm	-368
▁ac	-369
▁Par	-370
amp	-371
▁Ex	-372
meric	-373
oy	-374
▁y	-375
urs	-376
uss	-377
ob	-378
ques	-379
▁app	-380
▁cl	-381
olog	-382
▁197	-383
▁te	-384
▁nom	-385
emb	-386
pe	-387
▁De	-388
▁cont	-389
ence	-390
out	-391
ount	-392
mp	-393
éc	-394
ivers	-395
ées	-396
io	-397
fér	-398
▁fran	-399
▁Americ	-400
ice	-401
▁which	-402
ool	-403
▁(1	-404
aire	-405
til	-406
ome	-407
▁son	-408
own	-409
port	-410
iste	-411
▁ro	-412
hed	-413
ru	-414
ory	-415
▁k	-416
ork	-417
oir	-418
çais	-419
▁,	-420
ball	-421
ré	-422
duc	-423
ople	-424
▁ad	-425
▁sh	-426
▁4	-427
▁français	-428
par	-429
▁lin	-430
ise	-431
▁.	-432
▁il	-433
int	-434
tit	-435
▁has	-436
ok	-437
▁plus	-438
ern	-439
▁New	-440
▁Fran	-441
▁American	-442
ann	-443
éri	-444
ical	-445
ates	-446
ect	-447
▁196	-448
irst	-449
bum	-450
chool	-451
ents	-452
▁sc	-453
ys	-454
ix	-455
▁pre	-456
▁tr	-457
vel	-458
to	-459
▁rec	-460
▁avec	-461
▁cons	-462
ision	-463
are	-464
iz	-465
éd	-466
ternal	-467
ck	-468
▁É	-469
▁Not	-470
ult	-471
ited	-472
oll	-473
20	-474
▁que	-475
per	-476
ile	-477
ton	-478
▁were	-479
▁Les	-480
▁mar	-481
▁5	-482
ug	-483
▁links	-484
▁sont	-485
der	-486
ree	-487
▁External	-488
▁Pro	-489
anc	-490
ail	-491
ress	-492
▁commun	-493
ive	-494
ss	-495
▁us	-496
way	-497
aint	-498
ater	-499
wo	-500
oot	-501
able	-502
▁ab	-503
ron	-504
inal	-505
▁not	-506
tre	-507
wn	-508
li	-509
ral	-510
any	-511
▁first	-512
emp	-513
▁res	-514
du	-515
rand	-516
▁Sh	-517
▁loc	-518
ions	-519
▁film	-520
oci	-521
oh	-522
ient	-523
ase	-524
uil	-525
▁ent	-526
férences	-527
uis	-528
fter	-529
ém	-530
▁its	-531
fic	-532
ét	-533
aux	-534
ex	-535
ury	-536
iens	-537
iè	-538
one	-539
form	-540
▁|	-541
▁Z	-542
▁»	-543
▁serv	-544
▁Hist	-545
old	-546
▁album	-547
oire	-548
▁co	-549
▁pol	-550
ave	-551
iel	-552
bre	-553
ah	-554
ram	-555
▁Notes	-556
▁mus	-557
▁im	-558
▁Col	-559
▁«	-560
az	-561
we	-562
gan	-563
▁dis	-564
che	-565
outh	-566
▁commune	-567
▁incl	-568
gl	-569
air	-570
▁sa	-571
▁195	-572
ette	-573
ince	-574
▁sec	-575
abl	-576
ames	-577
ven	-578
▁6	-579
ased	-580
ward	-581
▁Sc	-582
ind	-583
ussi	-584
inc	-585
rib	-586
ight	-587
ace	-588
▁am	-589
▁ne	-590
ose	-591
▁Nor	-592
ants	-593
▁194	-594
ym	-595
▁part	-596
▁one	-597
▁ét	-598
ack	-599
▁dist	-600
lect	-601
▁Q	-602
▁aussi	-603
▁Univers	-604
ished	-605
yn	-606
200	-607
▁publ	-608
▁includ	-609
ipal	-610
▁had	-611
cent	-612
▁bo	-613
eb	-614
▁per	-615
▁year	-616
ings	-617
ade	-618
enn	-619
▁17	-620
▁col	-621
▁Can	-622
▁United	-623
ootball	-624
▁gen	-625
▁El	-626
ean	-627
ution	-628
él	-629
▁Cl	-630
aut	-631
ists	-632
▁Car	-633
▁who	-634
ert	-635
vent	-636
tem	-637
▁car	-638
▁On	-639
gion	-640
tiv	-641
▁but	-642
▁ph	-643
illa	-644
als	-645
▁cent	-646
tive	-647
▁fam	-648
ographie	-649
▁people	-650
▁Ph	-651
▁ag	-652
orld	-653
▁Con	-654
ode	-655
opul	-656
▁two	-657
0,	-658
▁7	-659
▁parti	-660
ats	-661
ren	-662
▁form	-663
▁Comm	-664
▁bec	-665
ière	-666
tique	-667
ally	-668
▁ce	-669
aj	-670
use	-671
ature	-672
ied	-673
lection	-674
hip	-675
▁ser	-676
rict	-677
ik	-678
att	-679
-1	-680
act	-681
min	-682
unic	-683
▁University	-684
man	-685
▁grou	-686
over	-687
ft	-688
ime	-689
red	-690
ae	-691
ures	-692
uring	-693
▁références	-694
ris	-695
uit	-696
ui	-697
ues	-698
▁act	-699
▁ass	-700
ines	-701
▁Ro	-702
itu	-703
▁cant	-704
ges	-705
▁po	-706
esp	-707
▁their	-708
ood	-709
riv	-710
ett	-711
▁8	-712
lev	-713
▁Saint	-714
▁prem	-715
ég	-716
inn	-717
▁all	-718
oss	-719
▁aux	-720
yl	-721
cess	-722
▁Joh	-723
dition	-724
ration	-725
2,	-726
ternes	-727
ari	-728
▁ann	-729
5,	-730
▁her	-731
ax	-732
els	-733
▁deux	-734
ole	-735
▁Ind	-736
ai	-737
1,	-738
▁Sp	-739
ments	-740
▁France	-741
ays	-742
▁Liens	-743
▁193	-744
▁been	-745
▁Count	-746
ket	-747
▁prov	-748
▁externes	-749
▁establ	-750
▁aut	-751
▁bir	-752
▁exp	-753
▁Aust	-754
▁after	-755
▁Ad	-756
▁Pe	-757
▁Is	-758
com	-759
▁ter	-760
▁this	-761
ife	-762
▁See	-763
aine	-764
▁Canad	-765
▁School	-766
▁9	-767
ours	-768
▁man	-769
nown	-770
▁trans	-771
▁Ge	-772
ten	-773
rid	-774
▁Brit	-775
ember	-776
mes	-777
unicipal	-778
tif	-779
ics	-780
▁States	-781
ouv	-782
3,	-783
▁have	-784
4,	-785
▁X	-786
urop	-787
▁As	-788
6,	-789
▁new	-790
ps	-791
ley	-792
pt	-793
▁players	-794
ourn	-795
▁Ré	-796
ths	-797
▁vers	-798
cc	-799
teur	-800
▁sub	-801
ough	-802
urn	-803
ick	-804
▁John	-805
▁entre	-806
iques	-807
ouse	-808
▁ind	-809
bert	-810
ities	-811
▁(18	-812
let	-813
▁été	-814
ina	-815
ident	-816
▁inter	-817
▁dire	-818
ales	-819
▁canton	-820
▁produc	-821
▁comme	-822
▁dif	-823
▁Be	-824
▁min	-825
▁can	-826
▁orig	-827
▁II	-828
▁popul	-829
tement	-830
ash	-831
▁football	-832
▁16	-833
▁rep	-834
ock	-835
▁sing	-836
▁so	-837
ese	-838
oph	-839
▁%	-840
▁National	-841
its	-842
▁station	-843
▁pas	-844
ersonn	-845
eth	-846
ains	-847
aw	-848
▁buil	-849
▁10	-850
▁World	-851
sp	-852
▁Gu	-853
▁County	-854
enc	-855
pos	-856
▁fl	-857
▁Tr	-858
▁Te	-859
agn	-860
▁fe	-861
velop	-862
▁française	-863
▁situ	-864
▁sign	-865
8,	-866
amb	-867
aiss	-868
7,	-869
▁Or	-870
▁villa	-871
▁into	-872
▁other	-873
▁&	-874
▁school	-875
▁sous	-876
▁gén	-877
▁known	-878
alis	-879
▁over	-880
▁15	-881
ium	-882
▁work	-883
▁op	-884
▁Char	-885
▁Cal	-886
▁second	-887
rim	-888
ternational	-889
0.	-890
ante	-891
lymp	-892
rough	-893
▁rele	-894
ienne	-895
▁song	-896
▁Voir	-897
▁Pol	-898
key	-899
eral	-900
▁stud	-901
ars	-902
ely	-903
oman	-904
▁She	-905
ake	-906
▁Am	-907
ague	-908
▁ob	-909
▁cap	-910
▁British	-911
ield	-912
▁dep	-913
▁record	-914
▁att	-915
ils	-916
str	-917
▁fait	-918
▁(200	-919
▁up	-920
ze	-921
év	-922
▁Bar	-923
▁Austral	-924
▁peut	-925
ould	-926
▁hist	-927
lor	-928
▁ses	-929
▁u	-930
▁fin	-931
ger	-932
ily	-933
ason	-934
iving	-935
ild	-936
▁bet	-937
rie	-938
▁char	-939
▁communes	-940
rent	-941
nex	-942
▁ed	-943
itic	-944
century	-945
▁Wh	-946
▁mod	-947
▁For	-948
▁num	-949
▁mon	-950
▁me	-951
tions	-952
born	-953
▁Tra	-954
▁South	-955
▁name	-956
▁Film	-957
ween	-958
▁déc	-959
▁rem	-960
▁music	-961
▁found	-962
itt	-963
▁offic	-964
▁team	-965
resent	-966
▁Mus	-967
▁192	-968
▁long	-969
▁partic	-970
▁med	-971
▁Rec	-972
oute	-973
-19	-974
▁used	-975
▁memb	-976
▁ret	-977
▁Man	-978
ific	-979
onne	-980
yp	-981
alement	-982
▁mais	-983
▁West	-984
ery	-985
isc	-986
▁writ	-987
ret	-988
▁band	-989
▁Bo	-990
▁che	-991
▁births	-992
▁municipal	-993
▁Cent	-994
▁Olymp	-995
▁she	-996
ony	-997
▁rel	-998
ages	-999
ict	-1000
▁where	-1001
▁years	-1002
▁Gre	-1003
ollow	-1004
▁At	-1005
iers	-1006
by	-1007
rom	-1008
▁sou	-1009
und	-1010
chn	-1011
▁when	-1012
urch	-1013
▁high	-1014
levision	-1015
9,	-1016
▁Ass	-1017
",	-1018
fin	-1019
lem	-1020
enti	-1021
▁prof	-1022
▁time	-1023
érie	-1024
▁under	-1025
▁Germ	-1026
ets	-1027
iver	-1028
▁mo	-1029
▁grand	-1030
2.	-1031
ves	-1032
▁Qu	-1033
amed	-1034
▁2006	-1035
▁former	-1036
▁village	-1037
arly	-1038
iam	-1039
cle	-1040
▁tit	-1041
▁York	-1042
ane	-1043
▁between	-1044
ésent	-1045
être	-1046
▁North	-1047
minist	-1048
1.	-1049
ott	-1050
tilis	-1051
overn	-1052
▁nor	-1053
▁History	-1054
▁most	-1055
▁bas	-1056
▁This	-1057
▁Pl	-1058
▁esp	-1059
▁War	-1060
▁during	-1061
lement	-1062
ateur	-1063
ula	-1064
▁dépar	-1065
▁Dist	-1066
vol	-1067
éric	-1068
▁may	-1069
aur	-1070
vers	-1071
ating	-1072
ption	-1073
▁death	-1074
▁compos	-1075
▁Liste	-1076
lege	-1077
▁12	-1078
▁series	-1079
▁class	-1080
▁organ	-1081
glish	-1082
ography	-1083
ced	-1084
▁reg	-1085
rop	-1086
▁only	-1087
▁High	-1088
ght	-1089
ank	-1090
ologie	-1091
▁lar	-1092
gram	-1093
▁anc	-1094
▁three	-1095
ords	-1096
▁end	-1097
be	-1098
ata	-1099
▁they	-1100
▁area	-1101
ission	-1102
▁became	-1103
Un	-1104
ene	-1105
ême	-1106
lo	-1107
aissance	-1108
areer	-1109
▁nombre	-1110
arm	-1111
4.	-1112
ower	-1113
5.	-1114
▁int	-1115
pend	-1116
▁about	-1117
▁spec	-1118
▁département	-1119
3.	-1120
▁English	-1121
ative	-1122
▁Jean	-1123
▁suc	-1124
▁Pr	-1125
▁through	-1126
▁éc	-1127
ruct	-1128
▁cour	-1129
lin	-1130
publ	-1131
▁Jul	-1132
▁Elle	-1133
onom	-1134
▁Geor	-1135
▁later	-1136
rois	-1137
–19	-1138
igne	-1139
▁ri	-1140
▁191	-1141
ible	-1142
près	-1143
▁town	-1144
aul	-1145
lay	-1146
nexes	-1147
▁Ne	-1148
ouver	-1149
▁gre	-1150
▁located	-1151
▁out	-1152
▁ville	-1153
▁Mont	-1154
▁Paris	-1155
ampions	-1156
▁May	-1157
ajor	-1158
▁Co	-1159
thern	-1160
201	-1161
▁gra	-1162
7.	-1163
ivision	-1164
▁cor	-1165
▁bl	-1166
ual	-1167
▁sol	-1168
▁All	-1169
▁pass	-1170
agne	-1171
▁Artic	-1172
▁acc	-1173
▁men	-1174
▁Ed	-1175
▁11	-1176
ior	-1177
▁Ac	-1178
lex	-1179
▁lang	-1180
▁Déc	-1181
▁ins	-1182
elon	-1183
▁dont	-1184
▁follow	-1185
▁then	-1186
aires	-1187
▁Bro	-1188
▁mil	-1189
erg	-1190
nes	-1191
8.	-1192
▁(199	-1193
ule	-1194
▁Me	-1195
enne	-1196
▁Bl	-1197
▁no	-1198
▁région	-1199
▁And	-1200
▁elle	-1201
▁supp	-1202
ume	-1203
▁ég	-1204
▁14	-1205
erson	-1206
▁13	-1207
▁dev	-1208
▁art	-1209
ements	-1210
▁conn	-1211
▁district	-1212
▁do	-1213
oul	-1214
▁population	-1215
ude	-1216
▁Cor	-1217
ités	-1218
▁Will	-1219
ptem	-1220
▁Br	-1221
▁List	-1222
▁played	-1223
bo	-1224
but	-1225
▁Nov	-1226
eng	-1227
▁fut	-1228
▁call	-1229
An	-1230
ches	-1231
▁some	-1232
ister	-1233
ural	-1234
▁off	-1235
▁direct	-1236
▁established	-1237
▁Ste	-1238
▁Comp	-1239
▁dés	-1240
▁until	-1241
▁more	-1242
▁génér	-1243
▁national	-1244
▁cette	-1245
▁Jan	-1246
▁released	-1247
ross	-1248
fore	-1249
▁list	-1250
erre	-1251
bor	-1252
▁202	-1253
▁politic	-1254
▁cré	-1255
iew	-1256
▁gu	-1257
▁Jap	-1258
elles	-1259
titu	-1260
▁four	-1261
ians	-1262
ital	-1263
▁Har	-1264
▁Bi	-1265
son	-1266
ather	-1267
▁King	-1268
ology	-1269
▁Sw	-1270
▁Europ	-1271
".	-1272
ieu	-1273
▁partie	-1274
▁oper	-1275
▁inc	-1276
cem	-1277
▁Ét	-1278
▁site	-1279
2)	-1280
ystem	-1281
▁Ab	-1282
ange	-1283
▁original	-1284
▁appear	-1285
omen	-1286
vi	-1287
ana	-1288
ark	-1289
▁pos	-1290
▁utilis	-1291
▁mat	-1292
▁League	-1293
ara	-1294
ème	-1295
rig	-1296
▁190	-1297
ull	-1298
▁Canada	-1299
▁City	-1300
▁Phil	-1301
▁made	-1302
▁television	-1303
▁mov	-1304
▁siè	-1305
ville	-1306
oint	-1307
sh	-1308
▁bro	-1309
esse	-1310
▁met	-1311
ffic	-1312
▁sim	-1313
▁there	-1314
▁program	-1315
ham	-1316
▁non	-1317
–1	-1318
cri	-1319
▁Med	-1320
..	-1321
▁princ	-1322
ones	-1323
▁including	-1324
▁Min	-1325
▁améric	-1326
round	-1327
▁imp	-1328
ows	-1329
6.	-1330
▁People	-1331
▁scien	-1332
9.	-1333
onde	-1334
lu	-1335
▁Décès	-1336
▁him	-1337
▁club	-1338
▁refer	-1339
ki	-1340
ee	-1341
▁elect	-1342
por	-1343
ociation	-1344
▁sup	-1345
▁well	-1346
ived	-1347
ka	-1348
▁cur	-1349
wards	-1350
▁public	-1351
000	-1352
▁cou	-1353
ession	-1354
▁open	-1355
été	-1356
▁cre	-1357
▁li	-1358
▁vol	-1359
tra	-1360
ulture	-1361
3)	-1362
ament	-1363
abit	-1364
▁Mon	-1365
arn	-1366
▁season	-1367
▁College	-1368
▁won	-1369
▁vari	-1370
▁famille	-1371
▁Air	-1372
▁place	-1373
▁albums	-1374
5)	-1375
alité	-1376
▁Val	-1377
yd	-1378
▁je	-1379
▁Gen	-1380
omb	-1381
ument	-1382
▁count	-1383
▁Lou	-1384
▁State	-1385
▁premier	-1386
urg	-1387
ma	-1388
▁()	-1389
▁perm	-1390
▁temp	-1391
▁again	-1392
ler	-1393
▁ont	-1394
▁Park	-1395
ports	-1396
▁Articles	-1397
▁Aug	-1398
▁était	-1399
▁own	-1400
▁jus	-1401
▁March	-1402
▁né	-1403
In	-1404
odes	-1405
ridge	-1406
▁After	-1407
▁189	-1408
▁port	-1409
ung	-1410
▁Mal	-1411
▁such	-1412
▁Eng	-1413
▁Af	-1414
▁occ	-1415
▁term	-1416
cher	-1417
tics	-1418
▁repr	-1419
▁Lond	-1420
▁state	-1421
▁vo	-1422
▁être	-1423
▁Ce	-1424
oin	-1425
6)	-1426
tes	-1427
4)	-1428
▁named	-1429
▁lead	-1430
▁Roy	-1431
1)	-1432
iter	-1433
▁connexes	-1434
ides	-1435
▁Sec	-1436
▁being	-1437
0)	-1438
ius	-1439
omm	-1440
antes	-1441
7)	-1442
▁Des	-1443
▁ans	-1444
hel	-1445
▁lui	-1446
ampionship	-1447
▁Per	-1448
app	-1449
▁Dav	-1450
irc	-1451
▁sm	-1452
row	-1453
▁group	-1454
ington	-1455
ator	-1456
▁Pat	-1457
▁near	-1458
umb	-1459
▁inf	-1460
ices	-1461
▁Grand	-1462
▁Living	-1463
▁design	-1464
▁Bel	-1465
8)	-1466
uch	-1467
▁run	-1468
▁pres	-1469
uary	-1470
▁Naissance	-1471
▁career	-1472
▁many	-1473
ype	-1474
The	-1475
▁His	-1476
insi	-1477
isme	-1478
▁leur	-1479
▁puis	-1480
arr	-1481
▁conc	-1482
▁trou	-1483
▁mort	-1484
ular	-1485
Al	-1486
▁guit	-1487
▁number	-1488
uel	-1489
▁Sch	-1490
▁z	-1491
ird	-1492
ried	-1493
itique	-1494
▁également	-1495
II	-1496
ances	-1497
▁nov	-1498
ford	-1499
▁administ	-1500
▁build	-1501
▁ord	-1502
▁contin	-1503
▁Pre	-1504
▁produ	-1505
ép	-1506
orti	-1507
▁21	-1508
▁Ital	-1509
ky	-1510
▁than	-1511
rad	-1512
▁William	-1513
ety	-1514
▁ép	-1515
lé	-1516
▁conf	-1517
af	-1518
▁District	-1519
▁back	-1520
yst	-1521
▁eff	-1522
▁poss	-1523
eter	-1524
iforn	-1525
▁Rail	-1526
▁Ber	-1527
▁Arm	-1528
▁Histoire	-1529
▁fac	-1530
▁served	-1531
ras	-1532
veral	-1533
▁member	-1534
▁before	-1535
▁où	-1536
▁||	-1537
▁games	-1538
▁US	-1539
▁main	-1540
▁Mor	-1541
▁would	-1542
rac	-1543
ites	-1544
▁No	-1545
▁River	-1546
▁même	-1547
uv	-1548
▁Pri	-1549
▁Dans	-1550
▁histor	-1551
▁Oct	-1552
onc	-1553
▁perform	-1554
▁ren	-1555
omin	-1556
▁Japan	-1557
▁called	-1558
ideo	-1559
▁August	-1560
▁Prov	-1561
ierre	-1562
aster	-1563
▁di	-1564
▁rece	-1565
▁Tre	-1566
ove	-1567
▁voc	-1568
▁develop	-1569
umn	-1570
ison	-1571
▁Mc	-1572
ène	-1573
▁male	-1574
▁Gl	-1575
▁'	-1576
▁trois	-1577
owe	-1578
▁Records	-1579
▁groupe	-1580
▁life	-1581
iction	-1582
ourg	-1583
uf	-1584
▁game	-1585
▁Californ	-1586
co	-1587
▁personn	-1588
▁Personn	-1589
▁188	-1590
▁Her	-1591
▁north	-1592
inter	-1593
▁based	-1594
adem	-1595
▁San	-1596
▁Part	-1597
▁territ	-1598
ald	-1599
ounc	-1600
▁web	-1601
lack	-1602
▁depuis	-1603
ober	-1604
▁base	-1605
rag	-1606
▁rest	-1607
▁Ang	-1608
lections	-1609
▁born	-1610
ockey	-1611
▁genre	-1612
▁Bib	-1613
ères	-1614
▁tour	-1615
▁films	-1616
▁establish	-1617
▁International	-1618
pril	-1619
atre	-1620
ieurs	-1621
▁Russ	-1622
▁both	-1623
onym	-1624
▁hom	-1625
▁roi	-1626
overnment	-1627
ards	-1628
▁January	-1629
ondiss	-1630
ered	-1631
▁members	-1632
▁Canadian	-1633
▁arch	-1634
▁family	-1635
▁techn	-1636
site	-1637
ape	-1638
▁local	-1639
▁pri	-1640
▁Mich	-1641
9)	-1642
ros	-1643
▁disc	-1644
orks	-1645
oi	-1646
ism	-1647
▁Port	-1648
ptember	-1649
ney	-1650
oth	-1651
oles	-1652
▁ainsi	-1653
▁(198	-1654
▁version	-1655
rist	-1656
ty	-1657
▁stations	-1658
▁several	-1659
▁espè	-1660
elf	-1661
▁Ser	-1662
▁city	-1663
ummer	-1664
lic	-1665
▁peu	-1666
▁Au	-1667
▁small	-1668
▁Island	-1669
▁bus	-1670
ey	-1671
▁aff	-1672
▁service	-1673
▁ext	-1674
▁187	-1675
▁lors	-1676
50	-1677
▁fond	-1678
▁2000	-1679
▁Louis	-1680
yr	-1681
▁Trans	-1682
▁Ag	-1683
▁German	-1684
ble	-1685
▁2004	-1686
led	-1687
ling	-1688
apt	-1689
▁très	-1690
ya	-1691
▁rad	-1692
▁London	-1693
struc	-1694
▁major	-1695
ox	-1696
▁April	-1697
vir	-1698
aud	-1699
ner	-1700
▁consid	-1701
▁Chris	-1702
▁fem	-1703
▁single	-1704
ple	-1705
▁eng	-1706
▁Dan	-1707
ié	-1708
▁Références	-1709
ulti	-1710
aî	-1711
▁donn	-1712
▁built	-1713
▁suiv	-1714
Ar	-1715
▁située	-1716
▁bel	-1717
view	-1718
▁September	-1719
ieux	-1720
▁deaths	-1721
▁June	-1722
▁October	-1723
▁const	-1724
arch	-1725
▁California	-1726
▁pat	-1727
▁along	-1728
▁contre	-1729
▁lim	-1730
rench	-1731
▁Jac	-1732
▁Australian	-1733
▁Je	-1734
▁2005	-1735
▁Paul	-1736
▁Mac	-1737
ved	-1738
cember	-1739
▁après	-1740
▁There	-1741
tiques	-1742
▁Charles	-1743
val	-1744
▁sorti	-1745
▁six	-1746
▁July	-1747
▁Mo	-1748
éb	-1749
▁Cup	-1750
▁stat	-1751
ente	-1752
▁alors	-1753
▁camp	-1754
ject	-1755
yth	-1756
▁Sal	-1757
."	-1758
temp	-1759
iness	-1760
▁ju	-1761
▁final	-1762
▁They	-1763
▁183	-1764
era	-1765
éra	-1766
▁following	-1767
▁system	-1768
▁186	-1769
▁international	-1770
▁Olympics	-1771
yle	-1772
▁while	-1773
▁cert	-1774
uk	-1775
aff	-1776
▁since	-1777
owever	-1778
▁guitar	-1779
▁published	-1780
▁Rich	-1781
▁head	-1782
▁south	-1783
▁pays	-1784
▁Bibli	-1785
ha	-1786
▁emp	-1787
▁À	-1788
ebru	-1789
rier	-1790
cription	-1791
▁—	-1792
▁def	-1793
▁import	-1794
ebruary	-1795
▁Hen	-1796
ries	-1797
▁jusqu	-1798
▁early	-1799
▁Li	-1800
▁Soci	-1801
ci	-1802
tian	-1803
▁prés	-1804
ually	-1805
▁prop	-1806
▁resp	-1807
▁Res	-1808
right	-1809
ained	-1810
▁tout	-1811
▁Music	-1812
▁tél	-1813
▁French	-1814
ournal	-1815
aient	-1816
lace	-1817
▁Tur	-1818
▁December	-1819
for	-1820
▁Son	-1821
▁1,	-1822
▁November	-1823
tal	-1824
berg	-1825
▁Indian	-1826
ta	-1827
dom	-1828
▁Cette	-1829
ama	-1830
▁dem	-1831
▁Pal	-1832
▁company	-1833
ense	-1834
alth	-1835
▁line	-1836
▁1990	-1837
▁cin	-1838
▁américain	-1839
▁province	-1840
occ	-1841
▁Robert	-1842
ième	-1843
idd	-1844
▁player	-1845
ocial	-1846
▁start	-1847
▁Dep	-1848
tition	-1849
▁rés	-1850
ized	-1851
isation	-1852
orts	-1853
▁February	-1854
▁particip	-1855
mar	-1856
▁mill	-1857
▁plusieurs	-1858
ban	-1859
▁Ins	-1860
▁vis	-1861
▁David	-1862
▁Australia	-1863
▁Miss	-1864
▁Championship	-1865
▁current	-1866
asse	-1867
ause	-1868
▁desc	-1869
▁home	-1870
orte	-1871
▁Mil	-1872
▁go	-1873
ipp	-1874
▁establishments	-1875
ération	-1876
oks	-1877
▁held	-1878
▁mag	-1879
▁nou	-1880
▁politique	-1881
▁top	-1882
ino	-1883
▁now	-1884
tt	-1885
▁conse	-1886
uage	-1887
▁them	-1888
onction	-1889
▁England	-1890
▁Publ	-1891
▁rail	-1892
athol	-1893
ouncil	-1894
ended	-1895
▁réalis	-1896
the	-1897
▁died	-1898
▁show	-1899
public	-1900
▁Afric	-1901
-18	-1902
▁doc	-1903
▁milit	-1904
▁Gra	-1905
ired	-1906
▁Association	-1907
roup	-1908
roduc	-1909
thor	-1910
illes	-1911
ops	-1912
▁Roman	-1913
▁»,	-1914
uses	-1915
▁Mic	-1916
▁child	-1917
▁Hol	-1918
▁same	-1919
▁Thom	-1920
▁manag	-1921
▁coach	-1922
▁Bra	-1923
▁Games	-1924
reet	-1925
▁cal	-1926
▁soci	-1927
lan	-1928
▁west	-1929
▁enc	-1930
▁Cour	-1931
▁House	-1932
ful	-1933
Ch	-1934
▁Party	-1935
▁méd	-1936
▁années	-1937
▁Railway	-1938
ica	-1939
▁Sm	-1940
▁dec	-1941
▁(197	-1942
▁Histor	-1943
.,	-1944
▁2002	-1945
ties	-1946
▁include	-1947
▁(201	-1948
▁différ	-1949
▁lég	-1950
umni	-1951
▁air	-1952
▁Football	-1953
arg	-1954
rum	-1955
▁dro	-1956
▁fils	-1957
▁profession	-1958
▁century	-1959
uck	-1960
▁East	-1961
erc	-1962
titution	-1963
formation	-1964
asc	-1965
▁sk	-1966
ources	-1967
▁success	-1968
▁struct	-1969
▁184	-1970
▁ang	-1971
▁Cons	-1972
▁land	-1973
estiv	-1974
▁appro	-1975
su	-1976
tier	-1977
▁Sa	-1978
till	-1979
▁James	-1980
▁contr	-1981
chest	-1982
na	-1983
▁hum	-1984
▁dép	-1985
▁première	-1986
aking	-1987
nement	-1988
▁gr	-1989
ives	-1990
▁Che	-1991
ects	-1992
▁point	-1993
▁medal	-1994
tim	-1995
▁Sup	-1996
▁États	-1997
▁siècle	-1998
ep	-1999
▁ref	-2000
▁educ	-2001
▁bi	-2002
▁Commun	-2003
ouvelle	-2004
▁Que	-2005
▁général	-2006
rice	-2007
ided	-2008
position	-2009
▁pré	-2010
▁George	-2011
ots	-2012
▁Aut	-2013
▁habit	-2014
▁/	-2015
alk	-2016
▁syn	-2017
▁vocals	-2018
▁2003	-2019
struction	-2020
▁Road	-2021
▁représent	-2022
▁Nord	-2023
▁)	-2024
▁Pres	-2025
arl	-2026
imes	-2027
ael	-2028
▁Top	-2029
raft	-2030
▁Reg	-2031
▁Church	-2032
Ét	-2033
▁large	-2034
▁stand	-2035
équ	-2036
ketball	-2037
="	-2038
ring	-2039
va	-2040
▁website	-2041
ief	-2042
▁use	-2043
▁phot	-2044
▁against	-2045
gin	-2046
▁Flor	-2047
oue	-2048
▁=	-2049
atique	-2050
▁Fl	-2051
usion	-2052
▁cri	-2053
▁each	-2054
▁(17	-2055
ules	-2056
▁ev	-2057
▁selon	-2058
▁sud	-2059
▁cel	-2060
▁avant	-2061
iles	-2062
ondissement	-2063
van	-2064
sc	-2065
rique	-2066
emble	-2067
tical	-2068
tar	-2069
▁Mart	-2070
▁around	-2071
lemand	-2072
iller	-2073
oe	-2074
▁Club	-2075
▁type	-2076
amment	-2077
jet	-2078
▁ep	-2079
▁appel	-2080
iet	-2081
▁Ath	-2082
▁rég	-2083
▁women	-2084
▁production	-2085
▁Act	-2086
ute	-2087
ulaire	-2088
▁return	-2089
▁Bas	-2090
▁Su	-2091
▁set	-2092
atin	-2093
▁Rh	-2094
▁Scott	-2095
ena	-2096
▁law	-2097
km	-2098
▁Arch	-2099
▁em	-2100
ression	-2101
▁old	-2102
▁Franc	-2103
ification	-2104
▁Tex	-2105
▁2001	-2106
▁prob	-2107
▁field	-2108
emple	-2109
aines	-2110
och	-2111
▁Olympic	-2112
▁fonction	-2113
▁Academ	-2114
▁arm	-2115
▁short	-2116
▁185	-2117
▁bar	-2118
▁prom	-2119
▁official	-2120
ently	-2121
▁div	-2122
ribution	-2123
work	-2124
▁Royal	-2125
▁Dem	-2126
▁principal	-2127
ises	-2128
éro	-2129
oup	-2130
▁circ	-2131
▁tradition	-2132
▁Art	-2133
▁2015	-2134
▁video	-2135
▁lib	-2136
▁began	-2137
field	-2138
▁Offic	-2139
sur	-2140
ago	-2141
8),	-2142
▁Bibliographie	-2143
endant	-2144
▁Sports	-2145
▁rock	-2146
▁event	-2147
other	-2148
▁Year	-2149
▁Scien	-2150
▁Une	-2151
▁produced	-2152
isée	-2153
uments	-2154
▁cas	-2155
▁region	-2156
ires	-2157
▁Red	-2158
▁comb	-2159
▁30	-2160
ictor	-2161
▁présent	-2162
osp	-2163
▁suite	-2164
▁ven	-2165
▁fa	-2166
▁written	-2167
21	-2168
itz	-2169
ink	-2170
ota	-2171
▁Dém	-2172
▁municipality	-2173
viron	-2174
ellement	-2175
ately	-2176
▁Ze	-2177
▁Tour	-2178
line	-2179
▁world	-2180
BC	-2181
ira	-2182
▁Del	-2183
iment	-2184
cept	-2185
lac	-2186
▁bass	-2187
west	-2188
▁represent	-2189
reg	-2190
▁2007	-2191
ili	-2192
▁opened	-2193
▁0	-2194
▁1980	-2195
▁Vir	-2196
▁1999	-2197
olf	-2198
▁nord	-2199
▁dern	-2200
eau	-2201
▁Sam	-2202
▁code	-2203
èg	-2204
▁book	-2205
▁25	-2206
▁From	-2207
▁dou	-2208
▁best	-2209
acter	-2210
▁Award	-2211
▁sans	-2212
des	-2213
▁Sing	-2214
▁dess	-2215
ini	-2216
▁One	-2217
astern	-2218
▁forme	-2219
aving	-2220
reek	-2221
▁last	-2222
day	-2223
▁syst	-2224
volution	-2225
▁id	-2226
ico	-2227
▁gouver	-2228
isse	-2229
▁join	-2230
adium	-2231
▁present	-2232
▁nature	-2233
▁We	-2234
Unis	-2235
▁we	-2236
gest	-2237
▁centre	-2238
▁post	-2239
ming	-2240
gar	-2241
▁Gé	-2242
▁Fre	-2243
▁origin	-2244
▁history	-2245
ura	-2246
▁Conse	-2247
▁Kingdom	-2248
▁Europe	-2249
istan	-2250
▁Rad	-2251
▁Sim	-2252
▁Land	-2253
État	-2254
▁commer	-2255
of	-2256
ether	-2257
ête	-2258
▁activ	-2259
▁tri	-2260
▁complet	-2261
ility	-2262
▁winn	-2263
onyme	-2264
▁position	-2265
ecture	-2266
▁val	-2267
iol	-2268
earch	-2269
enant	-2270
ationale	-2271
▁Memb	-2272
lais	-2273
onymie	-2274
ised	-2275
▁mot	-2276
▁Pierre	-2277
loy	-2278
▁down	-2279
▁included	-2280
▁Alex	-2281
wood	-2282
▁services	-2283
rat	-2284
▁species	-2285
né	-2286
iff	-2287
2),	-2288
ète	-2289
tice	-2290
▁soit	-2291
10	-2292
▁Hall	-2293
▁support	-2294
go	-2295
▁Serv	-2296
▁rom	-2297
▁».	-2298
▁Mag	-2299
aque	-2300
▁TV	-2301
ourd	-2302
illers	-2303
rain	-2304
ander	-2305
▁cat	-2306
now	-2307
▁alumni	-2308
▁prim	-2309
▁chang	-2310
▁autres	-2311
▁songs	-2312
▁Em	-2313
▁24	-2314
▁Union	-2315
lands	-2316
▁Popul	-2317
▁Stud	-2318
lav	-2319
comp	-2320
▁ancien	-2321
3),	-2322
▁ve	-2323
fois	-2324
▁due	-2325
ivil	-2326
▁ces	-2327
▁sl	-2328
▁allemand	-2329
▁India	-2330
▁désign	-2331
▁bre	-2332
▁five	-2333
▁mont	-2334
▁péri	-2335
▁Av	-2336
▁Met	-2337
▁plan	-2338
isé	-2339
rée	-2340
▁préc	-2341
▁2008	-2342
▁reti	-2343
igu	-2344
ières	-2345
▁Street	-2346
glise	-2347
▁Mass	-2348
30	-2349
▁particul	-2350
▁Republic	-2351
4),	-2352
▁Columb	-2353
▁train	-2354
▁notamment	-2355
unn	-2356
▁administra	-2357
off	-2358
▁dest	-2359
rest	-2360
iversité	-2361
▁radio	-2362
7),	-2363
▁government	-2364
ida	-2365
▁within	-2366
burg	-2367
▁mét	-2368
▁Mad	-2369
▁1998	-2370
▁anim	-2371
estival	-2372
▁left	-2373
▁Emp	-2374
ls	-2375
▁Kh	-2376
▁(196	-2377
▁business	-2378
artment	-2379
attle	-2380
▁cover	-2381
aï	-2382
ush	-2383
ray	-2384
rian	-2385
▁Ben	-2386
▁differ	-2387
▁multi	-2388
▁these	-2389
▁sett	-2390
▁constitu	-2391
▁moved	-2392
cy	-2393
ope	-2394
▁Mount	-2395
orig	-2396
▁division	-2397
ède	-2398
▁cours	-2399
▁Germany	-2400
▁received	-2401
▁rapp	-2402
ody	-2403
▁espèces	-2404
idae	-2405
5),	-2406
thers	-2407
ency	-2408
▁election	-2409
▁phys	-2410
ension	-2411
▁sold	-2412
▁tourn	-2413
hire	-2414
▁Thomas	-2415
▁took	-2416
▁Bay	-2417
▁dévelop	-2418
▁Prem	-2419
▁Lab	-2420
▁leg	-2421
ij	-2422
itor	-2423
erve	-2424
Mar	-2425
akes	-2426
▁Christ	-2427
▁1996	-2428
itte	-2429
azine	-2430
▁100	-2431
▁road	-2432
vious	-2433
▁Hill	-2434
▁log	-2435
▁fer	-2436
▁Ter	-2437
▁building	-2438
time	-2439
▁title	-2440
ource	-2441
ization	-2442
▁Gal	-2443
▁married	-2444
▁Men	-2445
▁clos	-2446
▁Mex	-2447
▁grec	-2448
▁Council	-2449
▁opp	-2450
▁série	-2451
atic	-2452
▁hockey	-2453
▁park	-2454
▁Richard	-2455
ued	-2456
▁fois	-2457
publique	-2458
▁founded	-2459
▁Christian	-2460
▁partir	-2461
teurs	-2462
▁dém	-2463
▁Démographie	-2464
tific	-2465
▁Summer	-2466
▁European	-2467
▁community	-2468
▁Vol	-2469
âte	-2470
▁Jose	-2471
▁align	-2472
rog	-2473
▁will	-2474
ipe	-2475
▁Division	-2476
atures	-2477
▁Sur	-2478
oung	-2479
▁faire	-2480
▁did	-2481
▁disp	-2482
ext	-2483
▁church	-2484
xim	-2485
depend	-2486
▁debut	-2487
cast	-2488
▁Rome	-2489
▁indust	-2490
▁3:	-2491
uy	-2492
▁Bal	-2493
▁east	-2494
▁Hom	-2495
iod	-2496
roph	-2497
▁dom	-2498
▁télév	-2499
▁Go	-2500
▁engine	-2501
▁Nav	-2502
▁During	-2503
▁actress	-2504
40	-2505
rab	-2506
▁es	-2507
cks	-2508
▁ever	-2509
▁1970	-2510
▁minist	-2511
uropé	-2512
▁III	-2513
6),	-2514
▁devient	-2515
▁év	-2516
▁any	-2517
▁lab	-2518
▁Class	-2519
▁children	-2520
▁signif	-2521
▁titre	-2522
▁thé	-2523
▁Great	-2524
rew	-2525
▁third	-2526
med	-2527
ables	-2528
▁2020	-2529
▁Texas	-2530
ache	-2531
▁Angel	-2532
▁Society	-2533
▁der	-2534
▁Bur	-2535
nom	-2536
▁describ	-2537
▁Cap	-2538
ream	-2539
▁You	-2540
unction	-2541
▁Black	-2542
▁Inter	-2543
liament	-2544
cted	-2545
▁riv	-2546
▁water	-2547
anies	-2548
less	-2549
▁journal	-2550
oque	-2551
▁Other	-2552
▁Public	-2553
▁2,	-2554
aties	-2555
▁places	-2556
aus	-2557
augh	-2558
tres	-2559
▁Cong	-2560
▁award	-2561
▁Cont	-2562
leur	-2563
▁Tor	-2564
▁début	-2565
ios	-2566
ades	-2567
▁Song	-2568
tég	-2569
▁Biographie	-2570
tie	-2571
▁mal	-2572
▁Wash	-2573
▁feature	-2574
oise	-2575
veau	-2576
▁2010	-2577
aute	-2578
▁priv	-2579
▁App	-2580
serv	-2581
▁monde	-2582
▁Cathol	-2583
▁Lake	-2584
▁side	-2585
▁By	-2586
ampion	-2587
▁author	-2588
▁railway	-2589
▁addition	-2590
▁inst	-2591
▁Album	-2592
▁Gr	-2593
▁remp	-2594
though	-2595
▁Ver	-2596
itch	-2597
▁Acc	-2598
ersonal	-2599
▁America	-2600
▁Éc	-2601
uté	-2602
face	-2603
▁sw	-2604
ording	-2605
ribut	-2606
▁route	-2607
▁Pan	-2608
▁red	-2609
▁Fin	-2610
▁Michael	-2611
▁country	-2612
eek	-2613
▁1997	-2614
arrondissement	-2615
▁super	-2616
▁br	-2617
aper	-2618
ious	-2619
▁associ	-2620
▁Mel	-2621
iqu	-2622
ination	-2623
▁Town	-2624
▁2019	-2625
▁Mary	-2626
▁appeared	-2627
ano	-2628
▁UK	-2629
titute	-2630
▁Cro	-2631
▁Lang	-2632
▁Ir	-2633
iant	-2634
▁Victor	-2635
▁Ham	-2636
▁character	-2637
▁Leg	-2638
dis	-2639
▁compe	-2640
▁However	-2641
▁Site	-2642
▁My	-2643
pond	-2644
25	-2645
ll	-2646
▁social	-2647
▁Sud	-2648
▁Play	-2649
▁popular	-2650
hi	-2651
oud	-2652
ada	-2653
▁Peter	-2654
▁Prof	-2655
ering	-2656
▁spéc	-2657
▁schools	-2658
▁Ke	-2659
▁Japanese	-2660
▁typ	-2661
▁Columbia	-2662
▁Law	-2663
▁Treaties	-2664
▁Educ	-2665
▁[	-2666
▁ec	-2667
▁Province	-2668
urther	-2669
▁enti	-2670
ricket	-2671
▁Er	-2672
80	-2673
▁Cla	-2674
▁tre	-2675
▁track	-2676
▁Selon	-2677
▁Awards	-2678
urt	-2679
iven	-2680
▁general	-2681
16	-2682
ande	-2683
origine	-2684
▁epis	-2685
tig	-2686
uer	-2687
ored	-2688
férence	-2689
▁Po	-2690
1),	-2691
illet	-2692
ips	-2693
ctor	-2694
yme	-2695
ditions	-2696
▁Central	-2697
▁Mi	-2698
auté	-2699
▁1995	-2700
▁artic	-2701
▁europé	-2702
.)	-2703
▁Washington	-2704
▁élect	-2705
▁common	-2706
▁équ	-2707
▁bien	-2708
▁condu	-2709
ological	-2710
▁Mat	-2711
tient	-2712
ritann	-2713
▁temps	-2714
▁elected	-2715
▁Marc	-2716
▁guerre	-2717
▁Municipal	-2718
aison	-2719
▁Don	-2720
▁1994	-2721
▁Sant	-2722
▁culture	-2723
nd	-2724
iddle	-2725
▁rev	-2726
▁chef	-2727
iale	-2728
▁Pla	-2729
▁worked	-2730
▁Ann	-2731
▁cy	-2732
▁initi	-2733
▁Sen	-2734
hist	-2735
▁Géographie	-2736
▁novel	-2737
▁ver	-2738
▁late	-2739
▁Official	-2740
za	-2741
▁Op	-2742
9),	-2743
cial	-2744
▁Dou	-2745
ection	-2746
tives	-2747
▁quel	-2748
eration	-2749
idé	-2750
▁Loc	-2751
▁bord	-2752
▁sports	-2753
pes	-2754
ize	-2755
▁gé	-2756
▁Sl	-2757
▁Sk	-2758
▁23	-2759
ights	-2760
▁univers	-2761
▁miss	-2762
unk	-2763
aille	-2764
▁General	-2765
riend	-2766
▁Gall	-2767
entes	-2768
▁cro	-2769
▁created	-2770
ston	-2771
ateurs	-2772
ias	-2773
▁role	-2774
▁moins	-2775
ted	-2776
▁nomm	-2777
▁ital	-2778
▁sens	-2779
▁age	-2780
aland	-2781
rov	-2782
aise	-2783
▁simil	-2784
▁groups	-2785
eck	-2786
60	-2787
▁celle	-2788
▁Den	-2789
▁habitants	-2790
▁roman	-2791
▁2009	-2792
▁liste	-2793
ories	-2794
▁day	-2795
ote	-2796
▁Fam	-2797
▁1992	-2798
▁recorded	-2799
urb	-2800
▁Virgin	-2801
▁|-	-2802
▁Gold	-2803
▁Group	-2804
rang	-2805
▁students	-2806
▁live	-2807
alf	-2808
acc	-2809
▁territoire	-2810
▁Cast	-2811
▁arr	-2812
uan	-2813
leg	-2814
oral	-2815
▁sé	-2816
vention	-2817
gent	-2818
ria	-2819
▁pouv	-2820
udes	-2821
ception	-2822
▁appoint	-2823
olk	-2824
org	-2825
▁Frank	-2826
▁prote	-2827
▁With	-2828
▁Pet	-2829
ults	-2830
uff	-2831
▁Green	-2832
hui	-2833
rès	-2834
uild	-2835
▁Camp	-2836
▁Route	-2837
▁dram	-2838
istes	-2839
ricts	-2840
▁Swed	-2841
▁2011	-2842
▁total	-2843
22	-2844
Am	-2845
ically	-2846
yant	-2847
▁areas	-2848
▁Best	-2849
alog	-2850
▁gl	-2851
▁Catholic	-2852
▁tou	-2853
▁Penn	-2854
▁britann	-2855
▁celui	-2856
▁Luc	-2857
anche	-2858
uter	-2859
▁often	-2860
▁Western	-2861
▁Academy	-2862
▁house	-2863
▁Winter	-2864
bour	-2865
▁Bill	-2866
▁still	-2867
▁events	-2868
▁previous	-2869
▁equ	-2870
▁father	-2871
▁add	-2872
duction	-2873
▁politician	-2874
ôt	-2875
▁deg	-2876
ola	-2877
▁started	-2878
ids	-2879
upation	-2880
▁very	-2881
▁hon	-2882
▁pers	-2883
▁souvent	-2884
▁Press	-2885
▁tex	-2886
▁Carol	-2887
▁Its	-2888
▁scientif	-2889
CA	-2890
ût	-2891
ersey	-2892
▁Company	-2893
reland	-2894
▁République	-2895
▁ste	-2896
▁sym	-2897
▁Georg	-2898
▁inv	-2899
▁donc	-2900
autres	-2901
▁sem	-2902
▁professional	-2903
▁inh	-2904
raction	-2905
▁hand	-2906
▁level	-2907
▁tous	-2908
ennes	-2909
ittle	-2910
▁works	-2911
▁mer	-2912
▁Italian	-2913
▁pra	-2914
▁Pour	-2915
seau	-2916
▁style	-2917
▁gradu	-2918
▁construction	-2919
▁dur	-2920
▁développ	-2921
▁del	-2922
▁Di	-2923
etwork	-2924
▁comté	-2925
▁relig	-2926
ril	-2927
érique	-2928
Or	-2929
jourd	-2930
▁grande	-2931
prise	-2932
ady	-2933
pl	-2934
▁Ren	-2935
▁Life	-2936
▁archit	-2937
▁fre	-2938
lected	-2939
Fran	-2940
ishing	-2941
▁système	-2942
▁fig	-2943
▁important	-2944
▁tw	-2945
▁requ	-2946
imb	-2947
▁sil	-2948
▁Belg	-2949
▁mes	-2950
▁basketball	-2951
▁agric	-2952
▁ancienne	-2953
ye	-2954
▁Mur	-2955
ints	-2956
endre	-2957
▁Bern	-2958
▁nouvelle	-2959
▁ten	-2960
respond	-2961
ww	-2962
mond	-2963
▁Mer	-2964
▁nive	-2965
▁appar	-2966
ump	-2967
atri	-2968
▁1960	-2969
ône	-2970
orial	-2971
▁process	-2972
▁CD	-2973
▁Ob	-2974
▁el	-2975
▁lo	-2976
erie	-2977
ness	-2978
itation	-2979
ential	-2980
▁situé	-2981
uz	-2982
▁22	-2983
▁Sub	-2984
▁Track	-2985
▁musical	-2986
ôle	-2987
▁Dire	-2988
▁lieu	-2989
itan	-2990
▁period	-2991
▁fle	-2992
▁broad	-2993
-2	-2994
den	-2995
▁Los	-2996
▁Scot	-2997
▁joined	-2998
▁Wal	-2999
isl	-3000
œuv	-3001
▁mars	-3002
▁Ireland	-3003
ocra	-3004
rich	-3005
▁vie	-3006
oo	-3007
▁Rock	-3008
utes	-3009
▁ayant	-3010
▁179	-3011
▁First	-3012
▁different	-3013
uelle	-3014
▁given	-3015
▁just	-3016
atural	-3017
▁Cat	-3018
▁completed	-3019
▁homme	-3020
▁terme	-3021
▁Mos	-3022
▁Court	-3023
▁Bre	-3024
ground	-3025
▁Disc	-3026
▁went	-3027
▁iss	-3028
▁administrative	-3029
▁27	-3030
▁trouve	-3031
uns	-3032
ivre	-3033
ivid	-3034
▁Rob	-3035
-),	-3036
aces	-3037
ogn	-3038
▁pop	-3039
▁leurs	-3040
▁various	-3041
▁Ma	-3042
tor	-3043
▁special	-3044
ival	-3045
ract	-3046
▁exemple	-3047
oor	-3048
azz	-3049
▁result	-3050
▁Institute	-3051
.-	-3052
▁pal	-3053
▁trav	-3054
▁avoir	-3055
▁exist	-3056
ych	-3057
▁Joseph	-3058
▁hel	-3059
▁$	-3060
▁adv	-3061
▁anglais	-3062
incial	-3063
▁si	-3064
▁Jersey	-3065
TA	-3066
▁26	-3067
oon	-3068
▁encore	-3069
idents	-3070
phe	-3071
▁cart	-3072
année	-3073
▁actors	-3074
▁Zealand	-3075
▁permet	-3076
▁originally	-3077
▁prot	-3078
ambigu	-3079
idence	-3080
ona	-3081
writ	-3082
▁power	-3083
▁utilisé	-3084
▁director	-3085
orpor	-3086
ua	-3087
rick	-3088
rage	-3089
▁Bor	-3090
▁cla	-3091
comm	-3092
▁Fer	-3093
▁Sil	-3094
▁britannique	-3095
▁règ	-3096
▁Chic	-3097
▁cross	-3098
▁Region	-3099
▁Army	-3100
ani	-3101
alités	-3102
ado	-3103
▁sal	-3104
▁nouveau	-3105
▁jeu	-3106
ware	-3107
▁Albert	-3108
▁1993	-3109
▁(),	-3110
unt	-3111
▁host	-3112
▁Techn	-3113
▁quar	-3114
action	-3115
▁bran	-3116
▁because	-3117
bur	-3118
▁2014	-3119
ambiguation	-3120
▁African	-3121
▁formed	-3122
▁assist	-3123
aries	-3124
roy	-3125
ched	-3126
aker	-3127
vier	-3128
▁Sou	-3129
rote	-3130
▁caract	-3131
▁correspond	-3132
▁phil	-3133
▁cr	-3134
band	-3135
▁read	-3136
roupe	-3137
▁science	-3138
▁28	-3139
andid	-3140
▁quatre	-3141
orth	-3142
▁Martin	-3143
▁companies	-3144
▁Fed	-3145
ores	-3146
▁(2	-3147
TV	-3148
▁50	-3149
utch	-3150
▁Kar	-3151
▁Tom	-3152
▁war	-3153
11	-3154
dic	-3155
▁Mark	-3156
ronyme	-3157
ators	-3158
vo	-3159
aly	-3160
ga	-3161
oires	-3162
▁When	-3163
iano	-3164
▁times	-3165
▁viol	-3166
▁Philip	-3167
70	-3168
▁4:	-3169
▁mix	-3170
▁Muse	-3171
▁access	-3172
▁Scottish	-3173
rug	-3174
asion	-3175
rière	-3176
▁birth	-3177
auc	-3178
▁teams	-3179
▁Championships	-3180
disambiguation	-3181
▁(195	-3182
▁Transport	-3183
▁environ	-3184
▁Radio	-3185
▁Smith	-3186
▁autre	-3187
▁could	-3188
▁Kn	-3189
▁ill	-3190
▁Ly	-3191
anish	-3192
▁another	-3193
ao	-3194
▁commercial	-3195
âteau	-3196
▁medalists	-3197
▁Boy	-3198
▁str	-3199
aughter	-3200
▁Arts	-3201
▁él	-3202
mi	-3203
ón	-3204
sk	-3205
▁Henry	-3206
essor	-3207
▁musique	-3208
▁Du	-3209
ugby	-3210
▁niveau	-3211
▁round	-3212
▁Pak	-3213
▁année	-3214
çois	-3215
▁pendant	-3216
êt	-3217
▁page	-3218
ected	-3219
rer	-3220
▁like	-3221
15	-3222
▁river	-3223
▁rou	-3224
wh	-3225
lec	-3226
ached	-3227
▁currently	-3228
▁came	-3229
▁ligne	-3230
▁Lib	-3231
ounced	-3232
université	-3233
ylvan	-3234
▁Mod	-3235
▁Northern	-3236
▁joue	-3237
▁+	-3238
▁Sir	-3239
▁Cam	-3240
▁Center	-3241
exp	-3242
ecu	-3243
▁180	-3244
▁Sar	-3245
▁gold	-3246
▁Sain	-3247
▁déf	-3248
ensive	-3249
▁Exp	-3250
▁appointed	-3251
▁Fe	-3252
▁capit	-3253
▁dens	-3254
▁1991	-3255
aceae	-3256
ala	-3257
▁Nic	-3258
embly	-3259
erman	-3260
12	-3261
ams	-3262
▁Ros	-3263
▁Medal	-3264
▁stadium	-3265
▁mass	-3266
▁among	-3267
▁writers	-3268
▁Dr	-3269
▁Centre	-3270
▁office	-3271
▁Hon	-3272
▁central	-3273
oz	-3274
–18	-3275
▁3,	-3276
omme	-3277
edy	-3278
▁Parliament	-3279
oms	-3280
▁playing	-3281
▁cer	-3282
isla	-3283
-200	-3284
▁turn	-3285
▁Long	-3286
▁employ	-3287
▁2012	-3288
▁Russian	-3289
étique	-3290
igan	-3291
▁nav	-3292
▁described	-3293
▁league	-3294
éma	-3295
ôme	-3296
▁Gar	-3297
▁Const	-3298
18	-3299
▁Super	-3300
ought	-3301
▁iden	-3302
▁société	-3303
▁Ol	-3304
▁défin	-3305
▁Members	-3306
▁scientifique	-3307
ita	-3308
▁Vo	-3309
▁ath	-3310
▁petit	-3311
▁Ec	-3312
▁Sol	-3313
▁qual	-3314
▁1988	-3315
▁Career	-3316
▁Ap	-3317
▁Composition	-3318
▁wife	-3319
▁Cant	-3320
▁Dé	-3321
▁acqu	-3322
▁date	-3323
apon	-3324
▁led	-3325
ordre	-3326
▁few	-3327
▁instr	-3328
FL	-3329
▁Chicago	-3330
▁magazine	-3331
vin	-3332
pper	-3333
▁Ur	-3334
atter	-3335
ulation	-3336
ellow	-3337
▁drum	-3338
▁spe	-3339
ouri	-3340
atives	-3341
quel	-3342
▁race	-3343
▁Jun	-3344
▁princip	-3345
dependent	-3346
▁référence	-3347
▁become	-3348
amm	-3349
alls	-3350
▁période	-3351
ereur	-3352
venue	-3353
ébec	-3354
▁ess	-3355
annel	-3356
▁Ve	-3357
pendant	-3358
▁direction	-3359
▁cell	-3360
▁Carl	-3361
▁peti	-3362
▁political	-3363
ministration	-3364
rait	-3365
▁introduc	-3366
...	-3367
▁moy	-3368
gen	-3369
ols	-3370
èse	-3371
▁Bul	-3372
▁Cur	-3373
▁oct	-3374
▁oppos	-3375
▁Syn	-3376
ailable	-3377
ipl	-3378
▁order	-3379
ests	-3380
ecial	-3381
▁full	-3382
▁Early	-3383
▁gouvernement	-3384
térie	-3385
▁Form	-3386
ologique	-3387
ca	-3388
ture	-3389
titude	-3390
▁trib	-3391
▁Villa	-3392
▁includes	-3393
▁Museum	-3394
▁exper	-3395
linois	-3396
reen	-3397
▁Def	-3398
opp	-3399
▁juin	-3400
▁sols	-3401
▁studio	-3402
▁dyn	-3403
▁maint	-3404
▁fiction	-3405
▁siège	-3406
inée	-3407
▁plat	-3408
ché	-3409
▁modern	-3410
▁developed	-3411
▁singer	-3412
osh	-3413
▁Love	-3414
▁language	-3415
▁gener	-3416
▁2006,	-3417
▁Angeles	-3418
▁père	-3419
bres	-3420
–200	-3421
▁2013	-3422
▁près	-3423
▁Personnalité	-3424
▁1989	-3425
▁rela	-3426
▁désigner	-3427
▁section	-3428
ube	-3429
▁table	-3430
▁proper	-3431
men	-3432
vely	-3433
embl	-3434
ènes	-3435
▁président	-3436
▁avait	-3437
▁newsp	-3438
▁aujourd	-3439
da	-3440
aining	-3441
ptembre	-3442
▁similar	-3443
atur	-3444
▁élections	-3445
▁prix	-3446
▁returned	-3447
▁Parti	-3448
▁Cas	-3449
▁Education	-3450
ference	-3451
ek	-3452
▁document	-3453
inf	-3454
▁Gir	-3455
sylvan	-3456
")	-3457
▁Bus	-3458
ican	-3459
▁via	-3460
▁Second	-3461
▁Star	-3462
▁education	-3463
br	-3464
▁books	-3465
St	-3466
èce	-3467
▁Jacques	-3468
▁million	-3469
▁(193	-3470
▁Wind	-3471
▁mention	-3472
▁Tri	-3473
▁dra	-3474
people	-3475
▁approxim	-3476
▁So	-3477
otte	-3478
▁Oh	-3479
lete	-3480
ouest	-3481
ué	-3482
▁Television	-3483
▁points	-3484
ares	-3485
▁great	-3486
▁Jew	-3487
▁cantons	-3488
SA	-3489
▁using	-3490
tein	-3491
ographique	-3492
▁Norway	-3493
▁mai	-3494
▁listing	-3495
▁Après	-3496
▁Festival	-3497
▁Ils	-3498
▁nationale	-3499
▁Base	-3500
▁White	-3501
▁invol	-3502
ester	-3503
▁candid	-3504
▁29	-3505
▁Women	-3506
▁rac	-3507
▁President	-3508
hood	-3509
▁Dis	-3510
▁To	-3511
▁Day	-3512
asons	-3513
itions	-3514
▁Organ	-3515
ishop	-3516
▁having	-3517
▁release	-3518
▁Are	-3519
cep	-3520
▁compte	-3521
▁membre	-3522
▁Homonymie	-3523
▁Pakistan	-3524
obre	-3525
▁Dur	-3526
éré	-3527
▁much	-3528
-3	-3529
rend	-3530
▁Camb	-3531
▁succ	-3532
eds	-3533
▁beg	-3534
hic	-3535
▁Spanish	-3536
▁directed	-3537
▁Tim	-3538
ittee	-3539
▁jan	-3540
▁development	-3541
▁(3	-3542
▁those	-3543
èle	-3544
arth	-3545
▁réalisé	-3546
ateg	-3547
▁Rep	-3548
▁rap	-3549
▁langue	-3550
▁daughter	-3551
ancien	-3552
▁Esp	-3553
▁Hong	-3554
ensus	-3555
uve	-3556
▁Pennsylvan	-3557
▁Politic	-3558
▁Description	-3559
▁Wales	-3560
▁hold	-3561
▁Scotland	-3562
han	-3563
▁Jo	-3564
▁(194	-3565
rd	-3566
▁constru	-3567
▁mount	-3568
▁Web	-3569
▁party	-3570
▁available	-3571
île	-3572
ultural	-3573
13	-3574
▁help	-3575
▁naturel	-3576
▁Lu	-3577
lande	-3578
▁star	-3579
Americ	-3580
▁por	-3581
▁janvier	-3582
aken	-3583
urent	-3584
▁propos	-3585
etts	-3586
ecutive	-3587
▁Common	-3588
▁vidé	-3589
▁exter	-3590
ified	-3591
▁hor	-3592
▁Order	-3593
▁Department	-3594
▁vic	-3595
track	-3596
▁40	-3597
sych	-3598
▁relations	-3599
17	-3600
head	-3601
road	-3602
▁report	-3603
▁diff	-3604
▁chaque	-3605
▁footballer	-3606
board	-3607
▁2018	-3608
▁norm	-3609
iro	-3610
▁mond	-3611
14	-3612
▁Science	-3613
▁market	-3614
▁cast	-3615
▁story	-3616
▁considered	-3617
âtre	-3618
▁singles	-3619
▁Sources	-3620
ela	-3621
bon	-3622
tario	-3623
▁Michel	-3624
▁collection	-3625
SO	-3626
ster	-3627
▁Kent	-3628
istique	-3629
side	-3630
▁Bob	-3631
▁Major	-3632
▁teach	-3633
90	-3634
▁travers	-3635
ider	-3636
achus	-3637
otan	-3638
▁Portug	-3639
▁island	-3640
▁Virginia	-3641
rive	-3642
year	-3643
oine	-3644
otes	-3645
▁cricket	-3646
overnor	-3647
osoph	-3648
▁inform	-3649
▁announced	-3650
onomie	-3651
▁compet	-3652
▁ils	-3653
▁China	-3654
▁features	-3655
▁Québec	-3656
▁Hel	-3657
▁chez	-3658
▁individ	-3659
illed	-3660
▁quelques	-3661
▁Bow	-3662
▁coll	-3663
aye	-3664
▁ir	-3665
ined	-3666
êque	-3667
▁Rom	-3668
▁districts	-3669
iance	-3670
▁Valley	-3671
▁Highway	-3672
▁allow	-3673
airs	-3674
▁structures	-3675
ufact	-3676
iteur	-3677
▁parfois	-3678
▁Wood	-3679
▁Illinois	-3680
▁Mah	-3681
▁Florida	-3682
ja	-3683
▁seat	-3684
▁jud	-3685
labor	-3686
ospital	-3687
ared	-3688
▁Out	-3689
23	-3690
▁occup	-3691
rite	-3692
▁Spr	-3693
rale	-3694
▁intég	-3695
▁ens	-3696
▁compagn	-3697
lit	-3698
▁aud	-3699
▁if	-3700
▁ground	-3701
▁Build	-3702
▁intern	-3703
▁buildings	-3704
ansas	-3705
lab	-3706
▁Norm	-3707
▁Rel	-3708
tex	-3709
▁Bou	-3710
▁Brown	-3711
anth	-3712
▁Pac	-3713
▁Line	-3714
ataille	-3715
▁fusion	-3716
▁1984	-3717
achusetts	-3718
▁Sun	-3719
ising	-3720
▁college	-3721
▁Ces	-3722
▁Jim	-3723
▁Henri	-3724
▁Inc	-3725
▁Premier	-3726
▁colon	-3727
▁Commission	-3728
▁aéri	-3729
▁actor	-3730
▁Biography	-3731
▁producer	-3732
èmes	-3733
quently	-3734
▁marqu	-3735
▁wrote	-3736
▁civil	-3737
▁Service	-3738
iée	-3739
▁Van	-3740
▁observ	-3741
▁military	-3742
▁autom	-3743
▁dim	-3744
▁These	-3745
24	-3746
lang	-3747
▁fact	-3748
▁ly	-3749
▁Ev	-3750
inus	-3751
▁Anc	-3752
▁plantes	-3753
▁make	-3754
▁sat	-3755
▁tax	-3756
▁Hockey	-3757
▁Sy	-3758
▁Dutch	-3759
▁jour	-3760
▁espèce	-3761
▁command	-3762
▁Os	-3763
▁cul	-3764
ero	-3765
▁4,	-3766
▁featured	-3767
▁cô	-3768
▁signed	-3769
▁Si	-3770
▁Old	-3771
ouss	-3772
▁Africa	-3773
ronze	-3774
▁action	-3775
án	-3776
umm	-3777
orary	-3778
▁symb	-3779
ora	-3780
▁mid	-3781
après	-3782
▁right	-3783
heast	-3784
abil	-3785
▁fille	-3786
▁Haw	-3787
▁peuvent	-3788
▁Est	-3789
▁week	-3790
ably	-3791
▁etc	-3792
▁Lim	-3793
▁vidéo	-3794
▁said	-3795
▁Pennsylvania	-3796
oche	-3797
▁2016	-3798
▁Culture	-3799
▁officiel	-3800
▁structure	-3801
lam	-3802
ella	-3803
iné	-3804
tain	-3805
▁Fort	-3806
iana	-3807
▁transport	-3808
▁Italy	-3809
oût	-3810
éraux	-3811
▁Station	-3812
▁Év	-3813
▁half	-3814
▁avril	-3815
▁writer	-3816
▁1.	-3817
well	-3818
usse	-3819
▁even	-3820
▁squ	-3821
anti	-3822
▁Max	-3823
▁court	-3824
▁septembre	-3825
▁Doc	-3826
ethod	-3827
▁("	-3828
▁(16	-3829
▁Empire	-3830
ji	-3831
tr	-3832
26	-3833
éth	-3834
▁Tit	-3835
▁rép	-3836
▁possible	-3837
irm	-3838
▁however	-3839
▁Minister	-3840
change	-3841
umes	-3842
▁Irish	-3843
col	-3844
▁label	-3845
ko	-3846
igned	-3847
▁1950	-3848
▁neigh	-3849
▁certains	-3850
III	-3851
estion	-3852
inese	-3853
▁artists	-3854
ample	-3855
▁project	-3856
▁Assembly	-3857
▁2:	-3858
▁Mid	-3859
inning	-3860
▁dernier	-3861
▁Over	-3862
▁information	-3863
ba	-3864
▁doit	-3865
▁Prix	-3866
embre	-3867
▁Rog	-3868
▁separ	-3869
laced	-3870
▁next	-3871
▁von	-3872
▁Kore	-3873
▁créé	-3874
American	-3875
▁Government	-3876
▁Massachusetts	-3877
▁Corn	-3878
▁sound	-3879
cs	-3880
aters	-3881
▁every	-3882
rel	-3883
▁1987	-3884
▁Commune	-3885
gress	-3886
▁Ox	-3887
▁performed	-3888
▁und	-3889
▁myth	-3890
itaire	-3891
▁nombreux	-3892
ny	-3893
▁System	-3894
erland	-3895
28	-3896
uls	-3897
ways	-3898
▁plant	-3899
see	-3900
▁cop	-3901
▁5,	-3902
rol	-3903
tière	-3904
▁externe	-3905
▁key	-3906
arian	-3907
▁Sav	-3908
▁%),	-3909
times	-3910
orporated	-3911
illy	-3912
▁haut	-3913
play	-3914
BA	-3915
weg	-3916
▁shows	-3917
▁largest	-3918
▁research	-3919
▁compil	-3920
▁Hum	-3921
obile	-3922
ancer	-3923
▁Historic	-3924
ength	-3925
▁Hu	-3926
▁(20	-3927
▁transl	-3928
ètres	-3929
▁pu	-3930
iser	-3931
▁hous	-3932
most	-3933
▁Marie	-3934
▁incre	-3935
▁Ontario	-3936
ror	-3937
zil	-3938
▁Gard	-3939
évrier	-3940
olution	-3941
▁brother	-3942
▁black	-3943
bury	-3944
▁municipalité	-3945
▁Orig	-3946
▁x	-3947
▁supérie	-3948
▁François	-3949
▁Conn	-3950
Th	-3951
antin	-3952
▁venues	-3953
esh	-3954
▁Rou	-3955
▁Carolina	-3956
▁cad	-3957
ftware	-3958
▁southern	-3959
▁Some	-3960
▁1986	-3961
cembre	-3962
▁influ	-3963
▁Minist	-3964
03	-3965
▁1982	-3966
▁conserv	-3967
▁match	-3968
▁création	-3969
▁ice	-3970
▁commence	-3971
entre	-3972
▁Ray	-3973
oney	-3974
▁clubs	-3975
▁prend	-3976
▁complex	-3977
▁juillet	-3978
roit	-3979
▁Hot	-3980
▁way	-3981
▁Since	-3982
▁1983	-3983
▁graph	-3984
▁américaine	-3985
ulf	-3986
▁toute	-3987
▁econom	-3988
Is	-3989
rey	-3990
▁enf	-3991
▁respons	-3992
▁Mem	-3993
ropol	-3994
▁real	-3995
▁consist	-3996
▁insp	-3997
Ang	-3998
▁cél	-3999
▁Elect	-4000
▁president	-4001
▁Im	-4002
lemagne	-4003
▁Cy	-4004
▁owned	-4005
orph	-4006
▁But	-4007
lication	-4008
▁suisse	-4009
awa	-4010
anson	-4011
▁anti	-4012
▁dét	-4013
enz	-4014
rivain	-4015
ship	-4016
45	-4017
titut	-4018
▁center	-4019
▁sch	-4020
▁1976	-4021
27	-4022
aya	-4023
▁premiers	-4024
▁liter	-4025
oviet	-4026
▁format	-4027
▁données	-4028
▁sex	-4029
▁Greek	-4030
▁offer	-4031
▁Gi	-4032
vert	-4033
▁Tenn	-4034
▁Pays	-4035
atiques	-4036
▁comte	-4037
▁étant	-4038
oming	-4039
▁calc	-4040
chester	-4041
aka	-4042
ask	-4043
▁God	-4044
▁Maur	-4045
ership	-4046
▁what	-4047
▁1981	-4048
▁tracks	-4049
▁northern	-4050
▁Argent	-4051
▁Ba	-4052
▁Gh	-4053
▁rend	-4054
ève	-4055
▁Bir	-4056
▁#	-4057
//	-4058
fort	-4059
tien	-4060
adel	-4061
▁parish	-4062
▁surface	-4063
▁2005,	-4064
oma	-4065
▁vit	-4066
▁Blue	-4067
▁signific	-4068
▁nommé	-4069
met	-4070
▁technique	-4071
▁adj	-4072
▁defe	-4073
oted	-4074
▁Imp	-4075
histoire	-4076
lag	-4077
omes	-4078
▁dit	-4079
iche	-4080
lear	-4081
▁Kong	-4082
▁Ak	-4083
▁imm	-4084
▁Lien	-4085
▁Hor	-4086
▁lic	-4087
▁Thé	-4088
bourg	-4089
▁1920	-4090
▁pouvoir	-4091
anga	-4092
ning	-4093
▁divers	-4094
▁source	-4095
▁episode	-4096
▁Tw	-4097
▁Big	-4098
▁ap	-4099
▁conseillers	-4100
▁reb	-4101
▁préf	-4102
▁lies	-4103
▁désigne	-4104
alle	-4105
erne	-4106
▁1979	-4107
▁Liber	-4108
▁awarded	-4109
▁Death	-4110
burgh	-4111
partition	-4112
atory	-4113
iciel	-4114
▁listed	-4115
▁Conseil	-4116
▁tog	-4117
▁1985	-4118
▁administration	-4119
AC	-4120
bi	-4121
▁Ven	-4122
ience	-4123
▁bridge	-4124
▁Cin	-4125
▁Most	-4126
▁Films	-4127
tively	-4128
▁closed	-4129
▁sen	-4130
▁peup	-4131
▁japon	-4132
rary	-4133
▁across	-4134
çon	-4135
énom	-4136
▁Coll	-4137
▁direc	-4138
▁body	-4139
▁gard	-4140
wegian	-4141
occupation	-4142
▁ur	-4143
▁Populated	-4144
://	-4145
▁Bon	-4146
▁Squ	-4147
▁grow	-4148
encont	-4149
▁2006.	-4150
œur	-4151
▁permett	-4152
▁front	-4153
▁How	-4154
suite	-4155
▁baseball	-4156
ective	-4157
ending	-4158
▁Cross	-4159
▁dispar	-4160
▁drums	-4161
▁approximately	-4162
Union	-4163
▁MP	-4164
▁stage	-4165
▁actresses	-4166
oti	-4167
anda	-4168
▁Int	-4169
▁Notable	-4170
▁face	-4171
auv	-4172
ront	-4173
œuvre	-4174
▁continued	-4175
▁différentes	-4176
fl	-4177
▁together	-4178
wan	-4179
▁roy	-4180
▁designed	-4181
▁Es	-4182
zech	-4183
▁Ari	-4184
▁Ohio	-4185
▁IV	-4186
aught	-4187
▁Bab	-4188
▁octobre	-4189
▁Iran	-4190
▁membres	-4191
▁parties	-4192
▁champion	-4193
uge	-4194
establ	-4195
▁surn	-4196
igr	-4197
▁août	-4198
▁Jud	-4199
▁Pers	-4200
▁working	-4201
▁Mu	-4202
used	-4203
▁limit	-4204
iger	-4205
▁Wil	-4206
inces	-4207
▁signifie	-4208
FA	-4209
aug	-4210
▁replaced	-4211
▁bou	-4212
▁écrit	-4213
▁Chinese	-4214
rup	-4215
▁éd	-4216
▁Haute	-4217
▁Isra	-4218
▁Ast	-4219
athém	-4220
▁sent	-4221
▁Edward	-4222
▁Missouri	-4223
acy	-4224
known	-4225
heim	-4226
Xe	-4227
▁généralement	-4228
ager	-4229
▁paint	-4230
▁missing	-4231
▁Two	-4232
▁Off	-4233
▁“	-4234
éon	-4235
lain	-4236
▁Michigan	-4237
▁minutes	-4238
▁corps	-4239
atif	-4240
kson	-4241
pro	-4242
▁piè	-4243
▁Chap	-4244
29	-4245
dam	-4246
my	-4247
▁Berlin	-4248
▁FC	-4249
▁élé	-4250
▁Stat	-4251
ogne	-4252
▁Santa	-4253
▁Norwegian	-4254
▁Dép	-4255
▁Cou	-4256
▁free	-4257
▁Mexico	-4258
▁friend	-4259
bit	-4260
▁Jack	-4261
vey	-4262
▁Up	-4263
▁prac	-4264
▁product	-4265
orie	-4266
itary	-4267
En	-4268
asy	-4269
▁without	-4270
je	-4271
▁Mill	-4272
▁low	-4273
ige	-4274
back	-4275
▁2007,	-4276
ii	-4277
ases	-4278
▁diss	-4279
▁décembre	-4280
▁Die	-4281
érature	-4282
IS	-4283
▁ban	-4284
▁News	-4285
▁Vers	-4286
▁review	-4287
con	-4288
ured	-4289
▁codes	-4290
▁take	-4291
▁carte	-4292
énements	-4293
▁suff	-4294
▁italien	-4295
▁Albums	-4296
osa	-4297
▁institution	-4298
▁Administration	-4299
wealth	-4300
▁2015,	-4301
▁championship	-4302
yer	-4303
rement	-4304
▁recogn	-4305
▁1974	-4306
iga	-4307
uts	-4308
apers	-4309
▁altern	-4310
▁Philippe	-4311
anger	-4312
mont	-4313
▁pot	-4314
▁financ	-4315
▁Georgia	-4316
55	-4317
wer	-4318
ither	-4319
▁Turkey	-4320
elling	-4321
▁Found	-4322
▁Soviet	-4323
▁results	-4324
▁2.	-4325
▁see	-4326
▁degree	-4327
▁transfer	-4328
▁Brazil	-4329
▁According	-4330
gg	-4331
▁BBC	-4332
▁surv	-4333
▁light	-4334
can	-4335
▁peint	-4336
▁pur	-4337
▁tard	-4338
▁Baseball	-4339
unes	-4340
▁Sand	-4341
▁install	-4342
▁2017	-4343
hib	-4344
▁parts	-4345
▁manufact	-4346
▁Czech	-4347
lim	-4348
▁ball	-4349
organ	-4350
▁spécial	-4351
▁mouv	-4352
▁subs	-4353
udd	-4354
onie	-4355
HL	-4356
ario	-4357
▁above	-4358
▁white	-4359
olis	-4360
▁win	-4361
▁union	-4362
▁Conserv	-4363
▁rencont	-4364
06	-4365
▁seven	-4366
▁board	-4367
onia	-4368
▁card	-4369
oux	-4370
vis	-4371
▁USA	-4372
▁février	-4373
▁Commonwealth	-4374
osaur	-4375
▁caus	-4376
▁communauté	-4377
ato	-4378
eld	-4379
▁beh	-4380
ronic	-4381
chie	-4382
naire	-4383
▁foot	-4384
ector	-4385
▁article	-4386
▁meille	-4387
▁recher	-4388
aph	-4389
▁course	-4390
▁Personal	-4391
kins	-4392
▁past	-4393
▁although	-4394
75	-4395
▁Bang	-4396
▁reç	-4397
range	-4398
▁Annexes	-4399
▁).	-4400
▁ke	-4401
▁performance	-4402
fe	-4403
ened	-4404
▁mission	-4405
▁model	-4406
▁standard	-4407
oto	-4408
aître	-4409
▁others	-4410
inet	-4411
▁Southern	-4412
▁fav	-4413
▁2004,	-4414
▁function	-4415
aterial	-4416
▁attended	-4417
▁1972	-4418
▁laun	-4419
▁adop	-4420
ilities	-4421
▁Sainte	-4422
▁capital	-4423
rés	-4424
urer	-4425
▁lost	-4426
▁contains	-4427
isco	-4428
▁Minn	-4429
istiques	-4430
▁Islands	-4431
▁télévisée	-4432
▁Cer	-4433
▁Ha	-4434
wick	-4435
▁fruit	-4436
▁règne	-4437
▁%).	-4438
▁operated	-4439
▁Log	-4440
▁platform	-4441
▁novembre	-4442
▁ran	-4443
48	-4444
ceed	-4445
letics	-4446
▁claim	-4447
▁1977	-4448
ker	-4449
▁Back	-4450
Saint	-4451
aign	-4452
neur	-4453
▁mic	-4454
▁appelé	-4455
duit	-4456
▁lac	-4457
▁2021	-4458
▁silver	-4459
uré	-4460
▁less	-4461
▁var	-4462
▁Communes	-4463
mann	-4464
olas	-4465
istics	-4466
language	-4467
▁frère	-4468
lements	-4469
35	-4470
lah	-4471
▁once	-4472
▁Navy	-4473
▁case	-4474
▁female	-4475
▁accomp	-4476
▁mach	-4477
nel	-4478
▁Cra	-4479
▁Lee	-4480
▁Guerre	-4481
▁usually	-4482
hema	-4483
▁viv	-4484
vement	-4485
▁Chine	-4486
islature	-4487
▁tant	-4488
▁Former	-4489
▁européenne	-4490
▁pa	-4491
aven	-4492
▁bronze	-4493
mark	-4494
tead	-4495
▁adapt	-4496
yo	-4497
ourt	-4498
acées	-4499
▁county	-4500
▁retired	-4501
▁Bridge	-4502
▁successful	-4503
▁box	-4504
▁mean	-4505
▁militaire	-4506
ked	-4507
▁1978	-4508
▁farm	-4509
éch	-4510
uest	-4511
▁Jer	-4512
▁porte	-4513
bass	-4514
▁Live	-4515
▁femme	-4516
▁Places	-4517
▁!	-4518
▁Arab	-4519
▁rank	-4520
▁runs	-4521
mo	-4522
arc	-4523
▁Ep	-4524
erst	-4525
▁connu	-4526
▁competition	-4527
-201	-4528
▁descent	-4529
AS	-4530
▁Lor	-4531
▁Post	-4532
▁metal	-4533
bl	-4534
▁2008,	-4535
inger	-4536
▁1968	-4537
▁aver	-4538
▁effect	-4539
▁présente	-4540
▁Tok	-4541
▁sac	-4542
▁taux	-4543
mon	-4544
▁capac	-4545
ocratic	-4546
▁Jus	-4547
▁kil	-4548
▁days	-4549
79	-4550
▁let	-4551
▁droit	-4552
▁produit	-4553
▁formation	-4554
jects	-4555
▁i	-4556
omet	-4557
igital	-4558
▁rapport	-4559
▁Enter	-4560
▁Gallery	-4561
▁deven	-4562
bec	-4563
▁private	-4564
▁introduced	-4565
terre	-4566
▁change	-4567
▁changed	-4568
▁cinq	-4569
▁Victoria	-4570
▁chap	-4571
▁Ban	-4572
▁1973	-4573
▁longue	-4574
▁making	-4575
▁composé	-4576
▁Cri	-4577
▁propri	-4578
imp	-4579
ergy	-4580
▁Han	-4581
▁association	-4582
▁Creek	-4583
▁Tax	-4584
▁comprend	-4585
▁staff	-4586
▁Swedish	-4587
▁langues	-4588
▁ress	-4589
▁Committee	-4590
▁féd	-4591
▁latin	-4592
▁Bell	-4593
▁roya	-4594
▁Daniel	-4595
▁Anton	-4596
▁diffic	-4597
▁Lord	-4598
▁Lar	-4599
▁mois	-4600
▁abs	-4601
raine	-4602
▁artist	-4603
itime	-4604
▁throughout	-4605
bles	-4606
▁uses	-4607
58	-4608
▁double	-4609
don	-4610
enth	-4611
▁toutes	-4612
eur	-4613
▁Wild	-4614
hn	-4615
▁Band	-4616
▁Water	-4617
▁chin	-4618
▁seasons	-4619
▁Young	-4620
rot	-4621
ients	-4622
lie	-4623
self	-4624
unct	-4625
▁municipalities	-4626
▁range	-4627
▁industri	-4628
▁remained	-4629
esota	-4630
▁Power	-4631
▁disestabl	-4632
▁Aff	-4633
▁existe	-4634
atch	-4635
gra	-4636
▁Way	-4637
tienne	-4638
▁Israel	-4639
▁Social	-4640
▁edition	-4641
tery	-4642
èrent	-4643
▁Under	-4644
▁genus	-4645
▁fra	-4646
▁mand	-4647
▁donné	-4648
▁Game	-4649
▁Time	-4650
▁coast	-4651
▁bataille	-4652
▁fil	-4653
▁zones	-4654
▁active	-4655
▁Theatre	-4656
▁natural	-4657
▁mise	-4658
▁créée	-4659
▁voy	-4660
toire	-4661
▁does	-4662
▁contemp	-4663
▁pil	-4664
▁duc	-4665
▁politicians	-4666
ems	-4667
▁Mr	-4668
ège	-4669
▁font	-4670
▁Ra	-4671
▁Député	-4672
eland	-4673
▁young	-4674
▁trop	-4675
▁généraux	-4676
▁Japon	-4677
▁Stan	-4678
▁Songs	-4679
▁minor	-4680
▁ministre	-4681
▁taken	-4682
▁far	-4683
▁never	-4684
▁Ca	-4685
▁placed	-4686
▁ensuite	-4687
▁Color	-4688
ying	-4689
ken	-4690
▁31	-4691
▁Head	-4692
▁Prince	-4693
▁distance	-4694
▁view	-4695
▁location	-4696
aves	-4697
▁Oper	-4698
▁élu	-4699
▁subse	-4700
▁situated	-4701
▁broadcast	-4702
▁Code	-4703
▁bois	-4704
▁cred	-4705
▁previously	-4706
▁Congress	-4707
Europ	-4708
▁EP	-4709
get	-4710
▁réc	-4711
▁1975	-4712
agit	-4713
▁1971	-4714
▁ship	-4715
▁réseau	-4716
France	-4717
▁domin	-4718
ental	-4719
▁Rem	-4720
▁Down	-4721
▁Bernard	-4722
▁control	-4723
alisation	-4724
▁vir	-4725
▁Lors	-4726
▁western	-4727
gment	-4728
▁nombreuses	-4729
anie	-4730
éral	-4731
▁vale	-4732
▁Polish	-4733
▁further	-4734
▁scul	-4735
▁reconn	-4736
▁serving	-4737
quer	-4738
cé	-4739
igle	-4740
osph	-4741
ift	-4742
▁Cr	-4743
▁Good	-4744
▁Open	-4745
▁sit	-4746
uisse	-4747
umber	-4748
▁(189	-4749
▁though	-4750
iding	-4751
▁6,	-4752
itive	-4753
ailed	-4754
▁polic	-4755
36	-4756
▁Far	-4757
▁Mot	-4758
▁example	-4759
▁60	-4760
▁While	-4761
▁Minnesota	-4762
no	-4763
omo	-4764
oupage	-4765
▁2010,	-4766
ova	-4767
▁finished	-4768
▁Conf	-4769
lant	-4770
▁certain	-4771
Est	-4772
ulty	-4773
▁lett	-4774
▁Middle	-4775
aps	-4776
thur	-4777
▁Britain	-4778
▁test	-4779
Le	-4780
hol	-4781
▁emb	-4782
ronom	-4783
▁Secret	-4784
▁Further	-4785
▁restaur	-4786
wa	-4787
▁sus	-4788
▁Bost	-4789
▁bande	-4790
▁maire	-4791
▁material	-4792
▁forces	-4793
▁musicians	-4794
▁personnel	-4795
▁Dun	-4796
dire	-4797
▁retrou	-4798
47	-4799
har	-4800
auteur	-4801
ender	-4802
▁Spe	-4803
▁bank	-4804
▁attemp	-4805
At	-4806
▁htt	-4807
▁illust	-4808
ends	-4809
▁Winn	-4810
RC	-4811
▁good	-4812
▁Steph	-4813
▁Journal	-4814
onto	-4815
▁conv	-4816
▁brand	-4817
▁Card	-4818
ES	-4819
▁deuxième	-4820
▁Francisco	-4821
▁aur	-4822
émie	-4823
▁Junior	-4824
▁parc	-4825
ât	-4826
▁Hy	-4827
▁mur	-4828
▁Series	-4829
ima	-4830
ensis	-4831
▁fais	-4832
▁rej	-4833
house	-4834
▁Jones	-4835
iquement	-4836
adelph	-4837
▁mathém	-4838
▁loi	-4839
▁(190	-4840
▁Mike	-4841
istic	-4842
▁independent	-4843
▁Lo	-4844
▁lake	-4845
▁Video	-4846
VD	-4847
seud	-4848
omp	-4849
abri	-4850
▁seul	-4851
▁Broad	-4852
▁followed	-4853
Se	-4854
▁Spain	-4855
▁monuments	-4856
▁étaient	-4857
▁Poland	-4858
▁McC	-4859
itted	-4860
▁coaches	-4861
▁rôle	-4862
▁force	-4863
▁Depuis	-4864
▁178	-4865
▁Bru	-4866
emet	-4867
verse	-4868
▁découver	-4869
bal	-4870
▁XV	-4871
–201	-4872
▁Ram	-4873
▁jur	-4874
▁orient	-4875
arp	-4876
▁Dev	-4877
▁Book	-4878
▁seen	-4879
▁Baron	-4880
bes	-4881
▁wid	-4882
▁dipl	-4883
▁Intern	-4884
▁nouvel	-4885
gor	-4886
▁ge	-4887
▁eight	-4888
37	-4889
ucky	-4890
étés	-4891
▁zone	-4892
gyp	-4893
▁développement	-4894
illon	-4895
▁er	-4896
▁esc	-4897
▁botan	-4898
album	-4899
based	-4900
▁Home	-4901
ymn	-4902
▁Personnalités	-4903
▁Bad	-4904
▁jou	-4905
▁Final	-4906
▁mother	-4907
anne	-4908
▁piano	-4909
▁Dak	-4910
▁max	-4911
▁Civil	-4912
leterre	-4913
–199	-4914
shire	-4915
ophone	-4916
▁interest	-4917
▁simp	-4918
▁himself	-4919
ila	-4920
▁means	-4921
▁sport	-4922
▁sout	-4923
▁mesure	-4924
▁lit	-4925
▁1940	-4926
izations	-4927
Af	-4928
oli	-4929
▁Dar	-4930
ragon	-4931
née	-4932
agement	-4933
▁Research	-4934
▁fix	-4935
▁editor	-4936
▁chem	-4937
▁cinéma	-4938
▁blanc	-4939
▁proc	-4940
abeth	-4941
▁Matt	-4942
▁entire	-4943
▁Ville	-4944
▁Sciences	-4945
▁capitale	-4946
▁Russia	-4947
▁figure	-4948
islative	-4949
▁hit	-4950
▁2009,	-4951
▁instrument	-4952
▁Times	-4953
▁names	-4954
rimoine	-4955
▁network	-4956
ondissements	-4957
ava	-4958
ori	-4959
rin	-4960
letes	-4961
édition	-4962
▁Kir	-4963
▁collabor	-4964
▁1964	-4965
▁Barb	-4966
▁reading	-4967
ão	-4968
ali	-4969
aume	-4970
acters	-4971
▁close	-4972
▁1969	-4973
▁Plan	-4974
▁hard	-4975
▁Force	-4976
▁Econom	-4977
▁Événements	-4978
▁communities	-4979
▁nuc	-4980
dess	-4981
▁inj	-4982
▁Bank	-4983
▁Team	-4984
jours	-4985
▁jours	-4986
▁media	-4987
▁Loire	-4988
▁Philadelph	-4989
▁sein	-4990
▁Oxford	-4991
gé	-4992
▁Boston	-4993
poration	-4994
▁Sund	-4995
termin	-4996
▁2004.	-4997
issement	-4998
chan	-4999
nelle	-5000
esc	-5001
▁fort	-5002
▁précéd	-5003
raire	-5004
atoire	-5005
▁psych	-5006
▁1967	-5007
▁participation	-5008
46	-5009
▁35	-5010
▁XI	-5011
▁mondiale	-5012
▁compagnie	-5013
anding	-5014
▁donne	-5015
▁Provincial	-5016
▁Cre	-5017
▁represented	-5018
▁fire	-5019
▁Cass	-5020
▁Ken	-5021
▁2005.	-5022
▁Little	-5023
auche	-5024
▁Sport	-5025
▁durant	-5026
▁surround	-5027
chen	-5028
fiction	-5029
Emp	-5030
▁10,	-5031
▁Production	-5032
▁1833	-5033
▁human	-5034
▁prison	-5035
▁contract	-5036
▁Der	-5037
▁Domin	-5038
78	-5039
▁trains	-5040
seur	-5041
▁afin	-5042
▁Population	-5043
emetery	-5044
▁length	-5045
▁personal	-5046
-199	-5047
▁épouse	-5048
▁Entre	-5049
▁Patronyme	-5050
ged	-5051
chestra	-5052
39	-5053
▁bur	-5054
ür	-5055
▁Prize	-5056
▁Eastern	-5057
▁royaume	-5058
▁Ju	-5059
rast	-5060
▁fish	-5061
▁reste	-5062
bro	-5063
▁7,	-5064
uilles	-5065
▁conseil	-5066
▁villages	-5067
▁mem	-5068
roll	-5069
iaire	-5070
ussion	-5071
▁caractér	-5072
▁Guy	-5073
▁Ses	-5074
▁wood	-5075
▁Board	-5076
▁famous	-5077
▁Cambridge	-5078
▁Tay	-5079
enger	-5080
▁concern	-5081
▁disting	-5082
▁Cop	-5083
▁drama	-5084
▁effet	-5085
▁rivière	-5086
▁police	-5087
▁Geography	-5088
ving	-5089
▁reach	-5090
▁Dam	-5091
▁earn	-5092
▁arriv	-5093
▁spect	-5094
ennis	-5095
▁atte	-5096
▁meet	-5097
overs	-5098
utt	-5099
▁bin	-5100
▁extra	-5101
▁passe	-5102
▁purch	-5103
▁manager	-5104
aît	-5105
même	-5106
▁distribution	-5107
▁exc	-5108
▁2000,	-5109
▁Airport	-5110
▁(5	-5111
▁space	-5112
▁tête	-5113
▁inters	-5114
di	-5115
▁dél	-5116
temps	-5117
mission	-5118
▁leader	-5119
▁hyd	-5120
▁studied	-5121
▁cause	-5122
▁Sab	-5123
▁2003,	-5124
▁Article	-5125
 –	-5126
▁Pass	-5127
44	-5128
sel	-5129
andre	-5130
▁Andrew	-5131
▁Military	-5132
▁End	-5133
▁Seine	-5134
▁philosoph	-5135
AM	-5136
rages	-5137
▁issu	-5138
▁Ok	-5139
▁newspaper	-5140
▁romain	-5141
▁highway	-5142
▁versions	-5143
▁Tod	-5144
encies	-5145
▁winning	-5146
▁Steve	-5147
alys	-5148
▁Anth	-5149
▁superfic	-5150
68	-5151
▁rugby	-5152
▁Lac	-5153
Pierre	-5154
▁2014,	-5155
▁Engine	-5156
▁Queen	-5157
▁genres	-5158
arily	-5159
▁added	-5160
▁Alf	-5161
erous	-5162
▁Inde	-5163
▁find	-5164
▁Az	-5165
▁heav	-5166
bs	-5167
essee	-5168
▁trava	-5169
empereur	-5170
amin	-5171
▁data	-5172
éph	-5173
▁Conc	-5174
▁Mais	-5175
▁assistant	-5176
▁particulier	-5177
38	-5178
▁nob	-5179
,"	-5180
▁Jon	-5181
▁Méd	-5182
▁étud	-5183
ador	-5184
▁Rod	-5185
▁canad	-5186
▁Fa	-5187
▁batt	-5188
ghts	-5189
▁Ash	-5190
▁Although	-5191
kes	-5192
▁Ball	-5193
quent	-5194
▁serve	-5195
▁Sea	-5196
▁(188	-5197
▁leading	-5198
ills	-5199
quelle	-5200
imum	-5201
▁gal	-5202
▁cycl	-5203
▁Queens	-5204
▁Mand	-5205
ieut	-5206
▁Coast	-5207
▁Prote	-5208
▁indic	-5209
orter	-5210
▁press	-5211
inct	-5212
▁Tam	-5213
▁Inf	-5214
▁eastern	-5215
aria	-5216
▁1966	-5217
▁Jewish	-5218
▁personnage	-5219
una	-5220
town	-5221
▁programme	-5222
kh	-5223
▁clim	-5224
Europe	-5225
yan	-5226
▁décl	-5227
▁1930	-5228
ellation	-5229
Ass	-5230
▁Four	-5231
▁chair	-5232
▁Buildings	-5233
add	-5234
ocr	-5235
▁Ru	-5236
lied	-5237
elled	-5238
gu	-5239
uages	-5240
▁Claude	-5241
▁sortie	-5242
▁(,	-5243
▁outs	-5244
▁either	-5245
▁Indiana	-5246
▁months	-5247
win	-5248
▁Hear	-5249
autre	-5250
▁reached	-5251
iscons	-5252
▁Chief	-5253
tifs	-5254
▁foc	-5255
▁fourth	-5256
▁Jackson	-5257
▁discover	-5258
–0	-5259
▁Child	-5260
▁Democratic	-5261
imal	-5262
▁Tennessee	-5263
▁footballers	-5264
jets	-5265
atus	-5266
▁Rés	-5267
▁Hal	-5268
▁Autres	-5269
▁Toronto	-5270
▁average	-5271
▁recording	-5272
▁Night	-5273
▁(4	-5274
oyen	-5275
aily	-5276
igneur	-5277
▁petite	-5278
▁backing	-5279
▁Area	-5280
▁Jr	-5281
▁tournament	-5282
▁Bourg	-5283
yg	-5284
ridges	-5285
BS	-5286
▁Zh	-5287
▁ISO	-5288
▁coup	-5289
▁Books	-5290
▁Nap	-5291
▁stri	-5292
▁cet	-5293
oper	-5294
▁Bol	-5295
▁fund	-5296
▁Bet	-5297
▁Lin	-5298
▁van	-5299
Ac	-5300
▁sav	-5301
▁Later	-5302
▁winners	-5303
▁Register	-5304
▁Syd	-5305
▁Politique	-5306
▁2002,	-5307
▁médec	-5308
éf	-5309
kin	-5310
▁laquelle	-5311
▁2001,	-5312
▁Basketball	-5313
AA	-5314
▁rh	-5315
▁Occ	-5316
▁Nations	-5317
lementary	-5318
▁travel	-5319
▁sometimes	-5320
33	-5321
▁nomin	-5322
▁projet	-5323
verg	-5324
▁Dor	-5325
onneur	-5326
▁Represent	-5327
▁BC	-5328
isconsin	-5329
▁renamed	-5330
OS	-5331
rison	-5332
76	-5333
▁Cost	-5334
ensemble	-5335
▁Hung	-5336
rastruct	-5337
▁Battle	-5338
▁strong	-5339
tified	-5340
▁awards	-5341
59	-5342
▁Kentucky	-5343
▁Princ	-5344
▁fréqu	-5345
▁Pas	-5346
▁Sym	-5347
▁vehic	-5348
As	-5349
ER	-5350
oys	-5351
▁Jos	-5352
▁bound	-5353
otion	-5354
▁2011,	-5355
▁Pacific	-5356
▁noir	-5357
▁poet	-5358
▁charge	-5359
▁Williams	-5360
▁jeune	-5361
▁Ul	-5362
writer	-5363
▁consists	-5364
▁Conseillers	-5365
▁organization	-5366
▁liv	-5367
▁commission	-5368
▁jazz	-5369
iting	-5370
teen	-5371
▁Plus	-5372
▁Family	-5373
agon	-5374
▁villes	-5375
▁Produc	-5376
level	-5377
ologue	-5378
ordin	-5379
▁king	-5380
▁Sem	-5381
▁Cham	-5382
▁Dakota	-5383
▁mostly	-5384
▁Jeff	-5385
agu	-5386
▁gave	-5387
▁training	-5388
▁Det	-5389
▁ouv	-5390
bourne	-5391
▁summer	-5392
▁grecque	-5393
bar	-5394
▁80	-5395
▁det	-5396
▁eventually	-5397
▁news	-5398
▁Media	-5399
atriate	-5400
▁espagn	-5401
▁nearby	-5402
▁joueur	-5403
▁château	-5404
▁domaine	-5405
tiqu	-5406
▁ast	-5407
▁publié	-5408
▁highest	-5409
▁coun	-5410
onnement	-5411
▁sépar	-5412
▁cathol	-5413
▁den	-5414
▁Schools	-5415
▁towns	-5416
▁personnes	-5417
occer	-5418
▁Field	-5419
▁Georges	-5420
▁Program	-5421
▁ant	-5422
▁chanson	-5423
. 	-5424
▁pape	-5425
▁Mosc	-5426
▁must	-5427
bell	-5428
▁communic	-5429
▁util	-5430
▁aband	-5431
▁lived	-5432
▁Personnel	-5433
épend	-5434
▁Three	-5435
▁electric	-5436
▁Philadelphia	-5437
56	-5438
war	-5439
▁Tar	-5440
velopment	-5441
▁Nouvelle	-5442
▁utilisée	-5443
▁sources	-5444
▁toujours	-5445
▁continu	-5446
▁Suisse	-5447
▁),	-5448
wing	-5449
onse	-5450
▁principalement	-5451
▁Jeu	-5452
▁Asia	-5453
▁chim	-5454
ributed	-5455
ètre	-5456
▁env	-5457
▁fif	-5458
▁Avenue	-5459
▁propre	-5460
▁primary	-5461
▁ensemble	-5462
tile	-5463
▁dér	-5464
▁Wisconsin	-5465
▁télévision	-5466
Éc	-5467
▁Phot	-5468
▁word	-5469
ropolitan	-5470
▁formerly	-5471
▁1965	-5472
▁fondée	-5473
▁dam	-5474
▁Champ	-5475
aki	-5476
▁8,	-5477
utilis	-5478
▁Fac	-5479
▁simple	-5480
▁suivante	-5481
▁Sax	-5482
▁500	-5483
▁Pap	-5484
▁Uk	-5485
▁dès	-5486
ultan	-5487
▁autour	-5488
oit	-5489
▁Fish	-5490
▁Bah	-5491
istance	-5492
▁branch	-5493
▁Ott	-5494
aissances	-5495
▁Ret	-5496
▁fed	-5497
▁types	-5498
▁affili	-5499
abitants	-5500
77	-5501
▁mouvement	-5502
her	-5503
êts	-5504
▁surf	-5505
iennes	-5506
▁Work	-5507
▁Sydney	-5508
▁unique	-5509
▁Ot	-5510
▁mis	-5511
▁Cel	-5512
anning	-5513
anted	-5514
▁Do	-5515
ás	-5516
▁Joe	-5517
issant	-5518
mus	-5519
with	-5520
▁solo	-5521
aval	-5522
▁academ	-5523
▁Alexander	-5524
medi	-5525
térieur	-5526
▁industry	-5527
▁Rac	-5528
▁screen	-5529
abb	-5530
las	-5531
▁Francis	-5532
▁attack	-5533
▁travail	-5534
▁Canton	-5535
49	-5536
▁Marine	-5537
bus	-5538
nent	-5539
▁away	-5540
▁compilation	-5541
bra	-5542
owers	-5543
rence	-5544
▁vice	-5545
▁Série	-5546
▁regular	-5547
ells	-5548
▁alph	-5549
ructed	-5550
▁graduated	-5551
▁Roger	-5552
▁certaines	-5553
▁Lam	-5554
▁Nom	-5555
▁différents	-5556
▁terre	-5557
oie	-5558
▁traditional	-5559
▁comedy	-5560
lications	-5561
énie	-5562
âce	-5563
▁Raj	-5564
▁logiciel	-5565
▁characters	-5566
53	-5567
▁my	-5568
époque	-5569
▁Corporation	-5570
Cal	-5571
▁Born	-5572
▁should	-5573
retagne	-5574
▁Grande	-5575
▁plante	-5576
▁architect	-5577
alo	-5578
▁0.	-5579
Re	-5580
itage	-5581
ustral	-5582
▁maison	-5583
▁mère	-5584
viation	-5585
▁complete	-5586
igue	-5587
▁sciences	-5588
▁Sat	-5589
▁miles	-5590
aged	-5591
▁Distribution	-5592
ël	-5593
▁Writ	-5594
▁Micro	-5595
▁compris	-5596
rome	-5597
▁calend	-5598
▁software	-5599
église	-5600
▁Nether	-5601
▁suivant	-5602
▁Belgique	-5603
▁here	-5604
66	-5605
inst	-5606
▁Bla	-5607
▁Johnson	-5608
ettes	-5609
ément	-5610
▁upon	-5611
▁2012,	-5612
▁states	-5613
▁Network	-5614
eum	-5615
▁decl	-5616
▁whose	-5617
▁livre	-5618
▁running	-5619
fam	-5620
▁tot	-5621
▁cong	-5622
▁programming	-5623
▁Cub	-5624
▁itself	-5625
ands	-5626
▁lower	-5627
▁vient	-5628
▁Société	-5629
▁provided	-5630
teg	-5631
▁2007.	-5632
cht	-5633
idi	-5634
▁novels	-5635
▁involved	-5636
armée	-5637
orb	-5638
uilla	-5639
sen	-5640
▁Arthur	-5641
▁Director	-5642
▁populaire	-5643
owa	-5644
rated	-5645
opsis	-5646
▁dial	-5647
tention	-5648
▁Of	-5649
onst	-5650
outes	-5651
▁serves	-5652
omer	-5653
division	-5654
▁elections	-5655
▁least	-5656
indre	-5657
▁Colorado	-5658
▁5:	-5659
▁Alb	-5660
▁satell	-5661
▁possède	-5662
▁Champion	-5663
annes	-5664
seign	-5665
▁airc	-5666
▁matches	-5667
▁litt	-5668
▁agricoles	-5669
esseur	-5670
32	-5671
iang	-5672
allen	-5673
▁feuilles	-5674
PS	-5675
Ital	-5676
▁mom	-5677
▁rue	-5678
▁scène	-5679
▁économ	-5680
▁Country	-5681
▁mountain	-5682
▁border	-5683
AR	-5684
▁Ah	-5685
iner	-5686
▁Show	-5687
▁Light	-5688
▁chart	-5689
▁remplac	-5690
):	-5691
▁Internet	-5692
▁historique	-5693
cles	-5694
▁181	-5695
▁Earl	-5696
▁Simon	-5697
▁achie	-5698
rant	-5699
▁lat	-5700
onna	-5701
urity	-5702
ieutenant	-5703
42	-5704
▁Bulgar	-5705
▁annual	-5706
▁aircraft	-5707
ésident	-5708
▁Business	-5709
▁semi	-5710
▁sera	-5711
▁speed	-5712
▁km	-5713
réd	-5714
▁1959	-5715
▁Portugal	-5716
▁Slov	-5717
▁census	-5718
▁episodes	-5719
▁Transportation	-5720
âge	-5721
▁dr	-5722
▁Tal	-5723
▁().	-5724
ailles	-5725
''	-5726
allée	-5727
▁Musique	-5728
▁régions	-5729
/19	-5730
illeurs	-5731
▁conditions	-5732
▁corn	-5733
▁libre	-5734
▁urban	-5735
▁Sweden	-5736
▁Taylor	-5737
▁fleurs	-5738
▁living	-5739
▁Governor	-5740
▁superficie	-5741
CL	-5742
▁records	-5743
▁classification	-5744
▁dix	-5745
▁museum	-5746
ability	-5747
▁settlement	-5748
▁numerous	-5749
-20	-5750
▁bâ	-5751
▁bon	-5752
Empire	-5753
▁Moh	-5754
57	-5755
▁hot	-5756
▁Place	-5757
▁Follow	-5758
▁Pen	-5759
azines	-5760
▁respec	-5761
▁Patrick	-5762
▁journ	-5763
ologist	-5764
▁combat	-5765
▁sister	-5766
▁Nob	-5767
▁mode	-5768
▁killed	-5769
▁Fame	-5770
incorporated	-5771
▁Mol	-5772
▁Kansas	-5773
▁secret	-5774
idential	-5775
▁computer	-5776
once	-5777
ilton	-5778
▁sites	-5779
▁Royaume	-5780
▁Div	-5781
▁Sound	-5782
▁systems	-5783
▁peak	-5784
▁spent	-5785
▁pay	-5786
▁nécess	-5787
▁extended	-5788
▁Latin	-5789
read	-5790
▁magn	-5791
▁Asian	-5792
▁issue	-5793
▁Labour	-5794
▁Record	-5795
▁célè	-5796
▁synth	-5797
▁Health	-5798
edia	-5799
▁Anne	-5800
▁almost	-5801
bach	-5802
▁possib	-5803
lines	-5804
▁1900	-5805
▁Lady	-5806
▁Beach	-5807
▁Stadium	-5808
▁related	-5809
zona	-5810
▁gir	-5811
gy	-5812
ho	-5813
elt	-5814
former	-5815
▁franc	-5816
▁Mountain	-5817
aro	-5818
▁Gro	-5819
▁1948	-5820
▁council	-5821
▁cab	-5822
▁perc	-5823
▁Regional	-5824
▁Serb	-5825
▁That	-5826
▁troisième	-5827
aga	-5828
ami	-5829
▁person	-5830
▁nouvelles	-5831
▁professor	-5832
▁Indust	-5833
ièrement	-5834
▁dessinée	-5835
anges	-5836
▁middle	-5837
▁arrang	-5838
▁Dec	-5839
aucoup	-5840
▁campaign	-5841
arde	-5842
onic	-5843
▁belie	-5844
34	-5845
▁Merc	-5846
▁belge	-5847
▁Netherlands	-5848
édie	-5849
ateau	-5850
ologne	-5851
▁liées	-5852
54	-5853
▁sort	-5854
CO	-5855
▁dat	-5856
▁concept	-5857
–9	-5858
like	-5859
réal	-5860
Insee	-5861
▁1963	-5862
ds	-5863
état	-5864
▁Master	-5865
▁circons	-5866
NA	-5867
-0	-5868
oke	-5869
clud	-5870
▁Mov	-5871
▁schol	-5872
▁Kenn	-5873
▁champ	-5874
jec	-5875
▁you	-5876
rient	-5877
▁Stock	-5878
▁management	-5879
▁Windows	-5880
▁Économie	-5881
▁î	-5882
▁Their	-5883
▁status	-5884
▁roles	-5885
oid	-5886
pped	-5887
▁Deux	-5888
▁Islam	-5889
74	-5890
èque	-5891
▁countries	-5892
clus	-5893
▁japonais	-5894
▁regroup	-5895
zen	-5896
nexe	-5897
▁Urban	-5898
▁don	-5899
▁1999,	-5900
▁grands	-5901
▁Us	-5902
▁chief	-5903
▁établ	-5904
64	-5905
ilson	-5906
ureau	-5907
▁som	-5908
adémie	-5909
▁honor	-5910
▁Lis	-5911
▁study	-5912
▁Development	-5913
dre	-5914
▁estim	-5915
aks	-5916
▁need	-5917
▁remains	-5918
▁Toponymie	-5919
ende	-5920
▁Lind	-5921
▁Rober	-5922
▁FI	-5923
▁Haut	-5924
din	-5925
▁master	-5926
▁festival	-5927
▁rights	-5928
▁André	-5929
hem	-5930
▁color	-5931
▁progress	-5932
▁Medalists	-5933
akh	-5934
▁Human	-5935
▁writing	-5936
ît	-5937
itter	-5938
▁arts	-5939
▁trade	-5940
▁units	-5941
▁Office	-5942
gn	-5943
onte	-5944
ingham	-5945
▁regard	-5946
cha	-5947
▁12,	-5948
▁swim	-5949
aturing	-5950
lacement	-5951
▁meaning	-5952
▁2013,	-5953
▁Entertain	-5954
rét	-5955
▁Ts	-5956
▁occur	-5957
▁health	-5958
▁prince	-5959
▁enfants	-5960
living	-5961
▁Works	-5962
▁whe	-5963
▁Fair	-5964
▁Historique	-5965
▁Aud	-5966
▁plays	-5967
▁mythologie	-5968
▁Mas	-5969
▁Som	-5970
▁Brian	-5971
▁Genre	-5972
▁organis	-5973
www	-5974
eman	-5975
Ouest	-5976
▁répartition	-5977
mir	-5978
▁Ice	-5979
▁diam	-5980
▁meas	-5981
▁Services	-5982
▁significant	-5983
pin	-5984
▁Freder	-5985
leurs	-5986
emblée	-5987
▁engineer	-5988
▁Legislative	-5989
▁Ever	-5990
▁Mach	-5991
▁2000.	-5992
▁Groupe	-5993
▁Membre	-5994
▁senior	-5995
▁student	-5996
unications	-5997
▁Danish	-5998
lying	-5999
▁1962	-6000
▁Conference	-6001
▁Lew	-6002
▁bal	-6003
▁Gil	-6004
▁Kal	-6005
tivité	-6006
▁Lyon	-6007
▁2003.	-6008
SS	-6009
▁whom	-6010
▁rapid	-6011
▁Riv	-6012
▁chaî	-6013
▁reported	-6014
enf	-6015
▁1952	-6016
ancy	-6017
▁meurt	-6018
▁seule	-6019
▁Ho	-6020
orde	-6021
▁Fab	-6022
ding	-6023
ésie	-6024
-8	-6025
zz	-6026
tout	-6027
▁Mun	-6028
▁Mars	-6029
▁wind	-6030
31	-6031
car	-6032
▁ceux	-6033
orf	-6034
ffer	-6035
▁saint	-6036
▁hosted	-6037
▁institutions	-6038
▁sug	-6039
state	-6040
▁1961	-6041
▁prior	-6042
life	-6043
▁educated	-6044
agh	-6045
▁parents	-6046
▁referred	-6047
▁ancient	-6048
▁provincial	-6049
▁rouge	-6050
cean	-6051
▁Nam	-6052
▁voice	-6053
▁Fire	-6054
▁Mort	-6055
▁Bos	-6056
▁Neb	-6057
akers	-6058
▁Technology	-6059
uée	-6060
ogra	-6061
phal	-6062
upart	-6063
▁nombres	-6064
ici	-6065
nam	-6066
inson	-6067
▁Tony	-6068
émin	-6069
dicated	-6070
▁outside	-6071
▁plupart	-6072
▁neighbor	-6073
▁3.	-6074
▁Hard	-6075
▁compar	-6076
▁acquired	-6077
hold	-6078
voir	-6079
▁Eur	-6080
▁cost	-6081
▁Community	-6082
iform	-6083
worth	-6084
▁jeux	-6085
issent	-6086
▁Constantin	-6087
reme	-6088
honneur	-6089
▁Following	-6090
Rh	-6091
align	-6092
▁goal	-6093
▁suit	-6094
itecture	-6095
rief	-6096
▁unit	-6097
ih	-6098
▁movie	-6099
ecially	-6100
▁sculpt	-6101
rics	-6102
▁études	-6103
MP	-6104
ésil	-6105
▁Phys	-6106
rought	-6107
▁associated	-6108
▁subsequently	-6109
mad	-6110
▁décrit	-6111
▁comment	-6112
▁9,	-6113
-198	-6114
▁pie	-6115
▁concent	-6116
▁appearances	-6117
ema	-6118
éné	-6119
▁cho	-6120
▁Quebec	-6121
51	-6122
pose	-6123
▁Moyen	-6124
▁Bu	-6125
écan	-6126
▁Marsh	-6127
▁regroupe	-6128
ione	-6129
▁méth	-6130
▁marque	-6131
▁opening	-6132
▁Main	-6133
▁famil	-6134
inals	-6135
▁Bour	-6136
▁Turk	-6137
▁Point	-6138
▁native	-6139
orc	-6140
▁(«	-6141
▁big	-6142
▁1945	-6143
ality	-6144
▁Brad	-6145
rai	-6146
▁competed	-6147
▁Â	-6148
vre	-6149
▁diffus	-6150
▁Entertainment	-6151
▁organizations	-6152
▁Library	-6153
▁techniques	-6154
▁houses	-6155
▁sea	-6156
▁Maine	-6157
▁critic	-6158
▁Arn	-6159
▁Gree	-6160
▁Terre	-6161
▁races	-6162
▁appelée	-6163
▁additional	-6164
▁Et	-6165
▁Id	-6166
▁Cab	-6167
inguis	-6168
CD	-6169
▁issues	-6170
▁Bh	-6171
▁Ta	-6172
ados	-6173
uellement	-6174
IG	-6175
▁provide	-6176
71	-6177
▁deal	-6178
▁Ger	-6179
▁1956	-6180
▁Magn	-6181
▁Maurice	-6182
▁localité	-6183
▁Tokyo	-6184
▁favor	-6185
▁offici	-6186
▁législature	-6187
émoire	-6188
iat	-6189
rec	-6190
erged	-6191
▁method	-6192
▁moyenne	-6193
▁1958	-6194
▁ordre	-6195
▁Cemetery	-6196
éli	-6197
▁Kim	-6198
onique	-6199
roduction	-6200
anna	-6201
▁put	-6202
ronique	-6203
▁cartes	-6204
▁lequel	-6205
▁retour	-6206
▁Philipp	-6207
▁becoming	-6208
ails	-6209
▁raison	-6210
65	-6211
▁Hay	-6212
▁hol	-6213
▁problem	-6214
▁destroy	-6215
rance	-6216
▁Maria	-6217
▁separate	-6218
crit	-6219
▁notable	-6220
AT	-6221
▁dynas	-6222
▁contest	-6223
crip	-6224
▁ple	-6225
▁More	-6226
édé	-6227
▁Eliz	-6228
▁night	-6229
▁Lt	-6230
▁Castle	-6231
▁Melbourne	-6232
MS	-6233
Wh	-6234
▁Cart	-6235
▁Ross	-6236
▁ide	-6237
▁îles	-6238
▁invent	-6239
▁generally	-6240
▁vend	-6241
▁appart	-6242
▁belong	-6243
▁Fox	-6244
▁1946	-6245
▁defeated	-6246
aill	-6247
▁bul	-6248
inction	-6249
iterran	-6250
▁accept	-6251
▁mentioned	-6252
▁Sic	-6253
▁spir	-6254
▁Lieux	-6255
pson	-6256
▁cam	-6257
▁Glas	-6258
▁pain	-6259
▁poly	-6260
▁cities	-6261
▁naissance	-6262
All	-6263
class	-6264
▁2022	-6265
▁draft	-6266
▁photograph	-6267
▁volume	-6268
net	-6269
▁Forest	-6270
▁seigneur	-6271
ceae	-6272
▁particular	-6273
iège	-6274
▁Foundation	-6275
ectic	-6276
▁calcul	-6277
▁nort	-6278
▁taille	-6279
▁pris	-6280
▁2016,	-6281
52	-6282
▁Pit	-6283
▁Londres	-6284
gow	-6285
▁ski	-6286
anded	-6287
▁channel	-6288
▁Memorial	-6289
▁70	-6290
ophe	-6291
▁below	-6292
osse	-6293
▁Clar	-6294
▁Labor	-6295
67	-6296
▁larg	-6297
▁recherche	-6298
▁Golden	-6299
▁compl	-6300
▁nine	-6301
▁Sportspeople	-6302
▁Sén	-6303
69	-6304
▁Walk	-6305
▁Justice	-6306
▁90	-6307
▁Hamp	-6308
▁épis	-6309
▁Musical	-6310
▁Singles	-6311
uty	-6312
asing	-6313
▁wide	-6314
ulement	-6315
▁conver	-6316
▁Hospital	-6317
ello	-6318
▁gar	-6319
ining	-6320
▁hommes	-6321
▁Arizona	-6322
eries	-6323
▁1919	-6324
▁food	-6325
▁2002.	-6326
▁Wilson	-6327
▁couleur	-6328
▁beaucoup	-6329
▁Naissances	-6330
aste	-6331
anned	-6332
▁wins	-6333
▁signal	-6334
▁droite	-6335
▁concert	-6336
▁operations	-6337
ws	-6338
▁maj	-6339
▁Free	-6340
ennent	-6341
▁Rugby	-6342
▁fant	-6343
iation	-6344
▁Atlan	-6345
▁appearance	-6346
avant	-6347
▁écrivain	-6348
▁Municipality	-6349
▁Bat	-6350
ilité	-6351
▁1998,	-6352
▁photos	-6353
▁articles	-6354
▁protection	-6355
43	-6356
▁Anti	-6357
▁entered	-6358
osed	-6359
arthe	-6360
athan	-6361
▁2008.	-6362
▁obten	-6363
▁today	-6364
▁Da	-6365
▁selected	-6366
▁voir	-6367
ms	-6368
PC	-6369
▁Ç	-6370
ouch	-6371
▁officer	-6372
pur	-6373
▁182	-6374
▁Bri	-6375
▁»)	-6376
eller	-6377
▁Vill	-6378
▁cele	-6379
ng	-6380
▁nar	-6381
regist	-6382
▁decided	-6383
▁densité	-6384
▁beginning	-6385
▁SR	-6386
quet	-6387
▁DVD	-6388
▁mess	-6389
▁aurait	-6390
▁scored	-6391
▁programs	-6392
||	-6393
/200	-6394
▁how	-6395
▁cancer	-6396
▁department	-6397
zy	-6398
▁Bird	-6399
▁œuvre	-6400
uillaume	-6401
▁publication	-6402
▁Ern	-6403
▁Trin	-6404
▁Week	-6405
▁2001.	-6406
▁exhib	-6407
▁motor	-6408
itors	-6409
▁grâce	-6410
▁noted	-6411
▁little	-6412
▁succès	-6413
▁variety	-6414
qué	-6415
▁(9	-6416
▁NFL	-6417
▁chré	-6418
▁perman	-6419
▁Special	-6420
EC	-6421
ike	-6422
igny	-6423
▁Goi	-6424
uste	-6425
▁Pont	-6426
▁internationale	-6427
issue	-6428
ertain	-6429
▁languages	-6430
inary	-6431
▁réun	-6432
énario	-6433
▁compt	-6434
500	-6435
ears	-6436
▁Tan	-6437
▁métro	-6438
obal	-6439
▁feu	-6440
▁pan	-6441
▁1955	-6442
Loire	-6443
forme	-6444
atrice	-6445
▁chinois	-6446
▁instead	-6447
▁permettant	-6448
emper	-6449
▁gauche	-6450
▁Profession	-6451
New	-6452
▁Gram	-6453
▁mine	-6454
▁mainly	-6455
▁Federal	-6456
▁Harv	-6457
mas	-6458
ecte	-6459
▁Stand	-6460
▁remov	-6461
▁continue	-6462
▁patrimoine	-6463
▁constructed	-6464
iy	-6465
▁Male	-6466
▁towards	-6467
▁Hou	-6468
anced	-6469
–198	-6470
▁saw	-6471
▁surtout	-6472
▁Montréal	-6473
▁1997,	-6474
▁folk	-6475
▁collec	-6476
▁Alberta	-6477
▁PC	-6478
▁pap	-6479
▁Wolf	-6480
▁15,	-6481
▁Beau	-6482
▁notes	-6483
ocese	-6484
riage	-6485
▁Mess	-6486
▁vote	-6487
▁defin	-6488
gypte	-6489
▁Stephen	-6490
ymologie	-6491
▁Athletics	-6492
ignes	-6493
▁launched	-6494
ault	-6495
▁Typ	-6496
▁sept	-6497
▁Federation	-6498
▁(;	-6499
évolution	-6500
rige	-6501
▁provides	-6502
▁ble	-6503
ombard	-6504
issance	-6505
▁théâtre	-6506
pre	-6507
▁(8	-6508
▁Malays	-6509
ansion	-6510
▁airport	-6511
▁multiple	-6512
▁Political	-6513
jan	-6514
enced	-6515
41	-6516
▁earl	-6517
▁devant	-6518
▁property	-6519
▁VI	-6520
▁promin	-6521
▁historical	-6522
▁Inn	-6523
▁activities	-6524
▁assass	-6525
▁milieu	-6526
▁dén	-6527
▁elles	-6528
▁parmi	-6529
▁Pa	-6530
▁bib	-6531
▁mac	-6532
▁Just	-6533
▁size	-6534
▁vern	-6535
▁print	-6536
zer	-6537
▁Arc	-6538
▁cust	-6539
▁Jacob	-6540
ections	-6541
▁executive	-6542
lyn	-6543
▁shot	-6544
toine	-6545
▁pred	-6546
▁wall	-6547
▁future	-6548
▁manière	-6549
Ne	-6550
61	-6551
▁surfaces	-6552
▁Elizabeth	-6553
▁northwest	-6554
▁composition	-6555
▁Od	-6556
king	-6557
▁self	-6558
labama	-6559
▁délég	-6560
ecticut	-6561
osts	-6562
▁russe	-6563
▁Senate	-6564
▁Territ	-6565
▁covered	-6566
oln	-6567
ïde	-6568
▁2018,	-6569
▁Dream	-6570
▁Korea	-6571
▁behind	-6572
cée	-6573
wide	-6574
▁Kur	-6575
▁ris	-6576
ifest	-6577
▁1947	-6578
▁Corps	-6579
ika	-6580
dale	-6581
▁réf	-6582
▁rate	-6583
atherine	-6584
▁Glasgow	-6585
▁succeed	-6586
72	-6587
thod	-6588
▁mari	-6589
cesseur	-6590
▁Supreme	-6591
▁attraction	-6592
IN	-6593
raî	-6594
▁rul	-6595
▁text	-6596
▁Design	-6597
▁moment	-6598
irs	-6599
anim	-6600
boards	-6601
▁1999.	-6602
▁especially	-6603
AD	-6604
acks	-6605
▁occasion	-6606
▁seulement	-6607
import	-6608
▁actuelle	-6609
▁metres	-6610
▁interview	-6611
▁Cet	-6612
▁Six	-6613
▁Fred	-6614
▁noms	-6615
vestig	-6616
▁informatique	-6617
▁fondé	-6618
▁saison	-6619
▁terres	-6620
▁entrepr	-6621
enh	-6622
aches	-6623
tiers	-6624
▁qualif	-6625
▁composed	-6626
Esp	-6627
62	-6628
obe	-6629
▁Âge	-6630
▁député	-6631
▁Bibliography	-6632
▁Kam	-6633
▁stock	-6634
▁circonscription	-6635
ighth	-6636
ermont	-6637
▁obtient	-6638
▁movement	-6639
lio	-6640
▁Jeux	-6641
▁according	-6642
esis	-6643
▁ended	-6644
▁larger	-6645
▁Titre	-6646
▁cadre	-6647
▁?	-6648
▁Trade	-6649
rien	-6650
▁Italie	-6651
▁1:	-6652
▁Vic	-6653
▁Toponyme	-6654
73	-6655
▁Abd	-6656
▁Sel	-6657
▁fron	-6658
▁2017,	-6659
▁Original	-6660
ublin	-6661
▁construit	-6662
▁calendrier	-6663
De	-6664
▁Ron	-6665
▁Vis	-6666
▁1953	-6667
▁peintre	-6668
▁valeur	-6669
▁competi	-6670
agan	-6671
water	-6672
▁elev	-6673
▁singers	-6674
▁Hun	-6675
▁hab	-6676
▁comes	-6677
▁commonly	-6678
vens	-6679
▁Kel	-6680
▁Mir	-6681
icket	-6682
▁catég	-6683
olished	-6684
▁studies	-6685
)"	-6686
-9	-6687
ibles	-6688
▁reli	-6689
also	-6690
abord	-6691
▁treat	-6692
▁olymp	-6693
ulaires	-6694
▁capacity	-6695
▁géographique	-6696
Cl	-6697
▁explor	-6698
▁titles	-6699
clop	-6700
▁occident	-6701
oba	-6702
▁Wall	-6703
Italie	-6704
▁Austria	-6705
▁dernière	-6706
umé	-6707
▁Famille	-6708
▁inhabitants	-6709
ID	-6710
mers	-6711
▁Your	-6712
chi	-6713
ito	-6714
▁Fore	-6715
▁situe	-6716
▁essenti	-6717
▁overall	-6718
▁da	-6719
▁11,	-6720
isson	-6721
raska	-6722
▁Test	-6723
▁(†	-6724
▁pièce	-6725
▁temple	-6726
▁limited	-6727
SP	-6728
enez	-6729
▁Who	-6730
▁categ	-6731
▁opera	-6732
▁rather	-6733
▁bat	-6734
▁Like	-6735
▁govern	-6736
ôte	-6737
▁Hans	-6738
▁voix	-6739
▁conqu	-6740
▁brought	-6741
▁theatre	-6742
▁suivantes	-6743
mouth	-6744
▁élus	-6745
▁lines	-6746
▁royal	-6747
Afrique	-6748
▁consac	-6749
▁nation	-6750
lov	-6751
▁ém	-6752
▁1954	-6753
▁déb	-6754
▁architecture	-6755
dy	-6756
ista	-6757
▁1957	-6758
▁Bran	-6759
▁résult	-6760
▁FM	-6761
▁Fal	-6762
▁fab	-6763
antine	-6764
▁recent	-6765
ía	-6766
▁rural	-6767
▁campus	-6768
▁mathema	-6769
▁regional	-6770
▁Convention	-6771
ifique	-6772
▁équip	-6773
▁practice	-6774
bers	-6775
▁Rev	-6776
ergie	-6777
found	-6778
▁earned	-6779
▁seconde	-6780
died	-6781
▁Eric	-6782
▁Chart	-6783
▁parks	-6784
▁poste	-6785
▁http	-6786
▁couple	-6787
▁Hamilton	-6788
▁primarily	-6789
▁description	-6790
▁mol	-6791
▁Many	-6792
▁terms	-6793
AF	-6794
▁Trib	-6795
▁facilities	-6796
elli	-6797
▁Dal	-6798
▁propor	-6799
▁portion	-6800
▁composer	-6801
▁sau	-6802
▁forms	-6803
▁Lat	-6804
▁learn	-6805
▁sigle	-6806
▁Bourgogne	-6807
▁inaug	-6808
▁Bishop	-6809
▁earlier	-6810
▁ni	-6811
▁obl	-6812
▁Pict	-6813
▁sang	-6814
▁Republican	-6815
▁Jes	-6816
▁split	-6817
▁furent	-6818
▁kn	-6819
▁machine	-6820
▁suggest	-6821
▁classical	-6822
êté	-6823
tered	-6824
▁redéc	-6825
▁taking	-6826
▁Representatives	-6827
iny	-6828
lets	-6829
▁seats	-6830
ully	-6831
oisse	-6832
istant	-6833
▁autor	-6834
▁Spring	-6835
▁able	-6836
titled	-6837
lis	-6838
yrén	-6839
▁Bav	-6840
▁bâti	-6841
▁ratt	-6842
▁termin	-6843
aris	-6844
▁Berg	-6845
▁accord	-6846
▁theory	-6847
▁hy	-6848
▁fall	-6849
incoln	-6850
▁vocal	-6851
▁voyage	-6852
▁dedicated	-6853
eff	-6854
▁CE	-6855
▁Rivers	-6856
▁32	-6857
pine	-6858
udiant	-6859
ardin	-6860
▁déta	-6861
▁Both	-6862
▁Ford	-6863
▁Charl	-6864
▁évêque	-6865
▁Maryland	-6866
▁Sous	-6867
▁Greece	-6868
ablement	-6869
▁Connecticut	-6870
oré	-6871
ombe	-6872
umin	-6873
▁vent	-6874
ivalent	-6875
▁matéri	-6876
lad	-6877
▁Gene	-6878
▁Alfred	-6879
▁musician	-6880
▁personne	-6881
▁products	-6882
ographiques	-6883
▁forêts	-6884
▁Nar	-6885
▁gall	-6886
rophes	-6887
▁1996,	-6888
▁ailleurs	-6889
Ab	-6890
enty	-6891
▁Dave	-6892
▁university	-6893
icine	-6894
asty	-6895
▁2020,	-6896
▁Brook	-6897
▁Miller	-6898
▁Lyn	-6899
▁1949	-6900
▁Éd	-6901
▁tim	-6902
▁Colomb	-6903
Ins	-6904
▁If	-6905
▁Buff	-6906
▁Sher	-6907
▁agre	-6908
uisine	-6909
▁catholique	-6910
hu	-6911
lle	-6912
rak	-6913
book	-6914
▁Dub	-6915
▁hospital	-6916
▁southwest	-6917
ader	-6918
▁cit	-6919
▁dériv	-6920
Can	-6921
jou	-6922
▁summ	-6923
▁Cry	-6924
rophy	-6925
▁connexe	-6926
▁millions	-6927
▁Œ	-6928
adron	-6929
▁continues	-6930
▁XXe	-6931
▁Current	-6932
▁rencontre	-6933
▁foss	-6934
▁Guillaume	-6935
▁franch	-6936
▁percussion	-6937
erts	-6938
▁founder	-6939
itif	-6940
▁Vinc	-6941
▁federal	-6942
AN	-6943
abe	-6944
urité	-6945
▁golf	-6946
ruit	-6947
▁Prin	-6948
▁featuring	-6949
AP	-6950
Ex	-6951
oni	-6952
sez	-6953
étend	-6954
▁Dougl	-6955
ditional	-6956
▁Manchester	-6957
ocks	-6958
▁get	-6959
Atlan	-6960
river	-6961
lément	-6962
▁grandes	-6963
ymp	-6964
▁Win	-6965
▁thus	-6966
bey	-6967
▁Earth	-6968
▁civ	-6969
▁Gran	-6970
▁Mountains	-6971
usal	-6972
usband	-6973
▁Trois	-6974
▁forest	-6975
▁physic	-6976
▁vernac	-6977
vé	-6978
Uni	-6979
▁sén	-6980
▁Wars	-6981
▁pied	-6982
▁individual	-6983
agen	-6984
▁manga	-6985
igrants	-6986
▁unknown	-6987
hard	-6988
▁pen	-6989
bound	-6990
▁Hand	-6991
itaine	-6992
▁plans	-6993
▁charts	-6994
▁proche	-6995
▁Liberal	-6996
▁détaill	-6997
asts	-6998
▁Rap	-6999
▁Page	-7000
▁Harry	-7001
▁Nick	-7002
▁liqu	-7003
▁attrib	-7004
▁convention	-7005
▁Adam	-7006
▁divided	-7007
CC	-7008
▁af	-7009
▁Call	-7010
▁2010.	-7011
▁Notre	-7012
éroport	-7013
▁lorsque	-7014
▁pron	-7015
▁mécan	-7016
▁†	-7017
▁20,	-7018
▁Ten	-7019
▁Member	-7020
▁longer	-7021
▁Argentina	-7022
US	-7023
chant	-7024
▁Turkish	-7025
anes	-7026
aska	-7027
▁Puy	-7028
▁lik	-7029
▁month	-7030
yrénées	-7031
▁brief	-7032
èrement	-7033
▁groupes	-7034
jo	-7035
ueil	-7036
▁Short	-7037
▁Walter	-7038
Angleterre	-7039
▁Queensland	-7040
▁Information	-7041
éros	-7042
▁inn	-7043
0,000	-7044
▁1944	-7045
▁Bert	-7046
▁Hart	-7047
▁mémoire	-7048
▁Nebraska	-7049
▁Township	-7050
▁Jam	-7051
▁asp	-7052
▁mor	-7053
▁Lewis	-7054
▁expatriate	-7055
And	-7056
▁Str	-7057
▁Calv	-7058
▁malad	-7059
▁Channel	-7060
uth	-7061
down	-7062
gers	-7063
▁regul	-7064
▁Review	-7065
bas	-7066
▁Lé	-7067
uries	-7068
▁Karl	-7069
▁traité	-7070
tica	-7071
▁Angl	-7072
rations	-7073
▁mayor	-7074
▁appears	-7075
▁firm	-7076
Église	-7077
▁Elementary	-7078
arring	-7079
▁subst	-7080
63	-7081
▁voit	-7082
▁Alabama	-7083
▁Magazine	-7084
Sp	-7085
▁tal	-7086
do	-7087
aide	-7088
▁Pic	-7089
▁Howard	-7090
▁dessin	-7091
▁fonctions	-7092
yc	-7093
kee	-7094
▁Filmography	-7095
lieu	-7096
▁Brand	-7097
▁rules	-7098
▁winner	-7099
ski	-7100
▁Sus	-7101
▁Leon	-7102
▁soon	-7103
▁14,	-7104
oring	-7105
▁youn	-7106
▁2009.	-7107
▁2019,	-7108
▁chiff	-7109
01	-7110
▁Alph	-7111
▁connue	-7112
▁serait	-7113
▁13,	-7114
▁chan	-7115
▁Space	-7116
▁owner	-7117
',	-7118
ör	-7119
▁éto	-7120
▁Champions	-7121
▁cependant	-7122
alph	-7123
▁Diction	-7124
▁extension	-7125
mental	-7126
▁Source	-7127
▁Defunct	-7128
▁Mexican	-7129
ippi	-7130
▁Pur	-7131
oration	-7132
▁Gord	-7133
▁expl	-7134
▁fight	-7135
▁Étudiant	-7136
enia	-7137
▁paper	-7138
▁store	-7139
▁Dublin	-7140
▁managed	-7141
zh	-7142
sey	-7143
▁auc	-7144
▁Khan	-7145
▁higher	-7146
▁candidate	-7147
ogs	-7148
▁pén	-7149
▁Avec	-7150
▁faculty	-7151
▁majority	-7152
Arm	-7153
▁Ga	-7154
▁Box	-7155
▁jam	-7156
illing	-7157
▁Metropolitan	-7158
andie	-7159
▁Korean	-7160
▁cultiv	-7161
▁Studios	-7162
-4	-7163
orp	-7164
Amérique	-7165
▁classique	-7166
▁purchased	-7167
lywood	-7168
▁analys	-7169
ètes	-7170
▁vois	-7171
▁prepar	-7172
tivement	-7173
loitation	-7174
▁proté	-7175
▁historiques	-7176
▁va	-7177
▁316	-7178
appar	-7179
istol	-7180
oslav	-7181
▁révol	-7182
inte	-7183
▁Lux	-7184
▁sax	-7185
▁ethn	-7186
▁merged	-7187
▁Harvard	-7188
▁technology	-7189
IT	-7190
ads	-7191
lée	-7192
▁hyp	-7193
▁acteur	-7194
abet	-7195
▁meilleur	-7196
▁presented	-7197
IC	-7198
oa	-7199
▁Real	-7200
▁constitution	-7201
▁Finn	-7202
▁anciennes	-7203
espèce	-7204
▁score	-7205
▁Anderson	-7206
▁infrastruct	-7207
Sh	-7208
ouvre	-7209
▁cher	-7210
▁battle	-7211
▁lettres	-7212
▁operation	-7213
ellig	-7214
▁Eth	-7215
▁Fern	-7216
▁considér	-7217
88	-7218
▁tand	-7219
▁initially	-7220
iph	-7221
▁Fr	-7222
▁ja	-7223
▁herb	-7224
▁rich	-7225
▁holds	-7226
▁ships	-7227
▁Église	-7228
▁quartier	-7229
▁Professional	-7230
▁Na	-7231
▁Oak	-7232
▁masc	-7233
▁Duke	-7234
▁petits	-7235
▁temper	-7236
▁éléments	-7237
Don	-7238
angle	-7239
oking	-7240
ontin	-7241
▁1936	-7242
terior	-7243
▁1990,	-7244
▁trait	-7245
▁Constitution	-7246
osc	-7247
under	-7248
orning	-7249
▁quand	-7250
▁centrale	-7251
▁×	-7252
leph	-7253
ocol	-7254
▁Ali	-7255
▁Let	-7256
▁tur	-7257
▁Vice	-7258
▁assez	-7259
▁Montre	-7260
Île	-7261
▁Hyd	-7262
▁flu	-7263
▁Fried	-7264
▁carrière	-7265
▁Laur	-7266
▁Mississ	-7267
▁arrondissements	-7268
fit	-7269
▁Lincoln	-7270
▁application	-7271
▁MPs	-7272
▁côté	-7273
▁path	-7274
▁1997.	-7275
▁Heart	-7276
▁aérienne	-7277
lers	-7278
oule	-7279
▁online	-7280
▁Discography	-7281
qui	-7282
▁Dra	-7283
▁diplom	-7284
▁plants	-7285
▁Burn	-7286
▁Mans	-7287
▁Turn	-7288
attraction	-7289
▁instruments	-7290
IA	-7291
istry	-7292
▁Croati	-7293
▁Sac	-7294
aring	-7295
itting	-7296
▁Prime	-7297
▁circuit	-7298
▁stories	-7299
▁Orchestra	-7300
▁Ant	-7301
isées	-7302
▁(6	-7303
uilt	-7304
▁Brig	-7305
▁symbol	-7306
ifications	-7307
▁1939	-7308
▁générale	-7309
elin	-7310
▁Tro	-7311
▁Alan	-7312
▁Relig	-7313
▁multip	-7314
▁passage	-7315
▁José	-7316
▁tend	-7317
▁Hills	-7318
andy	-7319
▁17,	-7320
▁1943	-7321
▁élev	-7322
▁Synopsis	-7323
▁Villages	-7324
ün	-7325
▁Cert	-7326
▁chaîne	-7327
▁25,	-7328
▁Ess	-7329
allas	-7330
erald	-7331
▁altitude	-7332
▁tel	-7333
▁Iowa	-7334
▁suburb	-7335
▁solution	-7336
ić	-7337
▁heavy	-7338
▁Douglas	-7339
▁Winners	-7340
▁dynastie	-7341
▁séc	-7342
▁Davis	-7343
▁publish	-7344
▁Dol	-7345
▁mél	-7346
Académie	-7347
▁conseiller	-7348
rik	-7349
▁bra	-7350
ously	-7351
▁Guide	-7352
▁Fil	-7353
▁Website	-7354
▁Greg	-7355
▁Vari	-7356
▁Singap	-7357
▁raised	-7358
▁tennis	-7359
osm	-7360
▁hors	-7361
▁Belle	-7362
iennent	-7363
▁physique	-7364
▁Nou	-7365
arters	-7366
▁Liter	-7367
▁telle	-7368
▁express	-7369
▁promotion	-7370
▁proportion	-7371
atom	-7372
▁Pop	-7373
▁fit	-7374
▁Prim	-7375
▁colle	-7376
ensions	-7377
▁Natural	-7378
▁Secretary	-7379
02	-7380
Ph	-7381
▁Sky	-7382
ading	-7383
▁driv	-7384
▁upper	-7385
▁murder	-7386
▁Airlines	-7387
▁redécoupage	-7388
lar	-7389
olet	-7390
▁Pot	-7391
▁lanc	-7392
thodox	-7393
▁acting	-7394
itzerland	-7395
ML	-7396
▁1995,	-7397
▁fémin	-7398
FC	-7399
vergne	-7400
▁Perform	-7401
▁Atlantic	-7402
95	-7403
ín	-7404
bridge	-7405
▁Upper	-7406
▁Ped	-7407
▁Lanc	-7408
▁rang	-7409
▁traffic	-7410
▁cu	-7411
▁dance	-7412
▁utilisés	-7413
85	-7414
alyse	-7415
▁takes	-7416
▁disestablished	-7417
);	-7418
▁Ark	-7419
▁célèbre	-7420
len	-7421
▁ham	-7422
▁better	-7423
▁Seconde	-7424
▁travaux	-7425
04	-7426
▁Mes	-7427
ousin	-7428
▁Date	-7429
▁somm	-7430
ingen	-7431
▁Juan	-7432
▁Roll	-7433
▁labor	-7434
▁woman	-7435
alism	-7436
jà	-7437
yt	-7438
erb	-7439
eign	-7440
▁Ministry	-7441
▁discovered	-7442
▁Bass	-7443
▁reçoit	-7444
▁Anthony	-7445
▁decision	-7446
▁condition	-7447
iés	-7448
▁eux	-7449
resse	-7450
ictory	-7451
▁Silver	-7452
itié	-7453
▁move	-7454
▁cheval	-7455
▁surname	-7456
▁â	-7457
▁ca	-7458
este	-7459
▁troupes	-7460
▁surrounding	-7461
▁Ko	-7462
▁Ut	-7463
▁Cher	-7464
usc	-7465
▁spor	-7466
▁Method	-7467
▁Samuel	-7468
▁accident	-7469
▁literature	-7470
▁cut	-7471
▁Budd	-7472
rovers	-7473
▁Russie	-7474
▁tro	-7475
letic	-7476
▁Beng	-7477
▁walk	-7478
▁1994,	-7479
▁latter	-7480
▁Project	-7481
▁religious	-7482
▁départementales	-7483
▁cle	-7484
commun	-7485
▁Cricket	-7486
▁Roberts	-7487
▁leaving	-7488
amples	-7489
▁façon	-7490
het	-7491
▁Kr	-7492
text	-7493
▁16,	-7494
▁Edin	-7495
▁Rose	-7496
▁husband	-7497
▁longueur	-7498
▁transferred	-7499
égét	-7500
▁romaine	-7501
▁inférie	-7502
▁éch	-7503
▁cases	-7504
▁produits	-7505
▁allemande	-7506
▁starting	-7507
▁originaire	-7508
89	-7509
▁eu	-7510
ingt	-7511
▁celles	-7512
00,	-7513
lage	-7514
▁McG	-7515
▁goals	-7516
▁probl	-7517
▁gestion	-7518
▁retrouve	-7519
FM	-7520
ousse	-7521
▁limitrophes	-7522
ively	-7523
▁Allen	-7524
▁lives	-7525
▁proxim	-7526
▁magazines	-7527
▁Vik	-7528
▁los	-7529
▁Jord	-7530
▁originale	-7531
▁remaining	-7532
Ad	-7533
roc	-7534
▁paroisse	-7535
olia	-7536
▁sons	-7537
▁locale	-7538
▁territoires	-7539
dit	-7540
▁ax	-7541
▁break	-7542
▁dispos	-7543
▁Ka	-7544
onné	-7545
▁intro	-7546
▁Sn	-7547
more	-7548
▁Hur	-7549
▁har	-7550
▁Today	-7551
▁classes	-7552
ésentation	-7553
▁Revolution	-7554
▁supérieure	-7555
reat	-7556
▁Cru	-7557
▁enter	-7558
ologies	-7559
tia	-7560
wich	-7561
oster	-7562
▁Ocean	-7563
▁Disney	-7564
▁italienne	-7565
▁newspapers	-7566
▁vot	-7567
stone	-7568
▁guest	-7569
▁pages	-7570
édération	-7571
▁gouverneur	-7572
ifs	-7573
▁CO	-7574
èces	-7575
abase	-7576
▁cité	-7577
uration	-7578
▁secondary	-7579
▁Étymologie	-7580
▁organisation	-7581
mm	-7582
ni	-7583
Lou	-7584
▁Cover	-7585
▁Guard	-7586
▁Math	-7587
▁demi	-7588
Aut	-7589
jord	-7590
▁Comme	-7591
▁allowed	-7592
▁professeur	-7593
▁Switzerland	-7594
"|	-7595
iop	-7596
aure	-7597
▁adm	-7598
ening	-7599
▁Austrian	-7600
▁Bretagne	-7601
▁officially	-7602
hyd	-7603
ythm	-7604
▁Arr	-7605
▁Story	-7606
▁premières	-7607
▁engineering	-7608
▁bor	-7609
▁1942	-7610
▁Multi	-7611
▁Satur	-7612
▁Billboard	-7613
▁Edinburgh	-7614
acent	-7615
▁tent	-7616
▁Publications	-7617
zo	-7618
astic	-7619
▁Alumni	-7620
▁numéro	-7621
gue	-7622
haus	-7623
▁Hug	-7624
▁sole	-7625
▁toponyme	-7626
▁45	-7627
▁Modern	-7628
▁classe	-7629
09	-7630
inth	-7631
song	-7632
▁come	-7633
▁pseud	-7634
▁managers	-7635
▁importante	-7636
rif	-7637
rég	-7638
▁René	-7639
onymes	-7640
▁legal	-7641
▁tower	-7642
▁faisant	-7643
▁particularly	-7644
▁Tel	-7645
▁ferm	-7646
usalem	-7647
▁Atlant	-7648
▁offers	-7649
▁account	-7650
riculture	-7651
▁Bec	-7652
agnes	-7653
▁street	-7654
▁Cependant	-7655
▁residents	-7656
La	-7657
vest	-7658
▁1951	-7659
▁Circ	-7660
▁Ltd	-7661
▁Prot	-7662
▁vide	-7663
▁Temple	-7664
▁femmes	-7665
▁départemental	-7666
▁Classification	-7667
regon	-7668
▁remain	-7669
rap	-7670
▁Ye	-7671
▁1938	-7672
resses	-7673
▁Kings	-7674
86	-7675
ogue	-7676
▁Mix	-7677
▁Muslim	-7678
leveland	-7679
▁Another	-7680
▁transform	-7681
▁Kan	-7682
▁aériennes	-7683
nia	-7684
yes	-7685
▁30,	-7686
▁Œuv	-7687
▁2011.	-7688
▁chois	-7689
▁Moscow	-7690
▁required	-7691
▁cod	-7692
▁directeur	-7693
▁Mississippi	-7694
olo	-7695
▁composée	-7696
▁question	-7697
▁3166	-7698
▁2015.	-7699
Institut	-7700
ishments	-7701
▁capture	-7702
▁medical	-7703
dist	-7704
▁invest	-7705
▁families	-7706
▁Fem	-7707
▁Rio	-7708
▁modèle	-7709
icks	-7710
Marne	-7711
▁Apple	-7712
▁governor	-7713
▁Las	-7714
▁tir	-7715
▁Priv	-7716
▁know	-7717
▁therm	-7718
▁Château	-7719
èles	-7720
▁Lot	-7721
▁Tch	-7722
essions	-7723
▁Fu	-7724
▁ha	-7725
▁Byz	-7726
▁antique	-7727
onnes	-7728
iki	-7729
▁reserv	-7730
▁Village	-7731
▁Ni	-7732
aming	-7733
▁Boys	-7734
▁Goiás	-7735
▁végét	-7736
écu	-7737
▁Bud	-7738
▁Font	-7739
▁Syst	-7740
▁déjà	-7741
▁décret	-7742
▁Borough	-7743
▁alongside	-7744
▁Gri	-7745
lades	-7746
▁journalist	-7747
oure	-7748
▁1941	-7749
Orient	-7750
ipment	-7751
box	-7752
iac	-7753
▁Gib	-7754
▁Syl	-7755
oulant	-7756
▁Tourn	-7757
▁promoted	-7758
▁arrondissement	-7759
enis	-7760
izing	-7761
texte	-7762
▁Supp	-7763
▁hall	-7764
erial	-7765
▁coal	-7766
▁grew	-7767
œuvres	-7768
▁volumes	-7769
nat	-7770
▁fifth	-7771
▁money	-7772
▁Om	-7773
uese	-7774
▁Nova	-7775
▁tandis	-7776
▁monument	-7777
▁financial	-7778
ppe	-7779
-186	-7780
Jean	-7781
▁norme	-7782
▁européen	-7783
▁composers	-7784
▁parliament	-7785
▁Ép	-7786
▁pont	-7787
▁historic	-7788
asp	-7789
▁Naz	-7790
▁changes	-7791
dra	-7792
▁loss	-7793
▁Costa	-7794
▁adult	-7795
▁mètres	-7796
▁descend	-7797
rys	-7798
▁Ty	-7799
▁dirige	-7800
▁présence	-7801
abs	-7802
asa	-7803
▁Toul	-7804
▁fich	-7805
▁harm	-7806
hedral	-7807
oustic	-7808
▁fourn	-7809
Ag	-7810
elsh	-7811
▁images	-7812
▁subject	-7813
▁keyboards	-7814
▁1996.	-7815
▁caused	-7816
▁prépar	-7817
▁offered	-7818
▁relationship	-7819
▁mathématiques	-7820
▁ray	-7821
▁Vien	-7822
▁tree	-7823
▁Venez	-7824
vironnement	-7825
▁recordings	-7826
▁Nich	-7827
restling	-7828
▁operating	-7829
▁représente	-7830
éles	-7831
▁Pré	-7832
▁Desp	-7833
leased	-7834
Com	-7835
▁AM	-7836
orge	-7837
▁Girl	-7838
▁Rang	-7839
▁paix	-7840
▁Cleveland	-7841
EP	-7842
ando	-7843
wart	-7844
▁(15	-7845
08	-7846
▁Doctor	-7847
▁refers	-7848
'.	-7849
▁18,	-7850
▁too	-7851
▁Protected	-7852
▁performances	-7853
▁cord	-7854
ographe	-7855
▁éditions	-7856
▁transm	-7857
▁designated	-7858
▁responsible	-7859
▁21,	-7860
▁amb	-7861
▁Brun	-7862
▁1998.	-7863
▁march	-7864
▁follows	-7865
▁Management	-7866
identi	-7867
▁attempt	-7868
utin	-7869
▁(192	-7870
oned	-7871
▁Rid	-7872
▁Hugh	-7873
▁relation	-7874
▁champions	-7875
▁succeeded	-7876
▁alternative	-7877
0),	-7878
IGN	-7879
aled	-7880
▁Kaz	-7881
levard	-7882
▁shown	-7883
▁auteur	-7884
▁buried	-7885
▁Mit	-7886
▁jun	-7887
ieval	-7888
ounds	-7889
▁Lower	-7890
abilité	-7891
▁Engineering	-7892
▁én	-7893
▁Première	-7894
▁régional	-7895
▁Christoph	-7896
▁satellite	-7897
▁varie	-7898
▁situation	-7899
▁contribution	-7900
▁*	-7901
▁uns	-7902
▁note	-7903
▁Elles	-7904
▁sched	-7905
▁Police	-7906
▁Allemagne	-7907
05	-7908
▁(7	-7909
pool	-7910
uted	-7911
▁Local	-7912
▁headqu	-7913
▁Holland	-7914
▁rattach	-7915
dal	-7916
ook	-7917
rone	-7918
▁Adv	-7919
▁digital	-7920
▁Banglades	-7921
▁prominent	-7922
▁24,	-7923
▁Lud	-7924
ouses	-7925
▁faible	-7926
▁Antonio	-7927
▁academic	-7928
adi	-7929
artic	-7930
▁1993,	-7931
▁Senior	-7932
▁Kat	-7933
▁Var	-7934
otype	-7935
▁dark	-7936
07	-7937
▁Ky	-7938
▁vin	-7939
▁rare	-7940
unswick	-7941
▁19,	-7942
▁27,	-7943
▁chos	-7944
▁Symph	-7945
▁Denmark	-7946
weet	-7947
▁Jér	-7948
▁agent	-7949
▁prise	-7950
▁Afrique	-7951
▁vallée	-7952
▁minister	-7953
▁northeast	-7954
▁principale	-7955
gal	-7956
char	-7957
phib	-7958
▁obt	-7959
hor	-7960
▁4.	-7961
▁sn	-7962
ulus	-7963
▁expos	-7964
▁passes	-7965
▁racing	-7966
▁pp	-7967
ylog	-7968
▁image	-7969
▁except	-7970
▁passed	-7971
▁espagnol	-7972
▁recently	-7973
▁Historical	-7974
▁lum	-7975
▁1926	-7976
▁Stra	-7977
▁Affairs	-7978
▁identif	-7979
▁profile	-7980
▁Professor	-7981
fr	-7982
ophys	-7983
▁blue	-7984
▁Bruce	-7985
▁create	-7986
▁jamais	-7987
pa	-7988
▁Now	-7989
▁Hawai	-7990
▁immedi	-7991
▁langage	-7992
▁naturelle	-7993
TC	-7994
▁rot	-7995
▁Jane	-7996
▁Viet	-7997
▁Charts	-7998
▁neighborhood	-7999
ikh	-8000
inae	-8001
▁suffer	-8002
▁vernaculaire	-8003
umed	-8004
▁Farm	-8005
▁cham	-8006
▁Niger	-8007
IP	-8008
ovié	-8009
▁400	-8010
ivement	-8011
▁utilise	-8012
▁ma	-8013
▁Cond	-8014
utation	-8015
▁care	-8016
▁lect	-8017
onnées	-8018
▁consult	-8019
EE	-8020
version	-8021
▁Holy	-8022
▁conj	-8023
room	-8024
▁chant	-8025
▁Portuguese	-8026
▁Dom	-8027
▁Sin	-8028
▁Moon	-8029
▁actrice	-8030
ologiques	-8031
▁Frederick	-8032
ht	-8033
soft	-8034
ébéc	-8035
▁22,	-8036
▁army	-8037
opping	-8038
▁derived	-8039
▁tub	-8040
▁vert	-8041
▁Fiche	-8042
▁Census	-8043
ographic	-8044
▁starring	-8045
NC	-8046
riche	-8047
▁2023	-8048
▁audio	-8049
▁Author	-8050
▁formes	-8051
iden	-8052
▁Map	-8053
orkshire	-8054
▁Fiction	-8055
West	-8056
ellows	-8057
▁Milan	-8058
▁integ	-8059
ancouver	-8060
▁Calvados	-8061
▁signifier	-8062
▁françaises	-8063
▁documentary	-8064
Bas	-8065
venth	-8066
▁remar	-8067
rons	-8068
Alpes	-8069
▁pict	-8070
▁2021,	-8071
▁helped	-8072
igen	-8073
▁Dyn	-8074
homme	-8075
inton	-8076
ready	-8077
▁pick	-8078
▁Before	-8079
▁destin	-8080
▁smaller	-8081
enses	-8082
▁Pi	-8083
film	-8084
term	-8085
unis	-8086
▁ing	-8087
▁Fréd	-8088
alogue	-8089
▁exclus	-8090
uma	-8091
▁Tai	-8092
▁dig	-8093
iales	-8094
▁poll	-8095
▁Cow	-8096
▁san	-8097
▁Dead	-8098
▁Vaud	-8099
▁Welsh	-8100
▁entraî	-8101
▁Lawrence	-8102
▁chairman	-8103
▁investig	-8104
ión	-8105
tir	-8106
érale	-8107
▁deep	-8108
▁covers	-8109
zi	-8110
icted	-8111
▁Buck	-8112
▁Rain	-8113
▁cycle	-8114
▁grade	-8115
ancienne	-8116
iley	-8117
rétaire	-8118
▁Studies	-8119
alan	-8120
last	-8121
rying	-8122
▁Chem	-8123
▁Mond	-8124
▁dise	-8125
aging	-8126
eline	-8127
▁1932	-8128
itiques	-8129
▁locomo	-8130
où	-8131
emy	-8132
chev	-8133
êtes	-8134
▁Lan	-8135
▁Low	-8136
99	-8137
RA	-8138
Paul	-8139
▁300	-8140
▁tels	-8141
▁2012.	-8142
▁Andre	-8143
urale	-8144
▁Anim	-8145
▁properties	-8146
▁23,	-8147
▁nerve	-8148
▁ordin	-8149
present	-8150
▁chemin	-8151
▁Nicolas	-8152
▁teacher	-8153
importance	-8154
orum	-8155
▁1990.	-8156
▁1991,	-8157
embourg	-8158
▁Railroad	-8159
▁Yorkshire	-8160
ners	-8161
rague	-8162
▁Batt	-8163
▁Bien	-8164
▁Sunday	-8165
▁courant	-8166
▁Fant	-8167
▁hour	-8168
undred	-8169
▁Background	-8170
eton	-8171
▁Marg	-8172
▁Spec	-8173
▁Motor	-8174
TS	-8175
ahn	-8176
▁NY	-8177
artin	-8178
▁Side	-8179
▁anth	-8180
▁Stone	-8181
▁dirig	-8182
▁words	-8183
achelor	-8184
▁économique	-8185
gré	-8186
▁Sig	-8187
▁consul	-8188
▁contact	-8189
▁Singapore	-8190
ruc	-8191
▁nég	-8192
isant	-8193
▁maximum	-8194
eeks	-8195
▁chac	-8196
▁1992,	-8197
▁néerland	-8198
▁Catherine	-8199
▁communication	-8200
▁Nik	-8201
▁Ple	-8202
▁Roc	-8203
▁Spar	-8204
▁love	-8205
orship	-8206
▁Ainsi	-8207
▁crime	-8208
unc	-8209
▁MD	-8210
▁1928	-8211
▁Plot	-8212
▁directly	-8213
▁Vancouver	-8214
unnel	-8215
▁Camer	-8216
▁Swiss	-8217
▁thought	-8218
▁Broadcast	-8219
▁considéré	-8220
▁AD	-8221
▁chrom	-8222
▁fabric	-8223
▁stated	-8224
▁Élections	-8225
▁Cape	-8226
issons	-8227
▁canal	-8228
▁régul	-8229
▁Children	-8230
▁empereur	-8231
▁provinces	-8232
êmes	-8233
▁doll	-8234
▁Chile	-8235
▁Medical	-8236
▁couleurs	-8237
▁supported	-8238
▁5.	-8239
nith	-8240
onds	-8241
▁Eag	-8242
▁Wat	-8243
▁job	-8244
▁née	-8245
Nord	-8246
▁gaz	-8247
▁Dark	-8248
▁formé	-8249
▁moyen	-8250
▁estate	-8251
▁démocra	-8252
▁fellow	-8253
▁lyrics	-8254
ologiste	-8255
▁numbers	-8256
▁indépend	-8257
▁élément	-8258
▁contient	-8259
▁opération	-8260
hum	-8261
zens	-8262
▁Nat	-8263
▁Capt	-8264
▁green	-8265
▁older	-8266
allenge	-8267
▁depart	-8268
▁finally	-8269
▁Cés	-8270
▁tribut	-8271
▁contrôle	-8272
▁Non	-8273
light	-8274
▁virt	-8275
▁Houston	-8276
die	-8277
uels	-8278
éron	-8279
▁cry	-8280
itude	-8281
ouard	-8282
▁Speed	-8283
▁branches	-8284
eder	-8285
omét	-8286
▁Advent	-8287
▁Maison	-8288
▁Athletes	-8289
▁Malaysia	-8290
▁enregist	-8291
▁specific	-8292
MA	-8293
hr	-8294
agin	-8295
▁huit	-8296
▁1995.	-8297
▁envoy	-8298
actions	-8299
▁recomm	-8300
▁astronom	-8301
isés	-8302
▁joint	-8303
strument	-8304
3).	-8305
rown	-8306
stan	-8307
▁got	-8308
▁Front	-8309
▁basis	-8310
▁probably	-8311
.).	-8312
▁Cré	-8313
▁sph	-8314
odies	-8315
▁Barc	-8316
▁animal	-8317
▁moving	-8318
▁Venezuel	-8319
▁Normandie	-8320
▁réalisateur	-8321
âle	-8322
▁26,	-8323
▁oil	-8324
odore	-8325
2).	-8326
▁acid	-8327
▁Colon	-8328
▁hours	-8329
▁begins	-8330
▁prénom	-8331
▁Pav	-8332
▁Pitts	-8333
▁38	-8334
▁Gau	-8335
▁spati	-8336
▁Friend	-8337
▁attend	-8338
▁column	-8339
▁Express	-8340
▁territorial	-8341
hill	-8342
▁Gér	-8343
▁Tig	-8344
▁cela	-8345
▁forced	-8346
from	-8347
▁byz	-8348
▁oldest	-8349
▁Éditions	-8350
iri	-8351
–20	-8352
▁Ker	-8353
▁Rav	-8354
▁say	-8355
DF	-8356
icy	-8357
oker	-8358
▁Rest	-8359
▁plut	-8360
▁Grade	-8361
▁peuple	-8362
▁believed	-8363
▁couronne	-8364
low	-8365
page	-8366
uerto	-8367
école	-8368
▁angl	-8369
▁Serge	-8370
▁tableau	-8371
unesse	-8372
▁Comics	-8373
▁Gordon	-8374
▁Mission	-8375
GA	-8376
▁Voc	-8377
▁bes	-8378
acher	-8379
active	-8380
▁Chair	-8381
iber	-8382
▁Fle	-8383
▁room	-8384
▁théor	-8385
▁quarter	-8386
Dôme	-8387
eler	-8388
▁1933	-8389
▁medals	-8390
▁augment	-8391
▁officers	-8392
▁supérieur	-8393
▁cricketers	-8394
▁contemporary	-8395
▁Bry	-8396
▁lance	-8397
▁étrang	-8398
▁Results	-8399
▁systèmes	-8400
▁influence	-8401
▁Né	-8402
École	-8403
▁makes	-8404
▁youth	-8405
anciennes	-8406
▁directors	-8407
▁Educational	-8408
▁36	-8409
obil	-8410
▁Sid	-8411
▁vue	-8412
tiens	-8413
urance	-8414
▁Index	-8415
odge	-8416
▁Monte	-8417
▁spons	-8418
▁guitars	-8419
▁combined	-8420
etta	-8421
▁cars	-8422
argent	-8423
-194	-8424
▁daily	-8425
balleur	-8426
heastern	-8427
▁economic	-8428
▁electoral	-8429
▁28,	-8430
▁Tak	-8431
▁aim	-8432
▁tall	-8433
▁Prior	-8434
▁Harris	-8435
▁positions	-8436
▁compositeur	-8437
SI	-8438
dem	-8439
▁ru	-8440
Marie	-8441
▁Oregon	-8442
▁fleuve	-8443
▁nearly	-8444
▁carried	-8445
▁terminus	-8446
tid	-8447
ircle	-8448
asters	-8449
weight	-8450
▁contempor	-8451
▁Pun	-8452
lioth	-8453
▁stay	-8454
▁twice	-8455
▁neighbour	-8456
eux	-8457
▁prév	-8458
▁2022,	-8459
▁distinct	-8460
▁Lost	-8461
▁Antoine	-8462
▁Detroit	-8463
ommé	-8464
▁Bed	-8465
▁Hub	-8466
▁ara	-8467
▁paru	-8468
lahoma	-8469
▁Marcel	-8470
pan	-8471
quis	-8472
▁Raymond	-8473
eror	-8474
▁Tél	-8475
tiles	-8476
apolis	-8477
intend	-8478
▁fruits	-8479
▁ox	-8480
works	-8481
▁castle	-8482
▁1934	-8483
▁Hell	-8484
▁oise	-8485
▁1989,	-8486
▁heart	-8487
▁Margar	-8488
▁dépend	-8489
▁expanded	-8490
▁XX	-8491
glom	-8492
Louis	-8493
▁gram	-8494
▁sovié	-8495
▁Academic	-8496
▁Alexandre	-8497
▁background	-8498
ön	-8499
▁33	-8500
arts	-8501
▁bill	-8502
Espagne	-8503
▁copies	-8504
▁models	-8505
▁Argentine	-8506
alie	-8507
liqu	-8508
▁Aqu	-8509
▁Dick	-8510
▁stra	-8511
▁vitesse	-8512
eme	-8513
Mont	-8514
▁Gaz	-8515
▁Mys	-8516
ledge	-8517
▁Compe	-8518
▁atteint	-8519
▁participated	-8520
▁deb	-8521
Yonne	-8522
▁artery	-8523
▁valley	-8524
▁industrial	-8525
▁Constantinople	-8526
rod	-8527
wig	-8528
▁Also	-8529
On	-8530
rane	-8531
▁Guit	-8532
▁1994.	-8533
▁Billy	-8534
▁auprès	-8535
▁québéc	-8536
▁removed	-8537
▁49	-8538
Dame	-8539
▁vain	-8540
iami	-8541
▁horse	-8542
▁Atlanta	-8543
▁Digital	-8544
Allemagne	-8545
▁Entreprise	-8546
▁Maz	-8547
▁1927	-8548
▁Herm	-8549
▁Third	-8550
▁mixed	-8551
▁navig	-8552
▁appara	-8553
▁tropical	-8554
▁Léon	-8555
▁participe	-8556
▁retirement	-8557
fish	-8558
sson	-8559
▁cult	-8560
ipients	-8561
▁théorie	-8562
SR	-8563
ials	-8564
▁Eug	-8565
ishops	-8566
▁texte	-8567
▁Garden	-8568
oqu	-8569
orus	-8570
▁Prad	-8571
▁Diego	-8572
▁Vienne	-8573
raq	-8574
yll	-8575
enny	-8576
▁doctor	-8577
▁display	-8578
▁campagne	-8579
▁politics	-8580
▁territory	-8581
▁Ran	-8582
iaceae	-8583
landais	-8584
▁Commer	-8585
▁stream	-8586
▁Louisiana	-8587
▁AR	-8588
▁arg	-8589
tices	-8590
oncé	-8591
ivent	-8592
était	-8593
▁Plat	-8594
▁poor	-8595
borough	-8596
▁chasse	-8597
▁Pil	-8598
umont	-8599
ashion	-8600
espace	-8601
▁disque	-8602
▁frontière	-8603
▁rid	-8604
▁1937	-8605
▁faut	-8606
▁Jules	-8607
▁bought	-8608
▁Writers	-8609
▁Fig	-8610
▁initial	-8611
luent	-8612
▁1924	-8613
▁Oliv	-8614
▁Situ	-8615
▁vingt	-8616
▁already	-8617
tity	-8618
▁Hav	-8619
▁canadien	-8620
▁religion	-8621
▁républic	-8622
▁din	-8623
▁routes	-8624
▁principaux	-8625
▁Ay	-8626
otyl	-8627
▁impro	-8628
▁Foreign	-8629
▁Iranian	-8630
▁demande	-8631
▁intended	-8632
isent	-8633
▁1935	-8634
▁bene	-8635
▁hill	-8636
▁Phill	-8637
▁Dallas	-8638
▁Murray	-8639
▁energy	-8640
▁Ku	-8641
▁Arg	-8642
▁facility	-8643
▁marriage	-8644
▁controvers	-8645
▁applications	-8646
▁Rub	-8647
▁failed	-8648
▁equipment	-8649
exploitation	-8650
▁départementaux	-8651
ging	-8652
▁pit	-8653
▁Parks	-8654
▁dimin	-8655
▁statut	-8656
enu	-8657
▁DC	-8658
▁Nag	-8659
▁mart	-8660
itable	-8661
▁Grèce	-8662
▁poète	-8663
▁Microsoft	-8664
-197	-8665
ormais	-8666
lon	-8667
▁64	-8668
▁29,	-8669
▁Rég	-8670
▁musée	-8671
▁Dragon	-8672
▁Johann	-8673
▁Hollywood	-8674
▁AC	-8675
illé	-8676
▁Gén	-8677
▁2013.	-8678
▁skaters	-8679
▁Hampshire	-8680
oen	-8681
rial	-8682
▁Moore	-8683
▁domes	-8684
Austral	-8685
▁mechan	-8686
avec	-8687
▁1929	-8688
▁Jazz	-8689
timore	-8690
▁Girls	-8691
boy	-8692
▁stars	-8693
▁Puerto	-8694
▁régionale	-8695
bb	-8696
oes	-8697
tés	-8698
aped	-8699
▁alc	-8700
▁weeks	-8701
▁Trophy	-8702
▁qualité	-8703
▁Computer	-8704
▁botanique	-8705
▁reference	-8706
▁Sha	-8707
▁About	-8708
▁Coupe	-8709
▁(2007)	-8710
▁pratique	-8711
▁publications	-8712
yte	-8713
▁lay	-8714
entin	-8715
▁Type	-8716
▁mati	-8717
riture	-8718
▁exemp	-8719
▁venue	-8720
▁constituency	-8721
law	-8722
rama	-8723
▁Cha	-8724
▁Yam	-8725
▁Soph	-8726
▁modif	-8727
▁Independent	-8728
êche	-8729
craft	-8730
▁Prom	-8731
▁Spir	-8732
▁prol	-8733
▁Each	-8734
▁galax	-8735
▁masse	-8736
▁Donald	-8737
▁Season	-8738
▁proposed	-8739
▁connected	-8740
venir	-8741
▁roll	-8742
abitat	-8743
riques	-8744
▁Bible	-8745
▁Matthe	-8746
oge	-8747
▁Gren	-8748
▁Java	-8749
▁Rivière	-8750
▁montagne	-8751
▁politiques	-8752
Bl	-8753
oda	-8754
▁120	-8755
drome	-8756
order	-8757
▁1992.	-8758
▁Miami	-8759
▁going	-8760
osaurus	-8761
writers	-8762
▁always	-8763
▁scient	-8764
▁Brazilian	-8765
▁Jordan	-8766
▁Compagn	-8767
▁nominated	-8768
Sc	-8769
burn	-8770
cteur	-8771
ignon	-8772
which	-8773
▁1980,	-8774
▁reduc	-8775
▁typically	-8776
peau	-8777
▁Liv	-8778
▁Run	-8779
▁Shah	-8780
▁Voiv	-8781
▁grav	-8782
environ	-8783
▁inspir	-8784
▁nommée	-8785
▁crossing	-8786
▁Rhin	-8787
élection	-8788
▁Between	-8789
▁Galerie	-8790
▁conduct	-8791
▁victoire	-8792
▁opposition	-8793
.),	-8794
opes	-8795
▁pati	-8796
▁chante	-8797
▁plutôt	-8798
▁automobile	-8799
bot	-8800
▁repe	-8801
▁Début	-8802
pol	-8803
▁Ry	-8804
Alex	-8805
ashi	-8806
mith	-8807
▁Lev	-8808
▁bott	-8809
▁Peters	-8810
▁maître	-8811
criptions	-8812
He	-8813
cons	-8814
▁000	-8815
Calais	-8816
▁Kevin	-8817
▁bands	-8818
▁trail	-8819
issions	-8820
uki	-8821
▁AI	-8822
ectes	-8823
orale	-8824
▁Note	-8825
▁give	-8826
▁dates	-8827
▁celebr	-8828
▁probablement	-8829
▁%)	-8830
IIIe	-8831
▁Rot	-8832
▁VII	-8833
▁done	-8834
▁nick	-8835
▁Square	-8836
▁assigned	-8837
dependence	-8838
kov	-8839
▁map	-8840
music	-8841
▁César	-8842
▁devenu	-8843
cer	-8844
edom	-8845
▁Gon	-8846
▁coord	-8847
▁liber	-8848
rection	-8849
▁marché	-8850
ymnas	-8851
▁pian	-8852
Égypte	-8853
▁2016.	-8854
▁Falls	-8855
▁Emperor	-8856
▁Marshall	-8857
▁Pyrénées	-8858
▁Temp	-8859
▁2014.	-8860
▁policy	-8861
obi	-8862
▁Vienna	-8863
▁Conservative	-8864
VF	-8865
▁finish	-8866
PL	-8867
aco	-8868
agues	-8869
ichel	-8870
▁sain	-8871
▁turned	-8872
▁Companies	-8873
oct	-8874
▁150	-8875
▁susp	-8876
▁shoot	-8877
▁Electric	-8878
▁Franklin	-8879
▁comporte	-8880
lı	-8881
▁lut	-8882
▁Muham	-8883
▁unité	-8884
▁pièces	-8885
▁taught	-8886
▁symbole	-8887
▁Baltimore	-8888
▁principales	-8889
opt	-8890
▁era	-8891
▁Salv	-8892
dessus	-8893
▁vehicles	-8894
▁39	-8895
seille	-8896
▁issued	-8897
▁junior	-8898
▁produce	-8899
▁locations	-8900
▁competitions	-8901
isons	-8902
▁ends	-8903
aments	-8904
▁Berne	-8905
▁stone	-8906
espèces	-8907
▁marine	-8908
▁Arkansas	-8909
▁commerce	-8910
▁journaliste	-8911
▁École	-8912
▁œuvres	-8913
▁conducted	-8914
▁Wy	-8915
ardo	-8916
▁1910	-8917
▁Bart	-8918
▁Race	-8919
fficient	-8920
▁Players	-8921
▁familles	-8922
▁Reception	-8923
alt	-8924
sky	-8925
▁Tol	-8926
oured	-8927
▁Repr	-8928
▁pair	-8929
▁voie	-8930
▁Trust	-8931
▁(2006)	-8932
▁growth	-8933
▁protest	-8934
▁society	-8935
hy	-8936
mb	-8937
–8	-8938
▁focus	-8939
▁Sarthe	-8940
▁Studio	-8941
▁percent	-8942
▁adjacent	-8943
▁Brunswick	-8944
▁southeast	-8945
1).	-8946
▁(2005)	-8947
▁bassin	-8948
OM	-8949
▁bow	-8950
▁Mons	-8951
inster	-8952
omorph	-8953
istered	-8954
▁Saints	-8955
▁Environ	-8956
▁Luxembourg	-8957
angel	-8958
▁widely	-8959
Ind	-8960
▁zo	-8961
▁wild	-8962
▁prendre	-8963
gorith	-8964
▁attest	-8965
standing	-8966
▁scholars	-8967
▁recognized	-8968
not	-8969
▁Age	-8970
▁Mou	-8971
▁Mét	-8972
▁stop	-8973
▁phase	-8974
▁Finland	-8975
▁représentant	-8976
lette	-8977
▁Well	-8978
otyléd	-8979
▁outre	-8980
ographical	-8981
EN	-8982
center	-8983
▁cerem	-8984
▁parle	-8985
▁Alliance	-8986
▁chanteur	-8987
▁Vi	-8988
pent	-8989
▁Rud	-8990
▁flag	-8991
▁Staff	-8992
▁intégrée	-8993
OR	-8994
Denis	-8995
enberg	-8996
▁1993.	-8997
▁Hotel	-8998
▁objet	-8999
▁islands	-9000
HS	-9001
asi	-9002
▁Rol	-9003
rem	-9004
▁cru	-9005
rator	-9006
▁Whit	-9007
▁scri	-9008
▁jeunes	-9009
▁Alexand	-9010
▁meeting	-9011
▁Frédéric	-9012
▁Thompson	-9013
▁communale	-9014
otid	-9015
▁Hem	-9016
▁Ward	-9017
▁whole	-9018
▁méthode	-9019
▁fondateur	-9020
tarc	-9021
unité	-9022
▁anciens	-9023
▁elements	-9024
▁manifest	-9025
▁développé	-9026
isted	-9027
▁eaux	-9028
▁partis	-9029
ducation	-9030
rir	-9031
objet	-9032
▁Fall	-9033
▁Command	-9034
uro	-9035
▁guer	-9036
▁Russell	-9037
▁Hop	-9038
▁Sri	-9039
▁Indones	-9040
▁Système	-9041
▁projects	-9042
4).	-9043
rées	-9044
▁Pos	-9045
▁Anna	-9046
▁Bush	-9047
uccess	-9048
▁(1950	-9049
▁Carlos	-9050
▁Online	-9051
▁bishop	-9052
▁Rab	-9053
▁Tib	-9054
enian	-9055
▁desp	-9056
▁punk	-9057
▁votes	-9058
▁Despite	-9059
CAA	-9060
eta	-9061
odon	-9062
▁gam	-9063
▁Parc	-9064
▁citi	-9065
famille	-9066
imetière	-9067
▁interpr	-9068
▁littérature	-9069
fect	-9070
unte	-9071
▁Buc	-9072
▁Cad	-9073
▁Foot	-9074
ocated	-9075
▁block	-9076
▁Prague	-9077
▁détermin	-9078
▁individu	-9079
▁constitué	-9080
▁lack	-9081
▁ouver	-9082
▁renov	-9083
▁titres	-9084
▁dramatique	-9085
▁Gö	-9086
tial	-9087
▁Ivan	-9088
▁Capit	-9089
▁désormais	-9090
sec	-9091
▁LP	-9092
▁Tu	-9093
èche	-9094
▁lia	-9095
ipped	-9096
laire	-9097
▁Golf	-9098
▁prai	-9099
▁Rhône	-9100
▁lorsqu	-9101
▁destroyed	-9102
▁Whe	-9103
▁scr	-9104
▁vac	-9105
aurus	-9106
elson	-9107
▁fast	-9108
▁kilom	-9109
▁Montreal	-9110
▁révolution	-9111
gs	-9112
7).	-9113
iane	-9114
élect	-9115
▁Hein	-9116
odeship	-9117
▁mascul	-9118
▁semble	-9119
▁connect	-9120
▁credits	-9121
igo	-9122
▁Vel	-9123
▁suéd	-9124
▁micro	-9125
atrième	-9126
▁rurale	-9127
▁documents	-9128
▁Collection	-9129
▁DJ	-9130
▁1918	-9131
▁Jura	-9132
▁exec	-9133
▁exprim	-9134
▁highly	-9135
estivals	-9136
▁founding	-9137
méd	-9138
▁177	-9139
▁Fut	-9140
▁Pir	-9141
▁levels	-9142
▁becomes	-9143
▁increased	-9144
utés	-9145
▁Yug	-9146
anner	-9147
uréat	-9148
▁litté	-9149
▁swimming	-9150
▁Christmas	-9151
▁Christopher	-9152
onge	-9153
▁Last	-9154
▁vess	-9155
▁settled	-9156
▁Voivodeship	-9157
▁São	-9158
▁urb	-9159
▁feet	-9160
▁Adams	-9161
▁jurid	-9162
▁soccer	-9163
▁courses	-9164
▁Campbell	-9165
▁guitarist	-9166
pi	-9167
▁6:	-9168
yram	-9169
▁Hunt	-9170
▁keep	-9171
▁Clark	-9172
▁marquée	-9173
▁Richmond	-9174
▁pét	-9175
▁1931	-9176
▁Carib	-9177
▁aired	-9178
▁quick	-9179
▁Johnny	-9180
▁lettre	-9181
▁spring	-9182
GB	-9183
ghan	-9184
rach	-9185
ômes	-9186
anian	-9187
ecess	-9188
edition	-9189
▁victory	-9190
ON	-9191
ça	-9192
stad	-9193
union	-9194
▁mamm	-9195
ailing	-9196
▁1940)	-9197
▁explo	-9198
▁nuclé	-9199
▁grille	-9200
gov	-9201
ser	-9202
holm	-9203
▁Jews	-9204
▁tours	-9205
▁ressort	-9206
▁£	-9207
ido	-9208
roke	-9209
▁frag	-9210
ariste	-9211
▁Round	-9212
▁découvert	-9213
Aug	-9214
wen	-9215
▁Nev	-9216
▁Blues	-9217
▁square	-9218
ologists	-9219
▁foreign	-9220
▁nous	-9221
▁crois	-9222
rase	-9223
▁figures	-9224
-6	-9225
ET	-9226
ju	-9227
▁Fond	-9228
cyclop	-9229
▁Pittsburgh	-9230
▁Répartition	-9231
PR	-9232
–197	-9233
▁rose	-9234
étaire	-9235
▁flotte	-9236
▁gained	-9237
▁avaient	-9238
"),	-9239
mod	-9240
▁Zo	-9241
aware	-9242
▁arab	-9243
▁cann	-9244
▁pack	-9245
ranger	-9246
▁Alain	-9247
cluding	-9248
▁railroad	-9249
Université	-9250
oirs	-9251
rate	-9252
▁...	-9253
▁Gary	-9254
▁ferrov	-9255
▁justice	-9256
▁Trail	-9257
▁Caract	-9258
bel	-9259
uri	-9260
▁Ale	-9261
▁1914	-9262
▁Gray	-9263
▁nuit	-9264
▁Patri	-9265
▁plate	-9266
elligence	-9267
Ir	-9268
▁Yan	-9269
▁boy	-9270
icide	-9271
▁Quar	-9272
▁Sole	-9273
▁Congo	-9274
▁titled	-9275
▁cantonal	-9276
▁collaboration	-9277
▁représentations	-9278
▁Gabri	-9279
▁collect	-9280
▁kilomet	-9281
▁painter	-9282
ographics	-9283
▁Bangladesh	-9284
▁appartenant	-9285
non	-9286
via	-9287
major	-9288
ighter	-9289
ocrate	-9290
▁Oklahoma	-9291
▁Bé	-9292
▁ci	-9293
grad	-9294
izes	-9295
titue	-9296
▁aged	-9297
▁purs	-9298
▁sequ	-9299
▁arrest	-9300
▁german	-9301
glomération	-9302
ded	-9303
iées	-9304
yond	-9305
▁Aur	-9306
▁comic	-9307
▁Brothers	-9308
adow	-9309
▁Tot	-9310
ensed	-9311
eston	-9312
▁socialiste	-9313
▁basse	-9314
▁extre	-9315
▁Israeli	-9316
▁rejoint	-9317
▁Muhammad	-9318
▁médecine	-9319
▁fictional	-9320
oï	-9321
ania	-9322
esses	-9323
ounts	-9324
▁Cuba	-9325
équipe	-9326
▁haute	-9327
▁droits	-9328
then	-9329
▁asc	-9330
▁claimed	-9331
▁starred	-9332
information	-9333
▁(2004)	-9334
▁Language	-9335
El	-9336
illi	-9337
▁fun	-9338
▁Joue	-9339
engers	-9340
▁Canal	-9341
▁judge	-9342
▁dynasty	-9343
▁difficult	-9344
▁attractions	-9345
▁incorporated	-9346
ieuse	-9347
rices	-9348
▁Nature	-9349
▁Vincent	-9350
▁density	-9351
▁problems	-9352
oric	-9353
stream	-9354
▁Youth	-9355
▁Norman	-9356
83	-9357
ben	-9358
ipel	-9359
érer	-9360
▁beau	-9361
uation	-9362
▁Market	-9363
▁contra	-9364
▁inside	-9365
mans	-9366
▁Hit	-9367
▁aqu	-9368
▁Fact	-9369
▁cousin	-9370
▁Belgium	-9371
▁Fellows	-9372
▁analysis	-9373
▁rapidement	-9374
▁Productions	-9375
gas	-9376
attan	-9377
▁Aire	-9378
▁souver	-9379
Be	-9380
5).	-9381
▁Vlad	-9382
loi	-9383
▁CH	-9384
leton	-9385
▁bloc	-9386
▁drug	-9387
▁patronyme	-9388
▁stre	-9389
▁cuisine	-9390
▁Symphony	-9391
inch	-9392
irty	-9393
▁Ard	-9394
▁réd	-9395
moins	-9396
▁Musée	-9397
alg	-9398
osis	-9399
▁Soul	-9400
▁remix	-9401
▁adaptation	-9402
▁soviétique	-9403
œuf	-9404
aver	-9405
racy	-9406
umer	-9407
▁ABC	-9408
▁Had	-9409
▁Here	-9410
▁dieu	-9411
▁évol	-9412
▁proximité	-9413
ohn	-9414
tha	-9415
chet	-9416
fond	-9417
pass	-9418
▁mel	-9419
▁gene	-9420
▁girl	-9421
isters	-9422
▁lesqu	-9423
▁value	-9424
▁Venise	-9425
▁entertain	-9426
100	-9427
▁Mul	-9428
▁theme	-9429
▁départ	-9430
▁likely	-9431
▁Margaret	-9432
▁75	-9433
arre	-9434
▁175	-9435
▁Clim	-9436
▁exerc	-9437
énergie	-9438
▁Communauté	-9439
▁Philippines	-9440
▁(10	-9441
▁bomb	-9442
▁glac	-9443
▁Autom	-9444
▁letter	-9445
▁Additional	-9446
▁intersection	-9447
rém	-9448
lave	-9449
▁rar	-9450
luence	-9451
▁2017.	-9452
▁scene	-9453
▁trees	-9454
fecture	-9455
altitude	-9456
▁vehicle	-9457
▁Hér	-9458
count	-9459
▁gives	-9460
▁Direct	-9461
▁labels	-9462
▁mainten	-9463
▁caractère	-9464
▁précédent	-9465
SE	-9466
▁sand	-9467
pertoire	-9468
▁UN	-9469
laim	-9470
▁1991.	-9471
related	-9472
▁31,	-9473
▁file	-9474
▁jump	-9475
▁Dance	-9476
▁Plant	-9477
▁Racing	-9478
▁Seattle	-9479
imin	-9480
▁Fra	-9481
▁Nash	-9482
▁floor	-9483
▁Publishing	-9484
▁Lad	-9485
▁clear	-9486
▁planned	-9487
divisions	-9488
▁Lag	-9489
▁1921	-9490
▁arena	-9491
▁colleges	-9492
acle	-9493
laise	-9494
▁Bowl	-9495
enburg	-9496
insula	-9497
▁Marseille	-9498
▁quad	-9499
▁reve	-9500
▁compé	-9501
mingham	-9502
▁chargé	-9503
▁slight	-9504
▁mariage	-9505
▁statistique	-9506
AL	-9507
TP	-9508
▁Vie	-9509
▁Rand	-9510
▁Buffalo	-9511
▁compren	-9512
▁législa	-9513
uda	-9514
isch	-9515
▁Lem	-9516
▁rév	-9517
osges	-9518
▁Hend	-9519
▁isol	-9520
abbaye	-9521
▁Petit	-9522
▁footballeur	-9523
▁Ing	-9524
▁Andy	-9525
▁beat	-9526
émique	-9527
▁trône	-9528
▁moderne	-9529
▁Président	-9530
▁respectively	-9531
▁Att	-9532
vient	-9533
▁cinqu	-9534
▁improv	-9535
▁remplacé	-9536
ierra	-9537
▁Blood	-9538
▁Evans	-9539
GC	-9540
dex	-9541
▁vi	-9542
omon	-9543
▁Tas	-9544
▁flows	-9545
▁subsp	-9546
▁Associ	-9547
▁concur	-9548
imm	-9549
▁NBA	-9550
▁Our	-9551
▁Row	-9552
▁granted	-9553
▁histoire	-9554
bul	-9555
race	-9556
▁Tog	-9557
estin	-9558
▁(1820	-9559
▁Among	-9560
uay	-9561
elve	-9562
▁Aub	-9563
arget	-9564
▁happ	-9565
▁1986,	-9566
▁Arena	-9567
▁Coach	-9568
▁Weekly	-9569
▁moitié	-9570
▁require	-9571
/03	-9572
bin	-9573
anny	-9574
reng	-9575
▁ben	-9576
▁1923	-9577
▁weight	-9578
▁bridges	-9579
BM	-9580
▁bit	-9581
▁vér	-9582
ortun	-9583
▁Cole	-9584
▁1988,	-9585
▁Wayne	-9586
▁usage	-9587
▁Building	-9588
▁Heritage	-9589
▁Sign	-9590
▁porté	-9591
▁recens	-9592
▁friends	-9593
▁Unincorporated	-9594
ovo	-9595
opter	-9596
▁Liver	-9597
uxelles	-9598
▁lignes	-9599
▁Rangers	-9600
▁licence	-9601
▁younger	-9602
▁Friedrich	-9603
ulu	-9604
▁0,	-9605
eding	-9606
▁Benj	-9607
▁Food	-9608
▁Kild	-9609
ything	-9610
▁tourné	-9611
aughters	-9612
▁hauteur	-9613
▁cimetière	-9614
▁48	-9615
anni	-9616
▁Lau	-9617
▁perd	-9618
▁athletes	-9619
▁Hungarian	-9620
jar	-9621
emic	-9622
▁Pad	-9623
odium	-9624
▁sections	-9625
quin	-9626
▁Cec	-9627
réviation	-9628
▁representing	-9629
▁Communications	-9630
Sa	-9631
ees	-9632
▁pon	-9633
▁spr	-9634
▁Dean	-9635
▁Lion	-9636
▁Methodist	-9637
▁athletics	-9638
iva	-9639
▁Ill	-9640
▁Jay	-9641
▁nour	-9642
▁(2000)	-9643
▁édition	-9644
utilisation	-9645
po	-9646
▁McK	-9647
▁Mong	-9648
selves	-9649
▁1970,	-9650
▁Collins	-9651
▁leaders	-9652
▁Districts	-9653
folk	-9654
▁Shak	-9655
▁soap	-9656
indust	-9657
▁Crown	-9658
▁Wright	-9659
▁stores	-9660
▁médecin	-9661
▁Demographics	-9662
put	-9663
rix	-9664
▁Fel	-9665
▁Tang	-9666
▁Linux	-9667
▁entier	-9668
election	-9669
▁permanent	-9670
▁préfecture	-9671
harm	-9672
▁1922	-9673
▁lois	-9674
▁sixth	-9675
▁discip	-9676
▁Révolution	-9677
▁lieutenant	-9678
cm	-9679
▁6.	-9680
▁Din	-9681
▁Iraq	-9682
▁Captain	-9683
▁Mexique	-9684
▁Through	-9685
▁effects	-9686
▁pouvant	-9687
arin	-9688
rett	-9689
▁alg	-9690
▁publie	-9691
▁époque	-9692
▁hundred	-9693
▁presque	-9694
Assemblée	-9695
▁Florence	-9696
▁Ri	-9697
▁saf	-9698
▁lieux	-9699
▁Antarc	-9700
▁narrow	-9701
Maritime	-9702
▁Stanley	-9703
▁championships	-9704
bol	-9705
ulé	-9706
ôtel	-9707
▁Mall	-9708
▁Shar	-9709
▁Thor	-9710
▁Jason	-9711
▁phylog	-9712
▁Bristol	-9713
▁junction	-9714
▁patri	-9715
▁statue	-9716
olds	-9717
▁fib	-9718
▁1925	-9719
▁forte	-9720
▁cultural	-9721
Hz	-9722
uler	-9723
▁rét	-9724
▁Mind	-9725
▁Pologne	-9726
▁habitat	-9727
▁révolte	-9728
entreprise	-9729
amo	-9730
▁Net	-9731
redited	-9732
▁Forces	-9733
▁Report	-9734
district	-9735
▁petites	-9736
▁suivants	-9737
▁exception	-9738
▁entreprise	-9739
▁themselves	-9740
uant	-9741
éleste	-9742
lington	-9743
tements	-9744
▁Alaska	-9745
▁linguis	-9746
apes	-9747
aisse	-9748
force	-9749
▁Bull	-9750
▁Lith	-9751
▁parf	-9752
▁Barry	-9753
▁Metro	-9754
▁Psych	-9755
▁confir	-9756
▁consider	-9757
▁Birmingham	-9758
imir	-9759
▁canc	-9760
▁1989.	-9761
▁Pseud	-9762
▁condam	-9763
▁fishing	-9764
▁majorité	-9765
▁observée	-9766
▁divisions	-9767
▁Bes	-9768
▁Saf	-9769
▁Stu	-9770
laves	-9771
▁Frib	-9772
▁kind	-9773
▁sécurité	-9774
▁suffrages	-9775
▁performing	-9776
-196	-9777
isode	-9778
▁Iron	-9779
▁prec	-9780
▁Alpes	-9781
▁Langue	-9782
▁Cassini	-9783
président	-9784
▁Originally	-9785
▁37	-9786
▁(1,	-9787
▁Lie	-9788
▁Gust	-9789
▁limite	-9790
▁winter	-9791
▁activity	-9792
▁Beck	-9793
▁Pope	-9794
▁impr	-9795
riminal	-9796
▁leaves	-9797
▁critique	-9798
Art	-9799
vet	-9800
–194	-9801
▁Libert	-9802
▁adopted	-9803
▁Organization	-9804
▁Ö	-9805
▁|}	-9806
Asie	-9807
opal	-9808
▁Lov	-9809
▁1908	-9810
▁sert	-9811
▁Roche	-9812
▁Software	-9813
98	-9814
akia	-9815
clam	-9816
▁Lav	-9817
encer	-9818
owski	-9819
▁rule	-9820
▁Seven	-9821
▁détaillée	-9822
▁34	-9823
▁scen	-9824
▁tomb	-9825
emment	-9826
▁Savoie	-9827
wall	-9828
▁Cit	-9829
▁Fou	-9830
▁Pin	-9831
▁fans	-9832
▁État	-9833
Martin	-9834
▁transition	-9835
aded	-9836
▁mos	-9837
▁presse	-9838
▁accompagn	-9839
Qu	-9840
fs	-9841
lies	-9842
▁edge	-9843
▁(2003)	-9844
▁Cartes	-9845
▁Morgan	-9846
▁Authority	-9847
oga	-9848
▁AP	-9849
cont	-9850
left	-9851
▁gas	-9852
▁Litt	-9853
▁Geoff	-9854
▁newly	-9855
▁livres	-9856
▁Ukraine	-9857
-5	-9858
▁~	-9859
▁Dat	-9860
veaux	-9861
▁Vend	-9862
▁neut	-9863
▁répar	-9864
aldique	-9865
▁passenger	-9866
ns	-9867
Col	-9868
cell	-9869
fast	-9870
oria	-9871
▁Gérard	-9872
▁Stewart	-9873
▁entitled	-9874
▁Lieutenant	-9875
▁Gur	-9876
▁Teen	-9877
▁176	-9878
▁Due	-9879
aling	-9880
isses	-9881
oints	-9882
▁Kirk	-9883
▁Term	-9884
ething	-9885
anmoins	-9886
▁demand	-9887
▁genera	-9888
▁height	-9889
▁stands	-9890
▁violin	-9891
▁aliment	-9892
▁Executive	-9893
▁existence	-9894
▁franchise	-9895
▁infrastructures	-9896
▁alleg	-9897
▁rivers	-9898
▁Benjamin	-9899
▁converted	-9900
rus	-9901
▁bring	-9902
▁segment	-9903
▁Formation	-9904
hop	-9905
▁Pra	-9906
▁Bron	-9907
▁Chel	-9908
▁Cord	-9909
▁blood	-9910
▁Broadcasting	-9911
IM	-9912
SC	-9913
▁cra	-9914
▁noble	-9915
▁Contin	-9916
▁reform	-9917
omination	-9918
▁acoustic	-9919
IV	-9920
▁mi	-9921
part	-9922
▁lot	-9923
▁NCAA	-9924
▁Rick	-9925
▁Ryan	-9926
▁capt	-9927
▁Cinéma	-9928
▁containing	-9929
mund	-9930
wald	-9931
▁Région	-9932
▁fédéral	-9933
▁concerne	-9934
del	-9935
oca	-9936
▁hér	-9937
▁(191	-9938
▁concl	-9939
▁Gouver	-9940
▁custom	-9941
▁confond	-9942
▁Ancienne	-9943
▁construc	-9944
▁historian	-9945
▁Occupation	-9946
▁découverte	-9947
oro	-9948
acre	-9949
olec	-9950
çant	-9951
étude	-9952
▁Côte	-9953
titors	-9954
▁Baker	-9955
▁yards	-9956
▁royale	-9957
intérieur	-9958
▁Liverpool	-9959
öy	-9960
nels	-9961
▁Has	-9962
léans	-9963
▁Fitz	-9964
▁What	-9965
▁yellow	-9966
▁Fribourg	-9967
▁apparaît	-9968
▁diverses	-9969
▁resigned	-9970
▁SC	-9971
▁Drum	-9972
▁dite	-9973
▁exéc	-9974
▁Esc	-9975
▁Table	-9976
▁entry	-9977
▁prairies	-9978
DA	-9979
fly	-9980
▁Bonn	-9981
iments	-9982
liothèque	-9983
▁Ent	-9984
▁Sex	-9985
where	-9986
▁1984,	-9987
▁Rhodes	-9988
▁passer	-9989
released	-9990
▁increase	-9991
▁transmission	-9992
alc	-9993
rine	-9994
éries	-9995
▁Cook	-9996
▁denses	-9997
▁simply	-9998
▁Pictures	-9999
▁concerts	-10000
▁programmes	-10001
iko	-10002
Inde	-10003
▁Draft	-10004
▁sales	-10005
▁reprend	-10006
▁Delaware	-10007
tification	-10008
imil	-10009
–196	-10010
▁Tou	-10011
▁jug	-10012
▁tué	-10013
onent	-10014
itaires	-10015
▁céleste	-10016
▁largely	-10017
▁experience	-10018
Cla	-10019
enton	-10020
▁Isab	-10021
▁lait	-10022
▁Chand	-10023
▁share	-10024
▁Hawaii	-10025
▁auteurs	-10026
▁contrib	-10027
▁immediately	-10028
▁Alt	-10029
▁Kra	-10030
askat	-10031
▁Face	-10032
▁somme	-10033
chestre	-10034
▁sommet	-10035
▁olympiques	-10036
▁température	-10037
6).	-10038
▁Ib	-10039
icon	-10040
▁Maj	-10041
chell	-10042
▁Swim	-10043
▁merc	-10044
▁Peace	-10045
▁personnages	-10046
▁Construction	-10047
Me	-10048
sa	-10049
▁Past	-10050
▁arms	-10051
▁conç	-10052
▁scén	-10053
▁Gilbert	-10054
▁climate	-10055
▁maladie	-10056
▁monarch	-10057
▁prevent	-10058
▁protect	-10059
▁collections	-10060
We	-10061
ders	-10062
ilia	-10063
mile	-10064
voie	-10065
appel	-10066
▁1912	-10067
▁wing	-10068
▁Avant	-10069
▁mettre	-10070
▁offices	-10071
▁Politics	-10072
▁restaurant	-10073
▁Only	-10074
sterdam	-10075
▁Manche	-10076
▁Munich	-10077
▁Volume	-10078
opération	-10079
▁essentiellement	-10080
outs	-10081
▁fro	-10082
▁gun	-10083
▁Boul	-10084
▁expéri	-10085
▁Matthew	-10086
▁headquarters	-10087
rh	-10088
lee	-10089
sch	-10090
▁Mak	-10091
▁hop	-10092
▁1987,	-10093
ibility	-10094
otylédones	-10095
▁Compagnie	-10096
▁frequently	-10097
▁électrique	-10098
92	-10099
▁mm	-10100
aton	-10101
illo	-10102
icien	-10103
▁Jimmy	-10104
▁Ernest	-10105
▁équipe	-10106
▁passing	-10107
Gar	-10108
▁arc	-10109
▁symp	-10110
isions	-10111
▁security	-10112
▁Aber	-10113
▁Graham	-10114
▁Herbert	-10115
▁Romania	-10116
▁Vietnam	-10117
▁reviews	-10118
▁Caractér	-10119
▁principe	-10120
81	-10121
hat	-10122
érant	-10123
▁tack	-10124
▁bless	-10125
▁might	-10126
▁recon	-10127
▁Warner	-10128
▁régime	-10129
▁Ki	-10130
▁Yu	-10131
▁ba	-10132
▁Jur	-10133
▁pun	-10134
onder	-10135
▁Myth	-10136
▁Kelly	-10137
▁Struct	-10138
▁Sultan	-10139
▁Honours	-10140
▁Standard	-10141
▁determin	-10142
▁Philosoph	-10143
mill	-10144
▁Pom	-10145
▁Comb	-10146
▁soul	-10147
▁solid	-10148
▁Bureau	-10149
▁discuss	-10150
▁category	-10151
▁designer	-10152
97	-10153
eor	-10154
ichi	-10155
▁Late	-10156
▁aire	-10157
▁Neigh	-10158
▁roads	-10159
▁sides	-10160
diction	-10161
▁cabinet	-10162
▁preserv	-10163
▁controll	-10164
organisation	-10165
sex	-10166
▁7.	-10167
▁OS	-10168
long	-10169
overy	-10170
tiful	-10171
▁Jama	-10172
▁hits	-10173
ommage	-10174
▁strat	-10175
▁chosen	-10176
occasion	-10177
▁conduit	-10178
▁Toulouse	-10179
eno	-10180
▁Reserve	-10181
▁appelés	-10182
▁devenue	-10183
▁disease	-10184
▁brothers	-10185
▁operates	-10186
▁signifiant	-10187
CLC	-10188
achi	-10189
yles	-10190
▁Full	-10191
▁XIXe	-10192
▁Jesus	-10193
▁dispon	-10194
▁palais	-10195
▁termes	-10196
").	-10197
Jac	-10198
▁Ian	-10199
▁Jup	-10200
▁Ori	-10201
▁Ligue	-10202
▁Cheval	-10203
▁Morris	-10204
▁impéri	-10205
▁ticket	-10206
▁Wildlife	-10207
▁teaching	-10208
▁providing	-10209
▁sportspeople	-10210
▁égyp	-10211
▁piece	-10212
▁organisé	-10213
▁activités	-10214
▁emigrants	-10215
▁experiment	-10216
isf	-10217
oka	-10218
000.	-10219
▁ped	-10220
▁Pasc	-10221
▁fell	-10222
▁Years	-10223
▁reine	-10224
fication	-10225
▁terrain	-10226
▁actually	-10227
▁électronique	-10228
rire	-10229
▁Dog	-10230
▁Asie	-10231
▁nickn	-10232
▁(2002)	-10233
▁Number	-10234
▁weekly	-10235
▁Mathema	-10236
▁inscrit	-10237
▁publique	-10238
core	-10239
▁indu	-10240
▁Austin	-10241
▁Frances	-10242
▁forward	-10243
▁Yugoslav	-10244
▁monaster	-10245
▁Technical	-10246
ın	-10247
▁Bag	-10248
uelles	-10249
▁verte	-10250
▁Brésil	-10251
▁Orange	-10252
▁Parish	-10253
igration	-10254
▁library	-10255
cho	-10256
uct	-10257
tite	-10258
▁Bowie	-10259
▁tempor	-10260
▁Trinity	-10261
▁portant	-10262
▁comptait	-10263
IIe	-10264
▁Pu	-10265
▁ib	-10266
▁mé	-10267
gart	-10268
▁Nad	-10269
▁Vall	-10270
▁regions	-10271
irt	-10272
lease	-10273
ressed	-10274
▁Daily	-10275
▁hotel	-10276
astique	-10277
▁artific	-10278
▁Architecture	-10279
leep	-10280
▁fair	-10281
énieur	-10282
▁compr	-10283
▁Vosges	-10284
▁enough	-10285
▁waters	-10286
▁creation	-10287
▁Statistics	-10288
It	-10289
inder	-10290
roche	-10291
▁adap	-10292
▁Flore	-10293
▁Saskat	-10294
▁ranked	-10295
mate	-10296
▁Ach	-10297
▁Réc	-10298
▁déd	-10299
▁devenir	-10300
▁educational	-10301
Anc	-10302
amine	-10303
rative	-10304
▁1980.	-10305
▁Barbara	-10306
▁Théâtre	-10307
animation	-10308
▁positive	-10309
▁Bruxelles	-10310
▁directement	-10311
gie	-10312
▁Gun	-10313
▁Ric	-10314
▁Lakes	-10315
ordshire	-10316
▁visible	-10317
▁communaut	-10318
▁Did	-10319
▁Kap	-10320
riers	-10321
uster	-10322
▁cath	-10323
▁allows	-10324
▁unincorporated	-10325
udi	-10326
▁Gab	-10327
▁mut	-10328
keley	-10329
▁Bapt	-10330
▁Stars	-10331
▁patron	-10332
▁Urbanisme	-10333
aku	-10334
aman	-10335
ifer	-10336
otia	-10337
▁2019.	-10338
▁comed	-10339
▁flood	-10340
▁fields	-10341
▁despite	-10342
▁Regiment	-10343
▁Venezuela	-10344
helm	-10345
▁Gor	-10346
▁Bath	-10347
▁alli	-10348
▁cœur	-10349
▁lancé	-10350
▁ambass	-10351
▁purpose	-10352
▁SP	-10353
esti	-10354
▁Pel	-10355
▁Ref	-10356
▁domaines	-10357
▁evidence	-10358
▁expansion	-10359
▁Dj	-10360
ogle	-10361
uled	-10362
exist	-10363
rical	-10364
▁Nort	-10365
▁moléc	-10366
▁consisted	-10367
atu	-10368
arque	-10369
▁Tele	-10370
▁flow	-10371
▁Grant	-10372
▁revue	-10373
▁protoc	-10374
▁Springs	-10375
▁parlement	-10376
yard	-10377
▁Chan	-10378
▁Mayor	-10379
▁Parad	-10380
▁marqué	-10381
▁translation	-10382
▁dos	-10383
▁1913	-10384
▁Chron	-10385
▁Flora	-10386
▁passé	-10387
▁captain	-10388
▁kilomètres	-10389
▁leadership	-10390
▁Kil	-10391
ancing	-10392
▁leave	-10393
titudes	-10394
isa	-10395
ogen	-10396
▁Squadron	-10397
▁attention	-10398
Ie	-10399
bird	-10400
scar	-10401
▁amp	-10402
▁Luis	-10403
▁Utah	-10404
▁1985,	-10405
▁Initi	-10406
▁alpha	-10407
▁sujet	-10408
enstein	-10409
▁scrutin	-10410
▁Français	-10411
▁entrance	-10412
▁Angleterre	-10413
LC	-10414
Car	-10415
alm	-10416
▁Wu	-10417
▁Goth	-10418
▁1982,	-10419
▁Manuel	-10420
▁terrest	-10421
ophysique	-10422
▁statistics	-10423
amas	-10424
▁pup	-10425
▁Glen	-10426
▁Gulf	-10427
▁Mend	-10428
▁hosts	-10429
▁oblig	-10430
▁déroulant	-10431
iade	-10432
▁thr	-10433
▁Hamb	-10434
▁gang	-10435
▁gare	-10436
▁mots	-10437
▁1979,	-10438
▁2020.	-10439
▁Deaths	-10440
▁Walker	-10441
▁animated	-10442
DE	-10443
umi	-10444
▁Alg	-10445
mosph	-10446
owned	-10447
▁2021.	-10448
▁Sarah	-10449
▁Singh	-10450
▁Action	-10451
▁twenty	-10452
▁Espagne	-10453
▁actions	-10454
▁Princess	-10455
▁propriété	-10456
tio	-10457
▁42	-10458
amps	-10459
▁Naval	-10460
ophones	-10461
▁mandat	-10462
▁quality	-10463
▁extensive	-10464
▁consisting	-10465
duct	-10466
ilde	-10467
▁(1)	-10468
▁Wol	-10469
ommée	-10470
▁dead	-10471
▁shel	-10472
▁Parmi	-10473
▁chain	-10474
▁détru	-10475
▁fonde	-10476
▁quitte	-10477
▁skating	-10478
▁succède	-10479
▁épisodes	-10480
orate	-10481
▁boat	-10482
▁ring	-10483
▁Liège	-10484
▁Denver	-10485
▁mixing	-10486
▁normal	-10487
▁Chamber	-10488
▁Islamic	-10489
arus	-10490
iders	-10491
▁gros	-10492
▁1983,	-10493
▁chass	-10494
▁jaune	-10495
▁Joueur	-10496
formerly	-10497
▁contain	-10498
▁efforts	-10499
▁whether	-10500
▁Plusieurs	-10501
▁secrétaire	-10502
gypt	-10503
▁Coun	-10504
▁Sicile	-10505
▁nouveaux	-10506
▁variable	-10507
▁Typologie	-10508
nant	-10509
▁Carn	-10510
estyle	-10511
▁poets	-10512
▁Version	-10513
▁presence	-10514
▁Kle	-10515
ascar	-10516
▁Lane	-10517
▁client	-10518
▁japonaise	-10519
-7	-10520
point	-10521
▁Cinc	-10522
▁talk	-10523
▁futur	-10524
▁monna	-10525
▁poetry	-10526
▁obtained	-10527
▁soldiers	-10528
▁mountains	-10529
▁therefore	-10530
▁passengers	-10531
gro	-10532
bean	-10533
▁duo	-10534
iring	-10535
▁1917	-10536
▁Calc	-10537
▁Drive	-10538
▁Jeanne	-10539
▁workers	-10540
▁Musicians	-10541
▁constitue	-10542
▁Rib	-10543
▁bout	-10544
▁2018),	-10545
▁Imperial	-10546
▁incorpor	-10547
▁opportun	-10548
▁Ou	-10549
érêt	-10550
▁1000	-10551
▁Manh	-10552
etting	-10553
intosh	-10554
▁batter	-10555
▁comics	-10556
▁lawyer	-10557
▁reason	-10558
chel	-10559
icus	-10560
▁Boe	-10561
▁clin	-10562
▁hect	-10563
▁matière	-10564
▁reduced	-10565
▁physical	-10566
tifications	-10567
82	-10568
pie	-10569
Germ	-10570
abad	-10571
role	-10572
▁https	-10573
▁polon	-10574
▁touch	-10575
▁Nelson	-10576
▁marked	-10577
▁Ottoman	-10578
SD	-10579
tte	-10580
Oise	-10581
▁unc	-10582
▁FIFA	-10583
nership	-10584
▁Finnish	-10585
▁Archives	-10586
ums	-10587
▁aj	-10588
rimer	-10589
▁Chad	-10590
▁Model	-10591
▁profit	-10592
▁respect	-10593
Aqu	-10594
aha	-10595
▁55	-10596
rect	-10597
▁Key	-10598
▁Sak	-10599
▁Leur	-10600
▁2023,	-10601
▁Stras	-10602
▁populations	-10603
imon	-10604
▁Vit	-10605
tille	-10606
▁Linn	-10607
▁Tower	-10608
▁manus	-10609
▁médic	-10610
▁steel	-10611
▁option	-10612
▁proven	-10613
▁terminal	-10614
▁standards	-10615
▁ferroviaire	-10616
Sud	-10617
iper	-10618
oudd	-10619
▁1906	-10620
▁Pear	-10621
▁1977,	-10622
▁earth	-10623
▁trouv	-10624
▁valeurs	-10625
Gen	-10626
edo	-10627
▁Cob	-10628
▁accue	-10629
istical	-10630
ventions	-10631
▁Jonathan	-10632
▁travaille	-10633
bone	-10634
olie	-10635
▁dan	-10636
place	-10637
▁Beat	-10638
▁Five	-10639
▁Schm	-10640
▁neuf	-10641
▁Eston	-10642
▁phénom	-10643
▁retail	-10644
Autriche	-10645
▁content	-10646
▁Athletic	-10647
▁anglaise	-10648
▁elevation	-10649
▁numérique	-10650
▁utilisant	-10651
▁néerlandais	-10652
administration	-10653
▁Arrondissements	-10654
▁CR	-10655
ionn	-10656
▁Bil	-10657
▁god	-10658
▁mys	-10659
usage	-10660
▁hété	-10661
▁durée	-10662
▁amateur	-10663
▁growing	-10664
▁implement	-10665
▁businessman	-10666
8).	-10667
éen	-10668
orme	-10669
préf	-10670
queur	-10671
▁Pier	-10672
▁médi	-10673
▁bonus	-10674
▁brown	-10675
▁pouss	-10676
▁amount	-10677
▁forment	-10678
▁Certains	-10679
▁Election	-10680
▁Encyclop	-10681
▁Parlement	-10682
▁identified	-10683
▁Publication	-10684
gi	-10685
aba	-10686
▁bad	-10687
▁pav	-10688
autom	-10689
ansons	-10690
▁Honor	-10691
▁jeunesse	-10692
94	-10693
ingu	-10694
▁Stuart	-10695
▁accessible	-10696
▁lun	-10697
▁mou	-10698
▁Tong	-10699
▁bureau	-10700
▁shortly	-10701
▁programm	-10702
▁functions	-10703
▁orchestra	-10704
▁république	-10705
agers	-10706
▁clav	-10707
▁chose	-10708
▁confl	-10709
▁Lorraine	-10710
▁Saturday	-10711
▁Municipalité	-10712
uits	-10713
night	-10714
▁Hold	-10715
▁Corine	-10716
▁platforms	-10717
▁secretary	-10718
▁electronic	-10719
No	-10720
▁Mé	-10721
rock	-10722
▁ear	-10723
▁rub	-10724
▁Midd	-10725
▁Rico	-10726
▁Terry	-10727
▁créer	-10728
▁Jupiter	-10729
▁Laurent	-10730
▁propose	-10731
▁indé	-10732
▁bases	-10733
▁finale	-10734
▁Norfolk	-10735
▁animaux	-10736
▁forests	-10737
▁Administ	-10738
▁churches	-10739
▁inspired	-10740
ık	-10741
▁GN	-10742
aite	-10743
annon	-10744
▁(2001)	-10745
▁Sierra	-10746
▁drapeau	-10747
▁Fédération	-10748
▁Lank	-10749
-1866)	-10750
▁2018.	-10751
▁Compos	-10752
▁Hin	-10753
▁ulti	-10754
aticien	-10755
▁donner	-10756
Ed	-10757
ués	-10758
oign	-10759
▁sœur	-10760
jectif	-10761
Station	-10762
▁Luther	-10763
▁Madrid	-10764
▁protég	-10765
▁housing	-10766
ouc	-10767
acon	-10768
oken	-10769
âtel	-10770
▁Aer	-10771
▁Ele	-10772
▁Mau	-10773
▁Larry	-10774
▁grave	-10775
▁Ambass	-10776
▁advert	-10777
▁décide	-10778
▁mobile	-10779
▁princes	-10780
▁chiffres	-10781
▁Boulevard	-10782
▁representative	-10783
Av	-10784
ev	-10785
eli	-10786
▁Dig	-10787
▁Sib	-10788
▁Ted	-10789
▁fan	-10790
▁Burg	-10791
▁Apoll	-10792
▁Keith	-10793
▁indiqu	-10794
▁Brooklyn	-10795
▁Écrivain	-10796
▁saxophone	-10797
▁yet	-10798
▁encou	-10799
▁param	-10800
▁Economy	-10801
▁fashion	-10802
▁religieux	-10803
idal	-10804
olin	-10805
pret	-10806
▁Chi	-10807
▁Dic	-10808
▁Ton	-10809
ogram	-10810
▁look	-10811
ention	-10812
▁rough	-10813
▁Knight	-10814
▁volcan	-10815
▁measure	-10816
▁équival	-10817
▁Cultural	-10818
▁Sé	-10819
▁Moz	-10820
▁noy	-10821
Rhône	-10822
▁1988.	-10823
▁courts	-10824
▁moteur	-10825
▁Knights	-10826
▁economy	-10827
▁41	-10828
alled	-10829
cript	-10830
duate	-10831
▁quan	-10832
▁fleur	-10833
▁hamlet	-10834
▁troops	-10835
▁defined	-10836
▁Amérique	-10837
▁Berkeley	-10838
▁suffered	-10839
▁processus	-10840
▁officielle	-10841
▁organisations	-10842
xi	-10843
rans	-10844
▁orb	-10845
offic	-10846
bishop	-10847
▁Claud	-10848
▁Newton	-10849
▁giving	-10850
▁letters	-10851
▁pression	-10852
▁demolished	-10853
▁relatively	-10854
▁biophysique	-10855
OC	-10856
oj	-10857
▁Hind	-10858
▁Phoen	-10859
▁Deputy	-10860
▁memory	-10861
rairement	-10862
▁response	-10863
▁expression	-10864
feld	-10865
▁Isa	-10866
▁Vern	-10867
tracks	-10868
▁Lauréat	-10869
▁austral	-10870
▁agriculture	-10871
Te	-10872
gr	-10873
kir	-10874
▁FA	-10875
issa	-10876
rade	-10877
▁rav	-10878
▁1905	-10879
▁Birds	-10880
▁portug	-10881
▁supprim	-10882
▁puissance	-10883
▁residential	-10884
▁cartographiques	-10885
joy	-10886
rees	-10887
accès	-10888
▁bapt	-10889
▁liée	-10890
▁peace	-10891
▁acquis	-10892
▁finishing	-10893
zig	-10894
▁Cot	-10895
▁NHL	-10896
autor	-10897
▁Tunis	-10898
▁Nevada	-10899
izer	-10900
▁Pon	-10901
▁hame	-10902
▁neur	-10903
▁1972,	-10904
▁applied	-10905
Br	-10906
agé	-10907
div	-10908
▁Data	-10909
▁Yale	-10910
▁mini	-10911
▁Scotia	-10912
formatique	-10913
▁permettent	-10914
architecture	-10915
▁actuellement	-10916
▁<	-10917
cop	-10918
wise	-10919
▁Boh	-10920
▁net	-10921
agram	-10922
▁1904	-10923
▁maje	-10924
▁Novels	-10925
▁surnom	-10926
▁Vermont	-10927
▁affiliated	-10928
▁occidentale	-10929
▁Représentation	-10930
%)	-10931
Jul	-10932
fle	-10933
phy	-10934
ride	-10935
▁bud	-10936
▁spot	-10937
▁pilot	-10938
▁Energy	-10939
▁Cincinn	-10940
▁Several	-10941
▁relative	-10942
▁defensive	-10943
▁introduction	-10944
96	-10945
eda	-10946
orce	-10947
yers	-10948
emark	-10949
▁1911	-10950
▁Summ	-10951
Canada	-10952
cluded	-10953
▁chron	-10954
▁coordin	-10955
▁accepted	-10956
▁translated	-10957
▁(1820-1866)	-10958
▁Kon	-10959
▁1890	-10960
▁Horn	-10961
ulated	-10962
▁Hungary	-10963
▁operate	-10964
éralement	-10965
▁finalement	-10966
hl	-10967
idés	-10968
reur	-10969
▁Dod	-10970
hiver	-10971
▁Taxa	-10972
▁Perth	-10973
▁Format	-10974
▁ending	-10975
▁refuge	-10976
▁studios	-10977
▁listings	-10978
uin	-10979
▁Gw	-10980
alla	-10981
lock	-10982
▁(14	-10983
▁Alc	-10984
▁Dix	-10985
▁extr	-10986
▁script	-10987
▁oiseaux	-10988
▁slightly	-10989
--	-10990
▁Aux	-10991
▁eut	-10992
▁communal	-10993
▁Victorian	-10994
▁committee	-10995
▁publishing	-10996
▁scientific	-10997
är	-10998
anus	-10999
olic	-11000
▁rédu	-11001
▁Suède	-11002
article	-11003
▁organized	-11004
▁resulting	-11005
▁treatment	-11006
▁Californie	-11007
ül	-11008
ûte	-11009
▁Cyr	-11010
▁Mack	-11011
▁Pack	-11012
▁tort	-11013
▁Diocese	-11014
▁déléguée	-11015
▁agricultural	-11016
eni	-11017
acts	-11018
ener	-11019
▁Equ	-11020
▁fur	-11021
▁Rica	-11022
▁arrived	-11023
▁Commander	-11024
etown	-11025
▁Crow	-11026
▁abst	-11027
ifères	-11028
édrale	-11029
▁launch	-11030
▁capable	-11031
▁Bulgaria	-11032
▁continent	-11033
▁entertainment	-11034
▁Iv	-11035
▁NC	-11036
-195	-11037
othy	-11038
▁Blo	-11039
▁Craig	-11040
▁birds	-11041
▁drain	-11042
▁frame	-11043
▁theor	-11044
▁Ukrain	-11045
▁animals	-11046
▁fantasy	-11047
▁partner	-11048
▁graduate	-11049
ymne	-11050
antry	-11051
inage	-11052
ruption	-11053
▁Espèce	-11054
▁Because	-11055
▁Pendant	-11056
▁chanteuse	-11057
App	-11058
aca	-11059
oshi	-11060
êtres	-11061
▁1880	-11062
▁Dieu	-11063
▁Gang	-11064
▁Heat	-11065
annels	-11066
▁fully	-11067
▁école	-11068
▁Palace	-11069
▁corpor	-11070
▁appartient	-11071
▁Dh	-11072
brid	-11073
offs	-11074
intég	-11075
▁pens	-11076
urring	-11077
▁accep	-11078
▁forêt	-11079
▁relev	-11080
▁Reform	-11081
ressional	-11082
▁derniers	-11083
▁militaires	-11084
▁temperature	-11085
▁officiellement	-11086
▁Pay	-11087
▁Giov	-11088
▁flor	-11089
▁rive	-11090
▁Delhi	-11091
▁Global	-11092
▁graphique	-11093
▁NA	-11094
sole	-11095
▁côte	-11096
▁signe	-11097
▁objets	-11098
▁superv	-11099
▁threat	-11100
▁opposite	-11101
▁settlements	-11102
bé	-11103
▁prin	-11104
entrée	-11105
▁Lille	-11106
▁anime	-11107
quement	-11108
▁Soccer	-11109
▁civile	-11110
▁coming	-11111
▁quotid	-11112
▁Greater	-11113
▁achieved	-11114
▁Stockholm	-11115
▁traitement	-11116
eri	-11117
▁68	-11118
–195	-11119
▁hip	-11120
allel	-11121
▁Fund	-11122
▁Snow	-11123
▁1978,	-11124
▁dynam	-11125
▁lists	-11126
▁Marcus	-11127
▁Thunder	-11128
▁literary	-11129
▁Manhattan	-11130
▁canadienne	-11131
lès	-11132
▁pharm	-11133
▁Divers	-11134
▁edited	-11135
▁inconn	-11136
▁legend	-11137
▁spread	-11138
iversary	-11139
You	-11140
aeus	-11141
▁Iss	-11142
geois	-11143
▁musul	-11144
▁enroll	-11145
▁necess	-11146
▁scoring	-11147
▁suédois	-11148
épendance	-11149
▁Cathedral	-11150
▁authority	-11151
▁commissioned	-11152
▁Ic	-11153
encé	-11154
gate	-11155
umel	-11156
▁Ches	-11157
▁soft	-11158
ruguay	-11159
▁1986.	-11160
▁Serbia	-11161
▁actuel	-11162
▁Northwest	-11163
star	-11164
▁Mine	-11165
▁sauv	-11166
▁Griff	-11167
aissent	-11168
▁boundary	-11169
▁cricketer	-11170
▁constituencies	-11171
Eure	-11172
alom	-11173
ulté	-11174
▁Roi	-11175
▁nos	-11176
▁couver	-11177
François	-11178
▁Ancient	-11179
▁ministers	-11180
93	-11181
dep	-11182
▁Say	-11183
asses	-11184
▁1850	-11185
▁Again	-11186
▁shared	-11187
▁credited	-11188
ea	-11189
nik	-11190
spe	-11191
tec	-11192
▁1915	-11193
▁Name	-11194
▁céléb	-11195
▁Native	-11196
▁doivent	-11197
▁experien	-11198
▁Politicians	-11199
-10	-11200
Occ	-11201
▁Quel	-11202
osophe	-11203
▁1970.	-11204
▁mines	-11205
▁Carter	-11206
▁Private	-11207
▁briefly	-11208
▁démocratique	-11209
Ath	-11210
▁Dim	-11211
▁bio	-11212
dinand	-11213
▁Opera	-11214
▁arabe	-11215
▁Altern	-11216
▁parall	-11217
▁Lithuan	-11218
▁pattern	-11219
▁diffusée	-11220
▁medieval	-11221
▁completely	-11222
▁Cos	-11223
▁Mik	-11224
leans	-11225
▁bleu	-11226
manuel	-11227
iformes	-11228
▁Résumé	-11229
▁Charlie	-11230
▁Tourist	-11231
▁Selected	-11232
▁conservation	-11233
▁ton	-11234
échal	-11235
▁Sang	-11236
▁plac	-11237
▁1976,	-11238
▁1983.	-11239
▁fabri	-11240
▁pitch	-11241
▁Pradesh	-11242
▁défense	-11243
▁resulted	-11244
▁authorities	-11245
EFA	-11246
Hen	-11247
oum	-11248
atha	-11249
idée	-11250
▁Sie	-11251
▁soc	-11252
agner	-11253
apons	-11254
empar	-11255
commod	-11256
empire	-11257
▁tombe	-11258
univers	-11259
▁driver	-11260
▁advance	-11261
▁sélection	-11262
▁littéraire	-11263
▁intercommun	-11264
▁44	-11265
▁51	-11266
alia	-11267
asia	-11268
èves	-11269
▁dry	-11270
anyon	-11271
onian	-11272
▁Bris	-11273
▁Abbey	-11274
EM	-11275
UN	-11276
Mus	-11277
▁Set	-11278
▁our	-11279
▁»).	-11280
elier	-11281
▁tube	-11282
father	-11283
▁Cooper	-11284
▁grades	-11285
▁target	-11286
▁Caribbean	-11287
▁Dominique	-11288
▁Cincinnati	-11289
gée	-11290
▁Sah	-11291
orage	-11292
▁onto	-11293
onnier	-11294
▁Maire	-11295
▁Quint	-11296
▁refus	-11297
▁counter	-11298
▁nuclear	-11299
▁Charlotte	-11300
vie	-11301
▁»),	-11302
▁Shel	-11303
▁1985.	-11304
▁arrêté	-11305
▁Œuvres	-11306
▁approach	-11307
▁fondation	-11308
▁novelists	-11309
stal	-11310
▁cub	-11311
▁Île	-11312
athon	-11313
▁Bund	-11314
▁Alice	-11315
▁reign	-11316
▁intégral	-11317
▁potential	-11318
▁Prefecture	-11319
▁→	-11320
ardi	-11321
rupt	-11322
▁Get	-11323
▁Viv	-11324
▁Lead	-11325
▁Jerry	-11326
▁basic	-11327
▁drive	-11328
▁recre	-11329
▁factory	-11330
Atlantique	-11331
▁Amsterdam	-11332
▁producers	-11333
▁journalists	-11334
Star	-11335
onents	-11336
▁squad	-11337
▁specif	-11338
▁Classic	-11339
▁centuries	-11340
aqu	-11341
uzz	-11342
Char	-11343
oble	-11344
▁Sad	-11345
tible	-11346
▁Fres	-11347
▁crew	-11348
produc	-11349
▁Chang	-11350
agascar	-11351
▁adapted	-11352
▁affluent	-11353
▁utilisées	-11354
▁entreprises	-11355
9).	-11356
idel	-11357
unal	-11358
▁CBS	-11359
inité	-11360
manie	-11361
▁Cred	-11362
▁Emer	-11363
▁rass	-11364
▁1974,	-11365
▁Egypt	-11366
▁aucun	-11367
▁poids	-11368
▁ethnic	-11369
▁nobles	-11370
▁écrite	-11371
▁conséqu	-11372
▁Macintosh	-11373
▁contained	-11374
PA	-11375
htm	-11376
-193	-11377
▁Suz	-11378
urban	-11379
▁1981,	-11380
tiennent	-11381
▁Socialist	-11382
▁concentration	-11383
ceau	-11384
▁CEO	-11385
inner	-11386
▁Case	-11387
▁Trou	-11388
▁Adapt	-11389
▁videos	-11390
▁subsidi	-11391
▁Exchange	-11392
▁Secondary	-11393
▁technical	-11394
quie	-11395
▁brig	-11396
▁injury	-11397
▁legisl	-11398
▁tunnel	-11399
▁Gabriel	-11400
▁chromos	-11401
▁Charente	-11402
▁Robinson	-11403
▁restored	-11404
▁Challenge	-11405
Au	-11406
RS	-11407
▁Eff	-11408
▁Vin	-11409
▁eas	-11410
▁Drag	-11411
▁orth	-11412
chewan	-11413
▁butter	-11414
▁heures	-11415
chevêque	-11416
▁Bachelor	-11417
▁Literature	-11418
acée	-11419
▁(13	-11420
▁Guine	-11421
▁morph	-11422
▁(1998)	-11423
▁Nation	-11424
▁Player	-11425
▁danger	-11426
▁fromage	-11427
▁spiritu	-11428
▁Monument	-11429
▁soundtrack	-11430
▁majoritaire	-11431
avan	-11432
sous	-11433
▁Kum	-11434
▁snow	-11435
design	-11436
profit	-11437
▁Chamb	-11438
▁Durée	-11439
ristian	-11440
▁Athens	-11441
▁Branch	-11442
▁priest	-11443
▁républicain	-11444
DS	-11445
▁Pé	-11446
▁SS	-11447
urers	-11448
▁1903	-11449
▁Pand	-11450
▁Tomm	-11451
▁asked	-11452
Garonne	-11453
▁notion	-11454
▁Religion	-11455
▁estimated	-11456
▁québécois	-11457
▁nominations	-11458
19)	-11459
rez	-11460
geon	-11461
éhic	-11462
▁Cov	-11463
▁Oil	-11464
▁fine	-11465
Michel	-11466
▁Robin	-11467
▁climb	-11468
▁deliver	-11469
▁Provence	-11470
▁byzantin	-11471
▁médaille	-11472
▁increasing	-11473
ahl	-11474
amen	-11475
inom	-11476
▁Know	-11477
▁uncle	-11478
▁pierre	-11479
▁totale	-11480
▁blanche	-11481
▁plateau	-11482
▁étoiles	-11483
nov	-11484
pal	-11485
roe	-11486
▁ML	-11487
Laur	-11488
▁Jar	-11489
antly	-11490
▁Deuts	-11491
igenous	-11492
▁Century	-11493
▁Section	-11494
nellement	-11495
▁Romanian	-11496
▁downtown	-11497
▁entièrement	-11498
chy	-11499
▁Ext	-11500
▁Rat	-11501
amour	-11502
▁aéro	-11503
iliale	-11504
ottage	-11505
season	-11506
▁cells	-11507
▁morts	-11508
▁Belgian	-11509
▁consiste	-11510
▁licensed	-11511
▁festivals	-11512
▁Strasbourg	-11513
mé	-11514
▁cm	-11515
very	-11516
▁Buch	-11517
▁1984.	-11518
▁streng	-11519
▁Héraldique	-11520
GS	-11521
mis	-11522
ooth	-11523
▁Wes	-11524
itant	-11525
▁canon	-11526
▁Utilis	-11527
▁flight	-11528
▁safety	-11529
aéroport	-11530
▁quickly	-11531
▁législatives	-11532
ør	-11533
uent	-11534
▁dog	-11535
▁mark	-11536
▁Horse	-11537
▁Newsp	-11538
▁search	-11539
▁victor	-11540
▁Edition	-11541
▁Officer	-11542
84	-11543
iev	-11544
▁43	-11545
iday	-11546
▁Lil	-11547
▁Pul	-11548
▁Sor	-11549
▁1916	-11550
▁Benn	-11551
▁Fland	-11552
▁hands	-11553
▁pione	-11554
uisseau	-11555
▁Cities	-11556
▁Ukrainian	-11557
avy	-11558
rano	-11559
master	-11560
▁1987.	-11561
▁bourg	-11562
▁girls	-11563
▁guard	-11564
▁Bridges	-11565
▁individuals	-11566
▁photography	-11567
isk	-11568
jab	-11569
greg	-11570
Seine	-11571
▁Clay	-11572
entiel	-11573
▁Towns	-11574
▁deleg	-11575
▁drummer	-11576
▁limites	-11577
▁strateg	-11578
▁returning	-11579
▁Saskatchewan	-11580
ixe	-11581
anté	-11582
dent	-11583
east	-11584
oyal	-11585
urst	-11586
▁bits	-11587
▁(1999)	-11588
▁Chester	-11589
▁compete	-11590
▁ranking	-11591
▁internal	-11592
▁Universal	-11593
▁caractères	-11594
▁46	-11595
lett	-11596
▁Gast	-11597
▁Small	-11598
▁juris	-11599
▁quanti	-11600
including	-11601
▁hectares	-11602
▁pourrait	-11603
▁commander	-11604
▁52	-11605
▁Pow	-11606
▁Days	-11607
▁Visc	-11608
Orléans	-11609
enseign	-11610
▁(2008)	-11611
ez	-11612
iji	-11613
▁Vas	-11614
▁mett	-11615
inking	-11616
▁armée	-11617
▁franco	-11618
▁Orleans	-11619
▁occupied	-11620
œurs	-11621
▁Ski	-11622
atifs	-11623
▁Trek	-11624
▁caps	-11625
▁culturel	-11626
▁declared	-11627
▁Recipients	-11628
▁environment	-11629
Gu	-11630
log	-11631
▁Zone	-11632
▁Google	-11633
▁réserv	-11634
▁starts	-11635
▁Kennedy	-11636
▁Profile	-11637
▁ability	-11638
▁publiée	-11639
▁chemical	-11640
▁effective	-11641
▁Kay	-11642
▁1909	-11643
▁lakes	-11644
▁shape	-11645
▁Naples	-11646
▁importance	-11647
▁constellation	-11648
iate	-11649
iler	-11650
établ	-11651
▁slow	-11652
▁1982.	-11653
▁Sénat	-11654
▁chlor	-11655
▁peaked	-11656
▁rendre	-11657
▁Capital	-11658
▁Danemark	-11659
▁Security	-11660
▁machines	-11661
▁officials	-11662
▁construite	-11663
cia	-11664
▁65	-11665
▁AS	-11666
▁Ny	-11667
éder	-11668
terie	-11669
▁laws	-11670
▁mile	-11671
▁Durant	-11672
▁Ground	-11673
▁broadc	-11674
▁Support	-11675
▁mondial	-11676
▁Armenian	-11677
▁Joy	-11678
oslov	-11679
▁Peru	-11680
▁crown	-11681
▁(1997)	-11682
▁facile	-11683
▁Artists	-11684
▁nomination	-11685
indépendance	-11686
web	-11687
rets	-11688
▁Tab	-11689
▁Mang	-11690
▁Livre	-11691
▁dollars	-11692
▁massive	-11693
▁sociale	-11694
▁Logiciel	-11695
▁diamètre	-11696
MC	-11697
gins	-11698
ymph	-11699
▁Fro	-11700
▁tor	-11701
assic	-11702
▁Bomb	-11703
▁Ridge	-11704
▁Tamil	-11705
▁photo	-11706
▁frères	-11707
▁classic	-11708
▁Ja	-11709
yman	-11710
▁Nan	-11711
▁idea	-11712
▁Steel	-11713
▁counc	-11714
▁sever	-11715
country	-11716
▁comput	-11717
▁losing	-11718
érée	-11719
ropri	-11720
▁VIII	-11721
▁sets	-11722
▁1975,	-11723
▁Steven	-11724
▁rhythm	-11725
▁twelve	-11726
▁Limited	-11727
▁Wilhelm	-11728
▁critical	-11729
▁exprimés	-11730
▁productions	-11731
ów	-11732
May	-11733
▁8.	-11734
rete	-11735
umée	-11736
▁Mai	-11737
eneur	-11738
iture	-11739
▁1960,	-11740
▁1973,	-11741
leyball	-11742
▁brésil	-11743
▁parent	-11744
▁Olivier	-11745
▁drivers	-11746
▁Medicine	-11747
:1	-11748
ste	-11749
▁CN	-11750
rell	-11751
▁mul	-11752
▁1800	-11753
▁reserve	-11754
▁Economic	-11755
▁allowing	-11756
▁bâtiment	-11757
▁captured	-11758
▁reaching	-11759
▁longtemps	-11760
20)	-11761
▁dot	-11762
▁vra	-11763
▁visit	-11764
▁ornith	-11765
ématique	-11766
▁Habitat	-11767
▁distrib	-11768
▁theater	-11769
▁musicale	-11770
▁mécanique	-11771
▁distributed	-11772
UR	-11773
arte	-11774
▁Dipl	-11775
▁kept	-11776
nelles	-11777
▁Manit	-11778
▁Mario	-11779
▁Tchad	-11780
▁portray	-11781
▁om	-11782
-191	-11783
▁Warren	-11784
▁string	-11785
▁unions	-11786
▁coalition	-11787
▁Renaissance	-11788
cos	-11789
▁119	-11790
▁Voy	-11791
▁Bach	-11792
unicip	-11793
▁Never	-11794
▁trial	-11795
▁Hunter	-11796
▁meters	-11797
térieure	-11798
▁enseign	-11799
▁Interview	-11800
▁conductor	-11801
DP	-11802
nic	-11803
rob	-11804
▁72	-11805
▁Kl	-11806
idad	-11807
▁burn	-11808
▁scol	-11809
orient	-11810
▁exact	-11811
▁appare	-11812
ailleurs	-11813
▁Nicholas	-11814
▁Portland	-11815
▁renseign	-11816
▁installed	-11817
ims	-11818
▁vs	-11819
enos	-11820
alion	-11821
▁Must	-11822
▁empr	-11823
▁glob	-11824
▁lands	-11825
▁réfug	-11826
▁quelque	-11827
▁Broadway	-11828
▁Assistant	-11829
▁candidates	-11830
TR	-11831
tz	-11832
▁1870	-11833
▁Jenn	-11834
▁gran	-11835
▁stret	-11836
▁Agency	-11837
▁Theater	-11838
Man	-11839
kar	-11840
ticip	-11841
▁dioc	-11842
▁Alger	-11843
▁horiz	-11844
purpose	-11845
▁relief	-11846
▁morning	-11847
▁painters	-11848
▁Dictionary	-11849
▁maintenant	-11850
phin	-11851
teau	-11852
▁Lett	-11853
▁mang	-11854
▁Ghana	-11855
▁aires	-11856
▁diagn	-11857
▁Machine	-11858
▁féminin	-11859
ghanistan	-11860
▁Mitchell	-11861
▁citizens	-11862
▁disparue	-11863
▁maritime	-11864
▁Communist	-11865
▁communiste	-11866
▁succession	-11867
éto	-11868
▁Lap	-11869
▁Tob	-11870
▁côt	-11871
▁1896	-11872
▁Foss	-11873
▁Stre	-11874
▁Unit	-11875
▁préd	-11876
▁true	-11877
▁Oblast	-11878
▁Systems	-11879
▁holding	-11880
▁annually	-11881
▁quatrième	-11882
GBT	-11883
▁ov	-11884
▁quin	-11885
▁1978.	-11886
▁beach	-11887
ruction	-11888
▁closely	-11889
▁Auvergne	-11890
▁Aviation	-11891
▁abandoned	-11892
▁appearing	-11893
agglomération	-11894
BL	-11895
-17	-11896
hai	-11897
▁Hond	-11898
▁laid	-11899
▁Alban	-11900
▁suivi	-11901
▁Somers	-11902
▁Kildare	-11903
▁exchange	-11904
▁meilleure	-11905
Il	-11906
top	-11907
▁vul	-11908
▁Duch	-11909
▁Prop	-11910
▁1977.	-11911
▁Botan	-11912
▁outil	-11913
▁volont	-11914
▁setting	-11915
▁locomotives	-11916
IL	-11917
aho	-11918
hom	-11919
mat	-11920
gery	-11921
ulte	-11922
▁Mrs	-11923
▁tox	-11924
aired	-11925
avoir	-11926
▁glace	-11927
▁Taiwan	-11928
▁request	-11929
▁épisode	-11930
▁Ferdinand	-11931
▁recognition	-11932
lap	-11933
new	-11934
▁là	-11935
▁Nas	-11936
avier	-11937
irent	-11938
▁1907	-11939
▁Kath	-11940
▁atom	-11941
▁Guitar	-11942
▁dispose	-11943
▁dropped	-11944
▁employed	-11945
▁painting	-11946
▁MS	-11947
ional	-11948
▁Happ	-11949
▁Wang	-11950
▁fail	-11951
Claude	-11952
▁hired	-11953
▁Boeing	-11954
▁divisé	-11955
▁déclar	-11956
▁Christi	-11957
acht	-11958
odie	-11959
olle	-11960
▁Even	-11961
▁prime	-11962
anthrop	-11963
▁occurs	-11964
▁Jérusalem	-11965
▁Principal	-11966
▁biography	-11967
uet	-11968
▁54	-11969
ipes	-11970
rophe	-11971
▁Ship	-11972
▁bird	-11973
▁greater	-11974
▁Scénario	-11975
▁incident	-11976
▁contribut	-11977
▁AITA	-11978
▁Diam	-11979
▁Mann	-11980
▁rear	-11981
▁Franz	-11982
▁Nancy	-11983
tically	-11984
▁Mother	-11985
▁archae	-11986
expression	-11987
▁residence	-11988
▁Fras	-11989
▁serial	-11990
▁église	-11991
▁underst	-11992
gel	-11993
yre	-11994
hour	-11995
–193	-11996
▁Gam	-11997
▁Mig	-11998
▁Rus	-11999
child	-12000
▁Amaz	-12001
évêque	-12002
▁quant	-12003
▁suspend	-12004
▁remporte	-12005
wers	-12006
▁Cao	-12007
▁péd	-12008
thing	-12009
▁Rams	-12010
▁Upon	-12011
▁laiss	-12012
▁judges	-12013
▁Bataille	-12014
▁accommod	-12015
▁diffusion	-12016
pet	-12017
liste	-12018
▁Baby	-12019
▁doub	-12020
▁phon	-12021
▁éche	-12022
▁Perry	-12023
▁arrive	-12024
activité	-12025
▁secteur	-12026
iled	-12027
ucks	-12028
Comté	-12029
▁goes	-12030
▁link	-12031
▁Blanc	-12032
▁Nobel	-12033
▁broke	-12034
▁homes	-12035
▁config	-12036
▁Lombard	-12037
▁coastal	-12038
▁existing	-12039
91	-12040
▁85	-12041
▁Xi	-12042
▁« 	-12043
▁170	-12044
▁Hat	-12045
miral	-12046
onnée	-12047
▁Arms	-12048
uerite	-12049
▁facil	-12050
▁impos	-12051
▁retra	-12052
▁annonce	-12053
▁scénario	-12054
▁universities	-12055
Val	-12056
▁Cold	-12057
▁Shaw	-12058
osperm	-12059
▁humor	-12060
▁contrô	-12061
▁grounds	-12062
▁lumière	-12063
▁typical	-12064
▁superior	-12065
▁nécessaire	-12066
▁contributions	-12067
87	-12068
rip	-12069
duce	-12070
▁runner	-12071
▁textes	-12072
▁Serbian	-12073
▁charges	-12074
▁planning	-12075
▁Réalisation	-12076
uta	-12077
bust	-12078
fall	-12079
iend	-12080
ogie	-12081
▁cot	-12082
▁(202	-12083
▁Adela	-12084
▁thous	-12085
ocation	-12086
▁trouver	-12087
athe	-12088
▁10.	-12089
▁Inv	-12090
▁cyl	-12091
▁Then	-12092
▁Colin	-12093
▁cattle	-12094
▁sultan	-12095
▁audience	-12096
▁colonial	-12097
▁straight	-12098
▁PlayStation	-12099
bow	-12100
fjord	-12101
▁LGBT	-12102
▁Berry	-12103
▁strug	-12104
▁servant	-12105
uccessful	-12106
▁activité	-12107
▁entirely	-12108
▁journals	-12109
▁artistique	-12110
▁Beg	-12111
▁Opp	-12112
▁boys	-12113
▁Shang	-12114
▁rapide	-12115
▁coaching	-12116
▁greatest	-12117
▁daughters	-12118
▁materials	-12119
▁Madagascar	-12120
▁BM	-12121
▁Cu	-12122
▁Dup	-12123
▁Got	-12124
▁caf	-12125
iteurs	-12126
▁Democ	-12127
▁intit	-12128
▁sorte	-12129
▁Ax	-12130
itness	-12131
▁danse	-12132
▁emerg	-12133
▁turns	-12134
▁Résult	-12135
▁causes	-12136
▁algorith	-12137
▁contributed	-12138
 »	-12139
▁4-	-12140
omys	-12141
rose	-12142
▁Aar	-12143
agent	-12144
▁Isle	-12145
▁veut	-12146
▁Magic	-12147
▁rival	-12148
usement	-12149
velines	-12150
▁Circle	-12151
▁wanted	-12152
▁compared	-12153
DC	-12154
TE	-12155
éry	-12156
oins	-12157
▁Coc	-12158
▁fus	-12159
andin	-12160
ospit	-12161
▁Poly	-12162
▁heads	-12163
▁Plante	-12164
▁savoir	-12165
▁Athènes	-12166
▁formule	-12167
▁nations	-12168
▁Édouard	-12169
▁fichiers	-12170
FF	-12171
▁{	-12172
▁Ans	-12173
▁étend	-12174
▁Saxony	-12175
▁Giovanni	-12176
▁distinction	-12177
avi	-12178
Bapt	-12179
only	-12180
vaux	-12181
▁acts	-12182
▁hong	-12183
teenth	-12184
▁2006)	-12185
▁Westm	-12186
▁côtés	-12187
▁skiers	-12188
ographer	-12189
▁Caroline	-12190
▁occurred	-12191
▁Jefferson	-12192
▁interchange	-12193
fa	-12194
etti	-12195
érid	-12196
ensen	-12197
▁bour	-12198
▁flat	-12199
Jacques	-12200
▁Observ	-12201
▁Auguste	-12202
liga	-12203
▁Raf	-12204
▁sale	-12205
▁décès	-12206
▁quart	-12207
▁Figure	-12208
▁analog	-12209
▁députés	-12210
▁receiving	-12211
nie	-12212
etry	-12213
uves	-12214
▁Hud	-12215
▁héros	-12216
▁reven	-12217
▁pieces	-12218
-12	-12219
oku	-12220
zes	-12221
▁MRC	-12222
▁Cath	-12223
▁Cycl	-12224
▁fisc	-12225
▁Minor	-12226
▁adapté	-12227
▁collected	-12228
▁establishment	-12229
lep	-12230
boys	-12231
▁NBC	-12232
▁cup	-12233
▁Frid	-12234
▁Hann	-12235
▁View	-12236
esters	-12237
▁Reich	-12238
▁Until	-12239
▁effec	-12240
erstate	-12241
▁ouvert	-12242
▁finance	-12243
▁Harrison	-12244
▁worldwide	-12245
▁définition	-12246
▁equivalent	-12247
▁simplement	-12248
▁départements	-12249
dé	-12250
axe	-12251
▁Cle	-12252
▁pub	-12253
alles	-12254
▁Gamb	-12255
▁Ring	-12256
ellect	-12257
ffield	-12258
rairie	-12259
▁1971,	-12260
▁noire	-12261
▁receive	-12262
▁traduit	-12263
▁Université	-12264
▁associations	-12265
▁PS	-12266
▁Ble	-12267
▁Lec	-12268
▁Vau	-12269
▁blan	-12270
United	-12271
▁Fellow	-12272
▁session	-12273
▁Orthodox	-12274
▁commande	-12275
▁counties	-12276
▁household	-12277
▁largement	-12278
▁800	-12279
▁Lex	-12280
stein	-12281
▁Wald	-12282
▁arché	-12283
▁stood	-12284
▁carbon	-12285
▁vivant	-12286
▁Stevens	-12287
▁desserv	-12288
▁peuplée	-12289
▁Chairman	-12290
NS	-12291
uli	-12292
days	-12293
pert	-12294
tone	-12295
▁1979.	-12296
▁baron	-12297
▁glass	-12298
▁visited	-12299
▁broadcasting	-12300
▁basé	-12301
▁rois	-12302
▁tiss	-12303
▁martyr	-12304
▁Johannes	-12305
▁Conseiller	-12306
OP	-12307
▁hu	-12308
▁Ara	-12309
▁Ober	-12310
▁Sche	-12311
▁Shin	-12312
▁ques	-12313
marine	-12314
▁blues	-12315
▁heard	-12316
iration	-12317
rogènes	-12318
▁Control	-12319
▁contenant	-12320
▁démission	-12321
▁connection	-12322
▁coordonnées	-12323
▁Tru	-12324
▁cass	-12325
▁Woman	-12326
▁arbres	-12327
▁defeat	-12328
▁espace	-12329
▁sexual	-12330
▁écoles	-12331
Baptiste	-12332
▁feuille	-12333
▁formations	-12334
▁Littérature	-12335
iah	-12336
atson	-12337
▁Otto	-12338
▁Pedro	-12339
▁identi	-12340
▁specim	-12341
▁Nouveau	-12342
▁boundaries	-12343
Rhin	-12344
▁Cox	-12345
▁dism	-12346
Ancien	-12347
▁décor	-12348
Germain	-12349
▁Tasman	-12350
▁Manager	-12351
▁foundation	-12352
cu	-12353
oven	-12354
▁Bak	-12355
pping	-12356
▁Curt	-12357
▁Sony	-12358
▁Bened	-12359
▁Syrac	-12360
▁envah	-12361
▁Oliver	-12362
▁fought	-12363
▁arables	-12364
▁consomm	-12365
Aquitaine	-12366
▁Progress	-12367
▁approved	-12368
▁identique	-12369
UK	-12370
▁47	-12371
tilé	-12372
▁1901	-12373
▁Lamb	-12374
▁banks	-12375
▁caval	-12376
ériques	-12377
▁Ottawa	-12378
▁impact	-12379
▁liaison	-12380
▁cardinal	-12381
▁neighbourhood	-12382
lique	-12383
scape	-12384
▁Chen	-12385
▁Yang	-12386
ampton	-12387
ellent	-12388
embles	-12389
▁Monde	-12390
▁grass	-12391
▁veget	-12392
▁longest	-12393
▁Phillips	-12394
▁maintained	-12395
▁philosophe	-12396
▁répertoire	-12397
▁Conservation	-12398
ocal	-12399
▁Nak	-12400
▁Sug	-12401
▁Tin	-12402
▁buy	-12403
▁ele	-12404
alymp	-12405
iking	-12406
olved	-12407
▁Made	-12408
lacing	-12409
▁Archit	-12410
▁colour	-12411
▁horror	-12412
▁cherche	-12413
▁rebuilt	-12414
ederation	-12415
▁releases	-12416
▁développe	-12417
▁offensive	-12418
▁expédition	-12419
ır	-12420
nem	-12421
élu	-12422
auty	-12423
iaux	-12424
vège	-12425
▁pet	-12426
▁reçu	-12427
glises	-12428
▁choix	-12429
▁gross	-12430
▁shore	-12431
allists	-12432
▁Rights	-12433
▁centres	-12434
▁Vladimir	-12435
▁regarded	-12436
ampa	-12437
etty	-12438
▁Haz	-12439
after	-12440
▁Oscar	-12441
▁queue	-12442
▁municip	-12443
▁seventh	-12444
omeranian	-12445
▁channels	-12446
▁ruisseau	-12447
▁uniquement	-12448
▁Municipalities	-12449
atal	-12450
elia	-12451
▁Liu	-12452
▁Wed	-12453
onner	-12454
▁draw	-12455
▁1967,	-12456
▁Activ	-12457
▁drafted	-12458
▁guitare	-12459
▁agreement	-12460
▁producing	-12461
▁Tournament	-12462
fan	-12463
bane	-12464
▁bil	-12465
▁sum	-12466
helle	-12467
▁Near	-12468
▁crit	-12469
▁frequ	-12470
▁agency	-12471
▁object	-12472
▁distingue	-12473
▁publisher	-12474
Bar	-12475
four	-12476
isan	-12477
▁Eli	-12478
ouche	-12479
▁Sens	-12480
▁1974.	-12481
▁effort	-12482
▁advanced	-12483
▁électorale	-12484
gio	-12485
▁Dum	-12486
▁ros	-12487
atine	-12488
▁cond	-12489
▁Tommy	-12490
▁santé	-12491
▁Copenh	-12492
▁Moscou	-12493
▁phrase	-12494
▁faisait	-12495
▁logiciels	-12496
▁suggested	-12497
▁traduction	-12498
oug	-12499
zon	-12500
▁vu	-12501
itre	-12502
image	-12503
imbab	-12504
▁Movie	-12505
▁intèg	-12506
▁Dennis	-12507
▁beyond	-12508
▁needed	-12509
▁récomp	-12510
▁Archive	-12511
▁Phoenix	-12512
▁Adelaide	-12513
▁réaction	-12514
▁Transports	-12515
▁ 	-12516
ymes	-12517
arius	-12518
▁Dest	-12519
▁Neil	-12520
▁deme	-12521
énéfic	-12522
étiques	-12523
▁Access	-12524
▁réforme	-12525
▁singing	-12526
▁ministère	-12527
▁circulation	-12528
EL	-12529
Sch	-12530
▁1895	-12531
▁1968,	-12532
▁decor	-12533
▁Turner	-12534
▁Workers	-12535
▁connaît	-12536
▁syndrome	-12537
lair	-12538
▁sche	-12539
▁wine	-12540
emples	-12541
ulsion	-12542
▁Actor	-12543
▁Eagles	-12544
▁bottom	-12545
▁corner	-12546
▁médiév	-12547
▁conference	-12548
-16	-12549
opol	-12550
court	-12551
final	-12552
▁dors	-12553
▁rent	-12554
▁Lions	-12555
▁Légion	-12556
▁musicien	-12557
▁Résultats	-12558
▁regularly	-12559
▁guitarists	-12560
Ap	-12561
èv	-12562
One	-12563
▁Sr	-12564
▁Lic	-12565
▁Wel	-12566
▁Viol	-12567
▁Every	-12568
▁Storm	-12569
▁disapp	-12570
écriture	-12571
▁alliance	-12572
▁recensement	-12573
door	-12574
seaux	-12575
naires	-12576
édoine	-12577
▁mouth	-12578
▁devint	-12579
▁graines	-12580
▁subsequent	-12581
Par	-12582
hus	-12583
elius	-12584
éfilm	-12585
▁clan	-12586
▁envir	-12587
▁overs	-12588
▁Justin	-12589
▁autrich	-12590
▁bénéfic	-12591
▁compose	-12592
▁Chevalier	-12593
▁Organisation	-12594
▁programmation	-12595
▁66	-12596
▁Pt	-12597
▁ol	-12598
▁Él	-12599
emen	-12600
type	-12601
undi	-12602
▁rain	-12603
▁Maced	-12604
▁Treat	-12605
▁(1995)	-12606
▁advent	-12607
▁climat	-12608
Occident	-12609
▁concile	-12610
▁trained	-12611
▁restaurants	-12612
ôp	-12613
oyer	-12614
▁160	-12615
▁Kin	-12616
▁pool	-12617
▁timb	-12618
▁Pascal	-12619
▁Prison	-12620
▁Single	-12621
▁domestic	-12622
▁inducted	-12623
▁Structure	-12624
▁Dictionnaire	-12625
▁instrumental	-12626
cor	-12627
omy	-12628
asis	-12629
dish	-12630
idden	-12631
▁Sard	-12632
▁Bobby	-12633
▁lutte	-12634
▁Constitu	-12635
▁chinoise	-12636
▁propriétés	-12637
▁administratif	-12638
ân	-12639
série	-12640
Christ	-12641
▁saying	-12642
▁crosses	-12643
▁synthes	-12644
industrie	-12645
unication	-12646
▁assembly	-12647
▁internet	-12648
▁Performance	-12649
BI	-12650
LP	-12651
borg	-12652
ibre	-12653
otyp	-12654
▁Kos	-12655
▁1976.	-12656
▁paris	-12657
lephone	-12658
▁catégor	-12659
▁notably	-12660
▁covering	-12661
▁protéger	-12662
▁Pakistani	-12663
association	-12664
éan	-12665
gary	-12666
▁Train	-12667
▁plane	-12668
▁massif	-12669
▁obtenu	-12670
▁constituée	-12671
rime	-12672
ylon	-12673
▁Care	-12674
▁Gand	-12675
▁Pete	-12676
aisons	-12677
othing	-12678
▁cable	-12679
▁Prénom	-12680
▁partage	-12681
▁Manitoba	-12682
▁Syracuse	-12683
▁visitors	-12684
▁Évolution	-12685
▁germanique	-12686
5 	-12687
ete	-12688
irk	-12689
come	-12690
▁egg	-12691
▁île	-12692
style	-12693
▁2015)	-12694
analyse	-12695
▁Roland	-12696
▁inspiré	-12697
▁capacité	-12698
▁poissons	-12699
▁underground	-12700
uni	-12701
▁ber	-12702
▁sin	-12703
▁Équ	-12704
▁fame	-12705
▁gain	-12706
▁tail	-12707
▁trip	-12708
castle	-12709
▁Bavière	-12710
▁joining	-12711
▁minimum	-12712
▁objects	-12713
▁references	-12714
cus	-12715
dans	-12716
pour	-12717
heure	-12718
▁Mamm	-12719
▁Poll	-12720
▁pure	-12721
▁fresh	-12722
▁(1996)	-12723
▁brands	-12724
Bretagne	-12725
▁chansons	-12726
▁orthodox	-12727
olid	-12728
ulum	-12729
▁Len	-12730
▁ami	-12731
▁pul	-12732
utton	-12733
▁Sans	-12734
▁poem	-12735
▁pros	-12736
▁vaut	-12737
▁1972.	-12738
▁armes	-12739
▁Ludwig	-12740
▁montre	-12741
▁employé	-12742
▁portent	-12743
▁medicine	-12744
▁Institution	-12745
lau	-12746
▁76	-12747
▁96	-12748
oses	-12749
▁Amb	-12750
▁Bod	-12751
▁Hugo	-12752
friend	-12753
▁enjoy	-12754
▁Louise	-12755
▁Primary	-12756
▁associé	-12757
▁branche	-12758
▁protected	-12759
igi	-12760
▁53	-12761
▁ibn	-12762
▁couv	-12763
▁véhic	-12764
▁Francs	-12765
▁jardin	-12766
▁muscle	-12767
▁revient	-12768
▁fighting	-12769
eca	-12770
atra	-12771
▁lié	-12772
▁mit	-12773
▁anch	-12774
▁flam	-12775
▁tank	-12776
▁Leeds	-12777
▁Ralph	-12778
▁judic	-12779
▁nomme	-12780
▁(2009)	-12781
▁telles	-12782
▁Cantons	-12783
▁Hongrie	-12784
▁hommage	-12785
▁Quelques	-12786
▁reaction	-12787
▁interface	-12788
hausen	-12789
▁accus	-12790
imbabwe	-12791
▁Commons	-12792
▁ceremony	-12793
▁questions	-12794
▁Patrimoine	-12795
kg	-12796
gle	-12797
pti	-12798
disc	-12799
ocat	-12800
tick	-12801
▁Abb	-12802
▁enl	-12803
▁lig	-12804
▁théorème	-12805
▁Wrestling	-12806
▁satellites	-12807
▁scientifiques	-12808
auf	-12809
fils	-12810
▁Deb	-12811
asure	-12812
marks	-12813
▁Insp	-12814
▁Péri	-12815
insule	-12816
▁douze	-12817
▁prize	-12818
▁Course	-12819
▁Harold	-12820
▁Though	-12821
▁supply	-12822
▁vision	-12823
▁serious	-12824
CH	-12825
EA	-12826
▁Sz	-12827
eway	-12828
lane	-12829
▁50,	-12830
▁bac	-12831
▁www	-12832
▁Bord	-12833
▁Ster	-12834
overed	-12835
▁Bruno	-12836
▁talent	-12837
▁doubles	-12838
▁survived	-12839
aby	-12840
unning	-12841
iscopal	-12842
▁pratiqu	-12843
▁reconst	-12844
▁Database	-12845
▁réalisée	-12846
▁trouvent	-12847
Luc	-12848
▁Ps	-12849
▁Cai	-12850
▁Toy	-12851
▁pic	-12852
▁Grim	-12853
▁hind	-12854
▁iron	-12855
▁vols	-12856
▁voire	-12857
▁aucune	-12858
▁cordes	-12859
▁strength	-12860
▁dimension	-12861
▁monastery	-12862
▁Mediterran	-12863
▁considérée	-12864
▁partnership	-12865
▁transformation	-12866
DI	-12867
Oct	-12868
Sav	-12869
uba	-12870
▁Fri	-12871
occup	-12872
acteur	-12873
▁2022.	-12874
▁Syrie	-12875
install	-12876
▁Double	-12877
▁Father	-12878
▁chacun	-12879
▁Uruguay	-12880
▁Ministre	-12881
▁souverain	-12882
▁successor	-12883
▁consecutive	-12884
▁municipales	-12885
–2	-12886
mel	-12887
▁tch	-12888
▁Dame	-12889
▁Lock	-12890
ancell	-12891
▁1981.	-12892
▁Denis	-12893
winning	-12894
▁cannot	-12895
▁indien	-12896
▁malgré	-12897
▁chapelle	-12898
enseignement	-12899
▁Lok	-12900
▁Gonz	-12901
▁Salt	-12902
monton	-12903
ortant	-12904
▁carré	-12905
elected	-12906
ibilité	-12907
▁claims	-12908
alphabet	-12909
▁Madison	-12910
▁chimique	-12911
▁surrounded	-12912
▁hétérogènes	-12913
roch	-12914
▁Vil	-12915
▁UEFA	-12916
▁seek	-12917
▁xian	-12918
▁1973.	-12919
▁afric	-12920
ropical	-12921
▁finals	-12922
▁Friends	-12923
▁interne	-12924
▁creating	-12925
▁cycliste	-12926
▁Universiade	-12927
▁63	-12928
▁od	-12929
grave	-12930
hedron	-12931
▁effic	-12932
▁monast	-12933
▁orange	-12934
▁electron	-12935
▁endémique	-12936
▁différence	-12937
▁possession	-12938
haps	-12939
▁Pod	-12940
onies	-12941
▁ache	-12942
▁1969,	-12943
▁Genève	-12944
▁armées	-12945
▁Faculty	-12946
▁fraction	-12947
▁Bulgarian	-12948
gang	-12949
▁Cod	-12950
▁Was	-12951
▁1860	-12952
▁Gill	-12953
▁Jess	-12954
▁Thaï	-12955
entier	-12956
▁Cours	-12957
▁réuss	-12958
▁Tigers	-12959
▁garden	-12960
▁cultures	-12961
▁traverse	-12962
▁Operation	-12963
▁catalogue	-12964
▁knowledge	-12965
▁independence	-12966
▁IX	-12967
host	-12968
▁Kun	-12969
raham	-12970
▁1902	-12971
▁réal	-12972
▁Toute	-12973
▁absol	-12974
▁calls	-12975
▁molec	-12976
▁ratio	-12977
▁deputy	-12978
▁global	-12979
▁mining	-12980
▁disparu	-12981
▁Colombia	-12982
▁Junction	-12983
▁invasion	-12984
▁scheduled	-12985
▁destination	-12986
▁Mam	-12987
▁Mut	-12988
▁die	-12989
osion	-12990
asions	-12991
▁Abdul	-12992
▁croix	-12993
Laurent	-12994
intendo	-12995
▁Arnold	-12996
▁Gilles	-12997
▁classé	-12998
▁Baronet	-12999
▁engines	-13000
▁ouvrage	-13001
▁problèmes	-13002
▁99	-13003
lait	-13004
▁174	-13005
▁pel	-13006
▁Grad	-13007
▁told	-13008
ailand	-13009
▁index	-13010
▁throw	-13011
▁Sophie	-13012
▁Document	-13013
▁powerful	-13014
▁marketing	-13015
▁toutefois	-13016
abol	-13017
▁Loz	-13018
▁Por	-13019
▁RAF	-13020
liest	-13021
oting	-13022
August	-13023
années	-13024
inters	-13025
▁Fight	-13026
▁skiing	-13027
▁Calgary	-13028
▁Comédie	-13029
▁apparent	-13030
Oh	-13031
redi	-13032
▁lob	-13033
▁Isaac	-13034
èvement	-13035
ulations	-13036
▁accessed	-13037
▁IC	-13038
▁cér	-13039
uaire	-13040
▁dress	-13041
autique	-13042
▁ancest	-13043
▁Baptist	-13044
▁heavily	-13045
▁Peninsula	-13046
oko	-13047
-192	-13048
lays	-13049
▁Fly	-13050
▁shop	-13051
/03/19	-13052
▁essay	-13053
lective	-13054
▁damage	-13055
▁existed	-13056
▁Actresses	-13057
▁descendants	-13058
erk	-13059
▁Wei	-13060
▁Cela	-13061
▁crée	-13062
▁guide	-13063
archive	-13064
▁Indoor	-13065
▁Highland	-13066
▁horizont	-13067
▁assassiné	-13068
▁reception	-13069
▁classified	-13070
▁supporting	-13071
▁manifestations	-13072
reh	-13073
▁3-	-13074
▁56	-13075
▁77	-13076
chin	-13077
▁Sul	-13078
▁flo	-13079
player	-13080
ategory	-13081
▁abrite	-13082
▁movies	-13083
▁Bourbon	-13084
▁degrees	-13085
▁runners	-13086
▁mathematic	-13087
▁specifically	-13088
▁Pau	-13089
▁upd	-13090
aveur	-13091
techn	-13092
▁boudd	-13093
▁posth	-13094
▁element	-13095
Australie	-13096
estershire	-13097
rême	-13098
▁Rue	-13099
▁Tat	-13100
erals	-13101
▁Chal	-13102
▁copy	-13103
▁1971.	-13104
▁brill	-13105
▁relie	-13106
▁owners	-13107
▁Chambre	-13108
▁Byzantine	-13109
imo	-13110
lia	-13111
▁og	-13112
loyd	-13113
since	-13114
▁....	-13115
▁Paulo	-13116
▁doute	-13117
▁rooms	-13118
▁tribe	-13119
▁tried	-13120
▁syndic	-13121
▁Congrès	-13122
▁expected	-13123
▁Indonesia	-13124
▁regroupait	-13125
▁championnat	-13126
RL	-13127
–7	-13128
aja	-13129
atsu	-13130
▁Wing	-13131
▁paid	-13132
▁user	-13133
▁bonne	-13134
▁mains	-13135
▁Amateur	-13136
▁Norvège	-13137
▁Zimbabwe	-13138
▁describes	-13139
▁interpret	-13140
▁néanmoins	-13141
▁subsidiary	-13142
▁manufacturer	-13143
For	-13144
inh	-13145
▁SH	-13146
▁Dif	-13147
▁Ens	-13148
▁neg	-13149
▁Beth	-13150
▁styl	-13151
▁enfin	-13152
▁Giants	-13153
▁Watson	-13154
▁filles	-13155
▁Somerset	-13156
▁agricole	-13157
▁mathematics	-13158
▁78	-13159
▁MC	-13160
▁Ng	-13161
acte	-13162
enay	-13163
▁tém	-13164
▁rout	-13165
itiers	-13166
▁Clarke	-13167
▁enfant	-13168
▁opposed	-13169
▁fabrication	-13170
/06	-13171
Off	-13172
fran	-13173
▁Kor	-13174
▁Leic	-13175
ellier	-13176
nements	-13177
▁Around	-13178
▁Parker	-13179
▁marche	-13180
▁Montana	-13181
▁ordered	-13182
▁weapons	-13183
▁complexe	-13184
▁learning	-13185
▁parallel	-13186
▁separated	-13187
Pal	-13188
eal	-13189
▁1/	-13190
▁AT	-13191
uées	-13192
▁Kol	-13193
▁lif	-13194
poses	-13195
▁1876	-13196
uclear	-13197
▁Unité	-13198
▁symph	-13199
ométrie	-13200
▁humaine	-13201
▁Critical	-13202
▁cellules	-13203
▁Sheffield	-13204
▁Territory	-13205
▁atteindre	-13206
▁destruction	-13207
▁professionnel	-13208
▁Fay	-13209
neurs	-13210
▁Chev	-13211
▁infl	-13212
▁thor	-13213
▁Julien	-13214
▁Reserv	-13215
▁étudie	-13216
▁discontin	-13217
▁selection	-13218
▁Wa	-13219
▁Imm	-13220
▁Wik	-13221
assin	-13222
▁1889	-13223
Donald	-13224
earing	-13225
atoires	-13226
▁Panama	-13227
▁flower	-13228
▁Finance	-13229
20,	-13230
▁67	-13231
inde	-13232
▁600	-13233
▁jul	-13234
▁chir	-13235
aceous	-13236
▁Basse	-13237
▁basée	-13238
Irlande	-13239
dessous	-13240
▁Satell	-13241
▁Nigeria	-13242
▁Persian	-13243
▁biggest	-13244
foundland	-13245
▁missions	-13246
▁conception	-13247
▁Mediterranean	-13248
vik	-13249
▁Lü	-13250
eria	-13251
othe	-13252
sted	-13253
urée	-13254
▁Bea	-13255
emann	-13256
enson	-13257
▁Fron	-13258
▁mall	-13259
▁Belarus	-13260
▁Industry	-13261
▁Monuments	-13262
▁montagnes	-13263
var	-13264
vern	-13265
▁168	-13266
▁Kab	-13267
▁Deep	-13268
▁spin	-13269
estine	-13270
▁Montg	-13271
ronomie	-13272
▁Iceland	-13273
▁appelle	-13274
issements	-13275
▁Clermont	-13276
▁Nintendo	-13277
▁Nashville	-13278
▁compétition	-13279
▁compositions	-13280
atta	-13281
lore	-13282
▁Hil	-13283
▁Mis	-13284
▁vein	-13285
▁your	-13286
▁Basil	-13287
▁Metal	-13288
▁roughly	-13289
▁cathédrale	-13290
▁Agriculture	-13291
▁CP	-13292
ôtes	-13293
March	-13294
▁Away	-13295
▁Cret	-13296
▁Filip	-13297
▁Leban	-13298
▁tient	-13299
▁Fraser	-13300
▁Guinea	-13301
▁Croatia	-13302
▁Publish	-13303
▁aspects	-13304
▁generation	-13305
▁génération	-13306
rox	-13307
▁Josh	-13308
ignons	-13309
▁1964,	-13310
▁Butter	-13311
▁connus	-13312
▁entour	-13313
▁victim	-13314
▁coached	-13315
▁decades	-13316
▁monnaie	-13317
▁Overview	-13318
▁résultat	-13319
▁teachers	-13320
▁township	-13321
▁correspondant	-13322
MI	-13323
0).	-13324
unch	-13325
allow	-13326
seurs	-13327
▁appr	-13328
▁hair	-13329
▁step	-13330
ipient	-13331
▁Susan	-13332
▁Govern	-13333
▁Burials	-13334
▁Institut	-13335
▁standing	-13336
▁convicted	-13337
▁résultats	-13338
▁Ost	-13339
▁Pér	-13340
▁obs	-13341
obiles	-13342
▁Derby	-13343
▁Drama	-13344
▁Warri	-13345
▁chambre	-13346
▁scénariste	-13347
▁unsuccessful	-13348
élé	-13349
▁2-	-13350
uman	-13351
▁Gay	-13352
▁Wis	-13353
berto	-13354
estre	-13355
ielle	-13356
▁Once	-13357
▁exer	-13358
ecteur	-13359
▁romans	-13360
▁borough	-13361
▁recueil	-13362
▁Stanford	-13363
▁Training	-13364
▁arrested	-13365
▁memorial	-13366
▁ownership	-13367
▁légèrement	-13368
▁recherches	-13369
cin	-13370
égal	-13371
ismes	-13372
èdent	-13373
▁1885	-13374
▁Reyn	-13375
▁dent	-13376
▁sculp	-13377
football	-13378
▁Contemp	-13379
▁possibly	-13380
▁Czechoslov	-13381
▁catégorisée	-13382
▁ram	-13383
ische	-13384
ophon	-13385
▁1894	-13386
▁1898	-13387
▁Troy	-13388
▁core	-13389
▁roof	-13390
estone	-13391
▁dépos	-13392
▁puiss	-13393
▁kingdom	-13394
▁license	-13395
▁Thailand	-13396
▁sporting	-13397
▁Situation	-13398
▁Expatriate	-13399
▁graduating	-13400
ED	-13401
adh	-13402
▁Bj	-13403
asth	-13404
ivan	-13405
opus	-13406
ovie	-13407
Grand	-13408
▁Hope	-13409
▁Loth	-13410
▁chau	-13411
Écosse	-13412
▁Fantasy	-13413
▁orchest	-13414
▁purchase	-13415
Mer	-13416
haw	-13417
iba	-13418
▁Cav	-13419
▁Ruth	-13420
▁1950,	-13421
▁depos	-13422
▁write	-13423
▁Soleil	-13424
▁actual	-13425
▁destiné	-13426
▁passant	-13427
▁connects	-13428
▁concluded	-13429
▁difficile	-13430
▁replacing	-13431
▁indépendant	-13432
▁Newfoundland	-13433
auer	-13434
eless	-13435
espear	-13436
ossible	-13437
tillery	-13438
▁absorb	-13439
▁tension	-13440
▁phylogén	-13441
▁industries	-13442
eto	-13443
imi	-13444
lys	-13445
▁CA	-13446
▁fal	-13447
▁las	-13448
letin	-13449
opold	-13450
améric	-13451
▁Fleet	-13452
▁valid	-13453
▁Financ	-13454
▁bodies	-13455
▁wooden	-13456
▁compati	-13457
▁Exemples	-13458
UC	-13459
eté	-13460
kan	-13461
zel	-13462
load	-13463
unny	-13464
▁McL	-13465
ignan	-13466
▁fête	-13467
alisme	-13468
▁1966,	-13469
▁élevé	-13470
▁terror	-13471
ventaire	-13472
▁address	-13473
▁milieux	-13474
▁Movement	-13475
▁problème	-13476
▁Macédoine	-13477
▁capitaine	-13478
%.	-13479
▁Sed	-13480
thors	-13481
▁1899	-13482
▁Piet	-13483
▁Sout	-13484
▁ther	-13485
▁Carth	-13486
▁Meuse	-13487
▁chefs	-13488
▁trump	-13489
▁vieux	-13490
▁Alpine	-13491
▁honour	-13492
ospitals	-13493
▁flowers	-13494
▁picture	-13495
▁exhibition	-13496
▁présidenti	-13497
lez	-13498
veu	-13499
ariat	-13500
▁Kill	-13501
tières	-13502
▁1975.	-13503
▁infer	-13504
cession	-13505
▁Yellow	-13506
▁donnée	-13507
▁attesté	-13508
▁confirm	-13509
▁producteur	-13510
▁responsable	-13511
▁congressional	-13512
IR	-13513
▁95	-13514
▁Put	-13515
▁dég	-13516
▁Noël	-13517
▁Helen	-13518
▁meant	-13519
▁regist	-13520
▁Oakland	-13521
▁radical	-13522
▁Thaïlande	-13523
▁historien	-13524
▁combination	-13525
itée	-13526
émat	-13527
▁Gol	-13528
▁Kit	-13529
▁maî	-13530
▁Gaul	-13531
Allier	-13532
▁Marvel	-13533
▁reality	-13534
fordshire	-13535
▁polonais	-13536
▁developing	-13537
agi	-13538
ogy	-13539
▁IP	-13540
apan	-13541
eling	-13542
êques	-13543
▁Barn	-13544
illage	-13545
▁somew	-13546
économie	-13547
▁artiste	-13548
▁abolished	-13549
ACI	-13550
iges	-13551
ipse	-13552
▁Kre	-13553
imale	-13554
ishes	-13555
ièvre	-13556
▁says	-13557
▁avion	-13558
▁mêmes	-13559
▁salle	-13560
▁voted	-13561
▁(1993)	-13562
▁Species	-13563
▁reports	-13564
umberland	-13565
▁Together	-13566
songwriter	-13567
▁relocated	-13568
▁expedition	-13569
▁Ful	-13570
grand	-13571
▁Cruz	-13572
▁fuel	-13573
▁gris	-13574
unting	-13575
▁Corée	-13576
▁Turin	-13577
▁garde	-13578
▁3166-2	-13579
▁propres	-13580
ef	-13581
pen	-13582
adio	-13583
anta	-13584
asie	-13585
avion	-13586
bonne	-13587
▁Hindu	-13588
▁chute	-13589
Univers	-13590
anglais	-13591
▁chimie	-13592
▁extens	-13593
▁métall	-13594
▁wealth	-13595
▁Lorsque	-13596
▁chemins	-13597
▁pageant	-13598
▁portugais	-13599
atie	-13600
dont	-13601
ogan	-13602
ulée	-13603
▁Cho	-13604
▁Cul	-13605
sters	-13606
▁Brew	-13607
▁Eddie	-13608
▁crise	-13609
▁orbit	-13610
▁breton	-13611
▁motion	-13612
▁planète	-13613
▁pressure	-13614
▁dimensions	-13615
▁Distinction	-13616
▁7:	-13617
ayan	-13618
▁(2,	-13619
▁gla	-13620
▁Walt	-13621
▁Yves	-13622
ipping	-13623
utting	-13624
▁Essex	-13625
▁conflict	-13626
▁Shakespear	-13627
▁occupation	-13628
Jose	-13629
avor	-13630
céan	-13631
vant	-13632
▁Bois	-13633
▁Cust	-13634
▁Twin	-13635
▁exam	-13636
▁pâte	-13637
▁Delta	-13638
▁dérivé	-13639
▁séries	-13640
▁intégré	-13641
▁concernant	-13642
▁membership	-13643
▁spécifique	-13644
reb	-13645
▁MA	-13646
▁SA	-13647
▁Um	-13648
abli	-13649
▁(2)	-13650
▁Rhe	-13651
▁lux	-13652
itzer	-13653
▁Peak	-13654
▁Total	-13655
▁attor	-13656
▁inhab	-13657
▁veter	-13658
▁Durham	-13659
▁Nathan	-13660
▁bandes	-13661
▁critics	-13662
▁details	-13663
existence	-13664
▁activist	-13665
▁interior	-13666
▁Nun	-13667
▁fid	-13668
▁Tout	-13669
▁bone	-13670
▁Lanka	-13671
▁walls	-13672
▁envoie	-13673
▁hypoth	-13674
▁spoken	-13675
Auvergne	-13676
▁message	-13677
▁Brisbane	-13678
designated	-13679
▁Americans	-13680
▁Wellington	-13681
▁businesses	-13682
hou	-13683
ping	-13684
élég	-13685
isodes	-13686
▁commem	-13687
▁soleil	-13688
▁Romains	-13689
▁scholar	-13690
▁tourist	-13691
▁admitted	-13692
▁arranged	-13693
▁purposes	-13694
▁parliamentary	-13695
omi	-13696
▁Gü	-13697
amer	-13698
ilst	-13699
Music	-13700
berry	-13701
▁1871	-13702
▁trag	-13703
enders	-13704
▁Stein	-13705
▁riche	-13706
▁Lucius	-13707
▁posséd	-13708
▁resign	-13709
▁règles	-13710
▁reasons	-13711
▁Location	-13712
▁reprises	-13713
▁catégorie	-13714
▁résistance	-13715
▁Competition	-13716
▁municipalités	-13717
yss	-13718
▁pi	-13719
pres	-13720
▁pou	-13721
rivée	-13722
▁Elli	-13723
▁loin	-13724
▁Grace	-13725
▁Rouge	-13726
▁Voice	-13727
▁quite	-13728
igrated	-13729
▁Travel	-13730
▁alpine	-13731
▁saints	-13732
▁registered	-13733
▁caractéristique	-13734
ussex	-13735
▁Patt	-13736
▁1965,	-13737
▁Legend	-13738
▁argent	-13739
▁sector	-13740
▁things	-13741
▁Gregory	-13742
▁Liberty	-13743
▁Release	-13744
▁chrétiens	-13745
▁dernières	-13746
▁Industrial	-13747
ár	-13748
▁Og	-13749
ouin	-13750
▁Asc	-13751
assan	-13752
océan	-13753
▁Grey	-13754
▁Much	-13755
▁tire	-13756
osaurs	-13757
▁Arabic	-13758
▁Chapel	-13759
▁Marian	-13760
▁extrem	-13761
▁museums	-13762
▁Newcastle	-13763
▁Petersburg	-13764
▁philosophy	-13765
-)	-13766
?"	-13767
Az	-13768
ryn	-13769
vée	-13770
▁IT	-13771
▁(12	-13772
▁Tag	-13773
ignée	-13774
érité	-13775
▁Bros	-13776
▁Craw	-13777
aiting	-13778
▁meets	-13779
▁dating	-13780
▁retire	-13781
▁risque	-13782
▁sitcom	-13783
▁replace	-13784
▁seconds	-13785
▁arrangement	-13786
cue	-13787
▁Nu	-13788
▁Ug	-13789
-189	-13790
dest	-13791
hand	-13792
high	-13793
utée	-13794
▁Sum	-13795
gebra	-13796
▁Lisa	-13797
▁loan	-13798
ropole	-13799
▁Lloyd	-13800
▁items	-13801
▁relay	-13802
▁styles	-13803
▁unable	-13804
▁Chronic	-13805
▁remarqu	-13806
▁Facilities	-13807
▁Instrument	-13808
aru	-13809
▁Leo	-13810
▁Pie	-13811
▁Rah	-13812
elona	-13813
ierge	-13814
marès	-13815
prises	-13816
▁goods	-13817
▁tribu	-13818
▁Bengal	-13819
▁Sussex	-13820
affaires	-13821
▁Evangel	-13822
▁candidat	-13823
▁occasionally	-13824
ech	-13825
ogl	-13826
usa	-13827
▁Kö	-13828
▁bén	-13829
quest	-13830
▁peau	-13831
▁thème	-13832
mediate	-13833
▁Illust	-13834
▁déesse	-13835
▁showed	-13836
▁bishops	-13837
▁Edmonton	-13838
▁opérations	-13839
▁manufacturing	-13840
▁Dob	-13841
▁ait	-13842
▁Joan	-13843
▁Todd	-13844
▁unus	-13845
opened	-13846
ôpital	-13847
▁1964.	-13848
▁Chrys	-13849
▁Ligne	-13850
▁emper	-13851
▁pêche	-13852
▁référ	-13853
▁Future	-13854
▁budget	-13855
▁device	-13856
▁indoor	-13857
▁matter	-13858
▁Freedom	-13859
▁retained	-13860
▁espagnole	-13861
))	-13862
OL	-13863
àn	-13864
cel	-13865
▁01	-13866
▁os	-13867
▁101	-13868
avent	-13869
▁1892	-13870
▁Bond	-13871
▁Croix	-13872
▁(2010)	-13873
▁ceased	-13874
▁répand	-13875
▁timbres	-13876
▁volunte	-13877
▁décision	-13878
▁employees	-13879
▁relativement	-13880
hal	-13881
arie	-13882
neau	-13883
▁Jin	-13884
Saône	-13885
▁Baud	-13886
▁Ming	-13887
▁rect	-13888
▁teen	-13889
▁Shoot	-13890
▁falls	-13891
resents	-13892
▁Franco	-13893
▁matern	-13894
▁Abraham	-13895
▁Indians	-13896
▁sequence	-13897
▁tributary	-13898
▁Interstate	-13899
▁classement	-13900
▁Westminster	-13901
▁équivalente	-13902
▁successfully	-13903
uru	-13904
ecin	-13905
érés	-13906
▁Sag	-13907
▁Sean	-13908
▁wave	-13909
accord	-13910
▁Boliv	-13911
▁Lines	-13912
▁Sebas	-13913
▁Vegas	-13914
ishment	-13915
▁Foster	-13916
▁easily	-13917
▁julien	-13918
▁occupe	-13919
▁Fromage	-13920
▁solaire	-13921
▁lesquels	-13922
▁vocalist	-13923
▁méditerran	-13924
▁Springfield	-13925
▁maintenance	-13926
sor	-13927
▁CF	-13928
cope	-13929
▁coe	-13930
opped	-13931
▁garn	-13932
▁1968.	-13933
▁seront	-13934
▁légende	-13935
▁triangle	-13936
▁Marguerite	-13937
▁represents	-13938
▁IN	-13939
auge	-13940
élix	-13941
ïdes	-13942
arche	-13943
iants	-13944
power	-13945
stown	-13946
▁1888	-13947
▁Harm	-13948
▁Pape	-13949
▁logo	-13950
▁Right	-13951
▁combin	-13952
▁filmed	-13953
▁survey	-13954
▁Climate	-13955
▁Montage	-13956
▁Students	-13957
▁revealed	-13958
▁mouvements	-13959
èze	-13960
alam	-13961
bank	-13962
dorf	-13963
orer	-13964
yler	-13965
–192	-13966
▁tom	-13967
▁cens	-13968
▁prog	-13969
▁1967.	-13970
▁Thorn	-13971
▁simpl	-13972
▁Cannes	-13973
▁hameau	-13974
▁assumed	-13975
▁matrice	-13976
▁Cornwall	-13977
▁wrestling	-13978
▁Kw	-13979
hors	-13980
▁164	-13981
▁Bog	-13982
▁dic	-13983
▁eye	-13984
▁état	-13985
ationaux	-13986
▁methods	-13987
ymnastics	-13988
▁linguistique	-13989
▁mathématicien	-13990
hm	-13991
▁CS	-13992
deen	-13993
▁Pink	-13994
▁Surn	-13995
istère	-13996
laires	-13997
▁culte	-13998
▁(1994)	-13999
▁laisse	-14000
▁proches	-14001
▁selling	-14002
▁commerci	-14003
▁shopping	-14004
▁Financial	-14005
▁representation	-14006
loo	-14007
sea	-14008
▁88	-14009
-188	-14010
Hist	-14011
oura	-14012
▁Das	-14013
later	-14014
▁1891	-14015
▁1960.	-14016
▁chaud	-14017
▁duché	-14018
▁recru	-14019
▁humain	-14020
▁téléph	-14021
▁streets	-14022
▁summary	-14023
▁imprison	-14024
▁profonde	-14025
▁autrefois	-14026
Pr	-14027
Pro	-14028
azi	-14029
▁SM	-14030
Phil	-14031
–191	-14032
▁ign	-14033
aukee	-14034
onome	-14035
▁dies	-14036
wright	-14037
▁hyper	-14038
▁satisf	-14039
▁Circuit	-14040
▁reflect	-14041
DR	-14042
pm	-14043
vat	-14044
azar	-14045
▁Dès	-14046
Henri	-14047
▁Dion	-14048
▁Path	-14049
mately	-14050
▁Kenya	-14051
▁views	-14052
viously	-14053
▁concep	-14054
▁modèles	-14055
▁showing	-14056
▁database	-14057
▁quantité	-14058
▁controlled	-14059
IB	-14060
asha	-14061
foot	-14062
▁Hab	-14063
▁Kas	-14064
andra	-14065
▁1945,	-14066
▁Guild	-14067
isément	-14068
▁Bosnia	-14069
▁Chaque	-14070
▁broken	-14071
▁debuts	-14072
▁triang	-14073
landaise	-14074
▁inhumée	-14075
▁promote	-14076
▁affaires	-14077
–6	-14078
uka	-14079
▁IA	-14080
alus	-14081
inity	-14082
oléon	-14083
▁Core	-14084
▁cosm	-14085
▁Tennis	-14086
▁injured	-14087
▁Yvelines	-14088
▁offering	-14089
ditionally	-14090
▁découpage	-14091
▁something	-14092
▁Encyclopedia	-14093
zed	-14094
▁57	-14095
▁58	-14096
▁Aj	-14097
hall	-14098
olly	-14099
onso	-14100
rion	-14101
▁equal	-14102
▁Survey	-14103
▁factor	-14104
▁vector	-14105
▁Midland	-14106
▁métrage	-14107
▁Confederation	-14108
▁Kid	-14109
ierry	-14110
érées	-14111
▁innov	-14112
▁défini	-14113
▁inclus	-14114
▁overse	-14115
▁billion	-14116
▁Commerce	-14117
▁consacré	-14118
▁supports	-14119
▁associate	-14120
▁posterior	-14121
uen	-14122
▁ul	-14123
arta	-14124
oons	-14125
acles	-14126
ointe	-14127
▁1897	-14128
▁pent	-14129
igueur	-14130
▁price	-14131
▁vinyl	-14132
émission	-14133
▁atmosph	-14134
▁parishes	-14135
▁portrait	-14136
▁constituent	-14137
▁presidential	-14138
Em	-14139
IX	-14140
cre	-14141
▁166	-14142
▁Tir	-14143
▁adh	-14144
▁Mira	-14145
▁bras	-14146
▁inté	-14147
Joseph	-14148
▁noyau	-14149
▁Flight	-14150
▁Screen	-14151
▁physics	-14152
▁earliest	-14153
▁Australie	-14154
▁Princeton	-14155
▁paintings	-14156
▁variables	-14157
▁IBM	-14158
▁1893	-14159
▁Nine	-14160
ashire	-14161
▁Agric	-14162
▁faces	-14163
▁prosp	-14164
▁virus	-14165
▁téléch	-14166
▁Clinton	-14167
▁Colonel	-14168
▁Restaur	-14169
▁diction	-14170
▁diffusé	-14171
▁réseaux	-14172
▁archives	-14173
▁Yugoslavia	-14174
▁competitors	-14175
▁replacement	-14176
!"	-14177
EG	-14178
▁GNU	-14179
asant	-14180
▁Nice	-14181
▁Celui	-14182
▁angle	-14183
▁infin	-14184
▁réélu	-14185
interpr	-14186
▁Morning	-14187
▁leagues	-14188
▁attempts	-14189
Ol	-14190
nés	-14191
oub	-14192
chid	-14193
fred	-14194
geme	-14195
▁Lug	-14196
brook	-14197
trans	-14198
▁Anat	-14199
▁réel	-14200
rateur	-14201
▁1963,	-14202
▁annex	-14203
termine	-14204
▁merger	-14205
isations	-14206
▁vigueur	-14207
▁sociales	-14208
▁Elections	-14209
▁resources	-14210
▁conversion	-14211
▁variations	-14212
▁architectural	-14213
cz	-14214
-15	-14215
▁69	-14216
ethyl	-14217
icale	-14218
oudre	-14219
quist	-14220
▁Carr	-14221
waukee	-14222
études	-14223
▁Spect	-14224
onymous	-14225
▁Spirit	-14226
▁expert	-14227
▁navire	-14228
▁réalité	-14229
▁weather	-14230
▁violence	-14231
▁olympique	-14232
▁compagnies	-14233
▁supplément	-14234
bie	-14235
igs	-14236
enas	-14237
▁Duc	-14238
▁frog	-14239
compos	-14240
issage	-14241
▁lycée	-14242
▁Ancien	-14243
▁Lozère	-14244
▁joueurs	-14245
▁stratég	-14246
Atlantiques	-14247
▁songwriter	-14248
▁internationaux	-14249
brew	-14250
horn	-14251
▁128	-14252
▁Fif	-14253
▁Num	-14254
▁rat	-14255
▁Puis	-14256
▁Sind	-14257
▁Guang	-14258
agnetic	-14259
▁Meille	-14260
▁Return	-14261
▁pilote	-14262
–5	-14263
Con	-14264
erd	-14265
▁9.	-14266
odia	-14267
▁Hob	-14268
rogen	-14269
world	-14270
▁pier	-14271
▁rise	-14272
arning	-14273
▁naval	-14274
▁polyn	-14275
intérêt	-14276
ordeaux	-14277
▁Events	-14278
▁Punjab	-14279
▁visual	-14280
▁Edwards	-14281
▁Confeder	-14282
▁Maritime	-14283
▁confirmed	-14284
▁Mythologie	-14285
▁aî	-14286
▁172	-14287
cluse	-14288
▁Bald	-14289
▁Doll	-14290
▁Kang	-14291
▁inher	-14292
▁poems	-14293
▁Archae	-14294
▁Comité	-14295
▁Rogers	-14296
▁aggreg	-14297
finition	-14298
▁Kingdoms	-14299
agriculture	-14300
▁Charlemagne	-14301
▁anniversary	-14302
▁Photographie	-14303
IO	-14304
PM	-14305
atem	-14306
tées	-14307
▁173	-14308
▁Ges	-14309
▁coh	-14310
André	-14311
inthe	-14312
onica	-14313
▁Schw	-14314
▁liné	-14315
▁Along	-14316
▁Doubs	-14317
▁Rhode	-14318
▁Start	-14319
▁renou	-14320
▁ruled	-14321
▁users	-14322
▁Palais	-14323
▁Planet	-14324
▁couche	-14325
▁stable	-14326
▁Transit	-14327
▁failure	-14328
▁contrast	-14329
▁Printemps	-14330
▁attempted	-14331
▁sculpture	-14332
▁informations	-14333
▁sun	-14334
asser	-14335
▁fixe	-14336
cephal	-14337
▁Range	-14338
▁améli	-14339
uckland	-14340
▁Canyon	-14341
▁autonom	-14342
▁mélange	-14343
▁variant	-14344
▁masculin	-14345
▁rotation	-14346
▁qualified	-14347
▁technologie	-14348
▁environmental	-14349
▁PR	-14350
▁Py	-14351
sace	-14352
ynes	-14353
▁Sof	-14354
Isère	-14355
actyl	-14356
inion	-14357
video	-14358
▁emph	-14359
▁séqu	-14360
quette	-14361
▁1966.	-14362
▁celeb	-14363
▁giant	-14364
▁écriv	-14365
▁Marion	-14366
official	-14367
▁disband	-14368
▁Chapelle	-14369
▁fédérale	-14370
▁otherwise	-14371
▁ultimately	-14372
Nor	-14373
dan	-14374
lik	-14375
-187	-14376
roid	-14377
urus	-14378
▁250	-14379
▁Jés	-14380
▁ach	-14381
arium	-14382
▁Nazi	-14383
▁Laura	-14384
▁doing	-14385
▁grown	-14386
▁écoss	-14387
▁Bronze	-14388
▁Stakes	-14389
▁eighth	-14390
▁select	-14391
▁defense	-14392
▁focused	-14393
▁peuples	-14394
ouverture	-14395
▁Fernando	-14396
▁changement	-14397
▁connecting	-14398
▁étrangères	-14399
▁mâ	-14400
free	-14401
▁125	-14402
▁faç	-14403
ocent	-14404
▁Egyp	-14405
▁OACI	-14406
ischer	-14407
▁Aires	-14408
▁Mason	-14409
▁(2011)	-14410
▁Julius	-14411
▁Defence	-14412
▁Protest	-14413
▁Student	-14414
▁publics	-14415
▁suicide	-14416
▁botaniste	-14417
▁printemps	-14418
▁Lancashire	-14419
▁81	-14420
▁98	-14421
▁Nil	-14422
▁sed	-14423
▁Nott	-14424
▁Galax	-14425
▁attach	-14426
▁culmin	-14427
▁papers	-14428
▁surviv	-14429
▁navires	-14430
▁utiliser	-14431
▁phénomène	-14432
▁communications	-14433
▁représentation	-14434
–3	-14435
Ari	-14436
oly	-14437
▁59	-14438
▁62	-14439
▁hi	-14440
rack	-14441
ifice	-14442
ondes	-14443
▁Liga	-14444
▁Wals	-14445
▁Santi	-14446
▁catch	-14447
▁tente	-14448
jection	-14449
▁Explor	-14450
▁agreed	-14451
▁Actress	-14452
▁Comment	-14453
▁dessins	-14454
▁reliant	-14455
▁coverage	-14456
▁fédération	-14457
▁Afghanistan	-14458
Nov	-14459
▁00	-14460
body	-14461
▁34,	-14462
▁Cay	-14463
▁Daw	-14464
▁Gas	-14465
▁Nin	-14466
▁Yuk	-14467
▁spee	-14468
rémité	-14469
▁hills	-14470
▁Miguel	-14471
▁habitu	-14472
▁repris	-14473
▁subdiv	-14474
▁Vikings	-14475
▁bombard	-14476
▁Heinrich	-14477
▁keyboard	-14478
▁Barcelona	-14479
▁kilometers	-14480
▁arrangements	-14481
My	-14482
bad	-14483
elo	-14484
▁61	-14485
ffee	-14486
span	-14487
œufs	-14488
▁Meh	-14489
▁bed	-14490
▁Fine	-14491
loresc	-14492
▁1969.	-14493
▁Ghost	-14494
▁bibli	-14495
▁vente	-14496
amental	-14497
rograph	-14498
Étienne	-14499
▁Legacy	-14500
▁formal	-14501
▁liquid	-14502
▁Spencer	-14503
▁variété	-14504
▁conquête	-14505
▁patients	-14506
who	-14507
▁AB	-14508
▁Ced	-14509
Paris	-14510
▁Gros	-14511
▁sell	-14512
▁Comté	-14513
▁Wings	-14514
▁crist	-14515
▁offre	-14516
▁cinema	-14517
▁toured	-14518
phibiens	-14519
▁lecture	-14520
▁liquide	-14521
▁Jerusalem	-14522
▁Testament	-14523
▁orientale	-14524
bu	-14525
TAN	-14526
Vil	-14527
iao	-14528
▁93	-14529
22).	-14530
anks	-14531
▁Meg	-14532
▁nul	-14533
ospel	-14534
urant	-14535
▁Gael	-14536
▁plas	-14537
▁radi	-14538
oindre	-14539
trecht	-14540
▁mieux	-14541
▁mérid	-14542
▁soient	-14543
▁erected	-14544
▁Relations	-14545
▁involving	-14546
▁croissance	-14547
▁elementary	-14548
▁Contemporary	-14549
Jan	-14550
▁71	-14551
-190	-14552
John	-14553
ieur	-14554
▁Lég	-14555
athers	-14556
▁needs	-14557
▁Heaven	-14558
▁limité	-14559
▁légend	-14560
▁medium	-14561
▁guerres	-14562
▁temples	-14563
▁Direction	-14564
▁fortement	-14565
▁79	-14566
▁Ji	-14567
fold	-14568
plan	-14569
élev	-14570
tidae	-14571
élène	-14572
▁Folk	-14573
▁Zeus	-14574
▁Allan	-14575
▁Keral	-14576
▁Mills	-14577
▁Ships	-14578
ovision	-14579
structions	-14580
▁Magazines	-14581
▁intellect	-14582
▁nucléaire	-14583
▁scientists	-14584
▁Shakespeare	-14585
▁proposition	-14586
cod	-14587
iza	-14588
Cher	-14589
▁fen	-14590
▁Left	-14591
▁Mari	-14592
▁Extra	-14593
▁Grove	-14594
▁funds	-14595
▁Herald	-14596
▁Nantes	-14597
▁export	-14598
▁refuse	-14599
▁peinture	-14600
▁historians	-14601
▁ty	-14602
akov	-14603
oked	-14604
▁171	-14605
▁Oslo	-14606
▁dete	-14607
laimed	-14608
rières	-14609
▁Heavy	-14610
▁Gardens	-14611
▁Columbus	-14612
▁attached	-14613
▁provient	-14614
▁automatic	-14615
▁Newspapers	-14616
▁processeur	-14617
▁réalisation	-14618
▁Parliamentary	-14619
vor	-14620
▁ST	-14621
tico	-14622
▁Hyp	-14623
popul	-14624
▁Pine	-14625
▁feed	-14626
▁sail	-14627
▁Anglo	-14628
▁Apost	-14629
▁Exper	-14630
▁Remix	-14631
▁morte	-14632
▁voies	-14633
acional	-14634
▁privée	-14635
▁fichier	-14636
▁origine	-14637
▁Manufact	-14638
▁autonome	-14639
eny	-14640
ynam	-14641
éche	-14642
▁Fan	-14643
▁Fuk	-14644
▁aid	-14645
erner	-14646
lation	-14647
▁milli	-14648
▁scale	-14649
écution	-14650
▁chocol	-14651
▁poursu	-14652
▁Middles	-14653
▁officier	-14654
▁aéroports	-14655
▁Protection	-14656
▁comprenant	-14657
GM	-14658
Per	-14659
mor	-14660
Loir	-14661
leuc	-14662
lich	-14663
▁110	-14664
▁pér	-14665
▁tac	-14666
▁vel	-14667
lster	-14668
ocate	-14669
▁Saxe	-14670
histor	-14671
▁Bever	-14672
▁Tibet	-14673
▁demon	-14674
▁Julian	-14675
▁Within	-14676
▁Senator	-14677
▁reprise	-14678
▁associée	-14679
▁sociétés	-14680
▁supprimé	-14681
▁comprises	-14682
▁frequency	-14683
▁Christophe	-14684
▁determined	-14685
▁CB	-14686
▁hur	-14687
▁row	-14688
▁try	-14689
alisé	-14690
▁Fors	-14691
▁Vale	-14692
▁else	-14693
odique	-14694
▁2005)	-14695
▁Lucas	-14696
▁dieux	-14697
▁issus	-14698
▁prêtre	-14699
▁centers	-14700
▁distinc	-14701
énagement	-14702
▁apparten	-14703
00.	-14704
Aub	-14705
oco	-14706
vég	-14707
▁91	-14708
avia	-14709
▁fasc	-14710
▁onze	-14711
▁plot	-14712
▁Brass	-14713
▁Brigh	-14714
▁Strat	-14715
▁juste	-14716
▁(2012)	-14717
▁Albany	-14718
▁démont	-14719
▁sièges	-14720
▁binômes	-14721
▁forming	-14722
▁Cretaceous	-14723
GE	-14724
Mos	-14725
▁IS	-14726
apur	-14727
▁Tah	-14728
astas	-14729
▁seem	-14730
▁Price	-14731
▁Sweet	-14732
▁cards	-14733
▁(1992)	-14734
▁Annual	-14735
▁Butler	-14736
▁commen	-14737
▁Wallace	-14738
▁debuted	-14739
▁editions	-14740
▁repeated	-14741
▁administrator	-14742
▁manufacturers	-14743
ña	-14744
audi	-14745
emat	-14746
fare	-14747
ilis	-14748
olph	-14749
unda	-14750
▁Kee	-14751
▁Sap	-14752
▁XIV	-14753
ostic	-14754
▁1867	-14755
▁Beno	-14756
▁ways	-14757
iaires	-14758
▁Montp	-14759
▁évent	-14760
érateur	-14761
▁Buenos	-14762
▁Monday	-14763
▁ordres	-14764
▁compound	-14765
▁prepared	-14766
▁scientist	-14767
Er	-14768
OT	-14769
Air	-14770
cat	-14771
zan	-14772
base	-14773
code	-14774
uite	-14775
▁165	-14776
▁Bot	-14777
apest	-14778
ielder	-14779
▁battu	-14780
▁plein	-14781
▁pyram	-14782
▁wheel	-14783
▁comtés	-14784
▁phosph	-14785
▁Defense	-14786
▁clients	-14787
▁gallery	-14788
▁prolong	-14789
▁Fondation	-14790
▁présentent	-14791
ître	-14792
▁diz	-14793
anton	-14794
ecies	-14795
maker	-14796
ocket	-14797
rency	-14798
▁neck	-14799
▁Graph	-14800
▁Stade	-14801
▁(1991)	-14802
ortement	-14803
▁complexes	-14804
Éd	-14805
▁dû	-14806
enda	-14807
▁Lal	-14808
▁ion	-14809
▁wet	-14810
trine	-14811
▁Cand	-14812
▁Chab	-14813
▁Next	-14814
▁Tarn	-14815
▁swit	-14816
coming	-14817
▁Gujar	-14818
▁coupe	-14819
▁strip	-14820
▁tract	-14821
arrivée	-14822
▁duties	-14823
▁unités	-14824
▁alleged	-14825
▁storage	-14826
mentation	-14827
▁Croatian	-14828
▁affiliate	-14829
▁protocole	-14830
▁Personnages	-14831
▁jurisdiction	-14832
▁CC	-14833
iffe	-14834
lyde	-14835
▁Dau	-14836
▁Lay	-14837
▁1879	-14838
▁Chim	-14839
ardins	-14840
length	-14841
▁Blake	-14842
▁Judge	-14843
▁Peint	-14844
▁Wells	-14845
▁alcoh	-14846
▁spécif	-14847
▁défaite	-14848
▁remport	-14849
▁Fonction	-14850
▁retraite	-14851
▁sénateur	-14852
▁revolution	-14853
▁connections	-14854
had	-14855
▁EC	-14856
alin	-14857
▁Sox	-14858
leine	-14859
▁Tree	-14860
▁sour	-14861
depuis	-14862
▁biens	-14863
▁plaine	-14864
▁récent	-14865
▁shares	-14866
▁persons	-14867
▁anterior	-14868
▁Milwaukee	-14869
▁territoriales	-14870
Les	-14871
mil	-14872
▁86	-14873
érin	-14874
▁Dro	-14875
endie	-14876
▁Less	-14877
▁sati	-14878
▁sanct	-14879
olition	-14880
ouvement	-14881
▁Product	-14882
▁Produit	-14883
▁antérie	-14884
▁réalise	-14885
▁theorem	-14886
▁agencies	-14887
▁complète	-14888
▁constant	-14889
▁traditions	-14890
▁Gy	-14891
19),	-14892
téro	-14893
bihan	-14894
oline	-14895
▁cris	-14896
▁1962,	-14897
▁margin	-14898
▁permis	-14899
▁liberté	-14900
▁soutien	-14901
▁consulat	-14902
▁mammifères	-14903
▁secondaire	-14904
▁participants	-14905
run	-14906
21),	-14907
boro	-14908
colm	-14909
idon	-14910
garde	-14911
▁Tall	-14912
▁Vest	-14913
▁crow	-14914
▁fill	-14915
▁rien	-14916
▁salt	-14917
élande	-14918
▁surve	-14919
erville	-14920
▁Individ	-14921
▁comédie	-14922
▁accompan	-14923
▁cemetery	-14924
▁Recording	-14925
▁animation	-14926
▁interests	-14927
▁celebrated	-14928
Os	-14929
▁Eg	-14930
Héra	-14931
phis	-14932
quée	-14933
▁AFL	-14934
▁Abu	-14935
forms	-14936
▁Gate	-14937
Savoie	-14938
▁Julia	-14939
▁Marco	-14940
▁Merit	-14941
▁carry	-14942
▁rares	-14943
▁envoyé	-14944
▁gardens	-14945
▁Étienne	-14946
▁Midlands	-14947
▁diameter	-14948
▁resident	-14949
▁necessary	-14950
▁traditionnelle	-14951
DVD	-14952
jus	-14953
–16	-14954
imard	-14955
▁1881	-14956
▁Vent	-14957
▁flux	-14958
▁sust	-14959
▁érig	-14960
finals	-14961
▁Boris	-14962
▁Crime	-14963
▁Rural	-14964
▁releg	-14965
▁Flying	-14966
▁astron	-14967
▁bouddh	-14968
▁parler	-14969
▁postal	-14970
▁Carrière	-14971
▁prototype	-14972
eo	-14973
▁Hi	-14974
isms	-14975
rong	-14976
▁Pent	-14977
▁brun	-14978
▁flav	-14979
observ	-14980
▁Event	-14981
▁Maroc	-14982
▁leads	-14983
▁paras	-14984
▁Brooks	-14985
▁Hudson	-14986
▁Vallée	-14987
▁latine	-14988
cesseurs	-14989
▁Nuclear	-14990
▁introdu	-14991
▁mesures	-14992
▁Discovery	-14993
▁monastère	-14994
ük	-14995
ław	-14996
rill	-14997
▁Bug	-14998
▁Karn	-14999
▁plur	-15000
▁tram	-15001
▁égal	-15002
▁1944,	-15003
▁Ernst	-15004
▁Haven	-15005
▁récit	-15006
▁Œuvre	-15007
playing	-15008
▁Editor	-15009
▁étoile	-15010
▁Masters	-15011
▁Bordeaux	-15012
▁fréquent	-15013
▁modified	-15014
▁péninsule	-15015
▁représenté	-15016
▁urbanisées	-15017
▁legislation	-15018
Ro	-15019
än	-15020
hips	-15021
▁Vog	-15022
▁fou	-15023
mates	-15024
▁Eyes	-15025
▁Autre	-15026
▁notre	-15027
▁Anders	-15028
▁Female	-15029
▁Gibson	-15030
▁chance	-15031
▁Skating	-15032
▁athlete	-15033
▁designs	-15034
▁refused	-15035
▁formally	-15036
▁Ministers	-15037
▁Professeur	-15038
▁Universities	-15039
ako	-15040
▁EPs	-15041
▁pes	-15042
▁Mean	-15043
▁jury	-15044
▁ment	-15045
arians	-15046
▁Théod	-15047
▁citoy	-15048
▁perdu	-15049
▁senti	-15050
▁stayed	-15051
argement	-15052
▁Playing	-15053
▁affairs	-15054
▁suburbs	-15055
▁magnitude	-15056
▁commandant	-15057
▁philosophie	-15058
▁Localisation	-15059
▁propriétaire	-15060
HF	-15061
Ur	-15062
nis	-15063
▁pé	-15064
▁Dess	-15065
▁Ferr	-15066
▁Fils	-15067
▁Suff	-15068
▁Talk	-15069
▁gast	-15070
▁degré	-15071
▁Angels	-15072
▁Ethiop	-15073
▁auquel	-15074
▁toward	-15075
▁invited	-15076
▁Egyptian	-15077
▁attorney	-15078
▁Champagne	-15079
▁signature	-15080
▁municipale	-15081
-21	-15082
omery	-15083
▁Chin	-15084
▁Scar	-15085
▁cold	-15086
▁paro	-15087
▁1945.	-15088
▁ferry	-15089
▁natur	-15090
▁Ronald	-15091
▁stages	-15092
▁Cologne	-15093
▁puisque	-15094
▁soldier	-15095
▁reporter	-15096
▁Certaines	-15097
▁prisoners	-15098
],	-15099
Fer	-15100
Har	-15101
▁SI	-15102
atte	-15103
cano	-15104
furt	-15105
icap	-15106
ogon	-15107
▁Jak	-15108
▁Flag	-15109
▁gymn	-15110
encing	-15111
letion	-15112
▁Objet	-15113
▁Quand	-15114
▁advis	-15115
vements	-15116
▁Patric	-15117
▁affect	-15118
▁perhaps	-15119
▁Adaptation	-15120
SF	-15121
rav	-15122
rub	-15123
atum	-15124
elly	-15125
ynch	-15126
▁Beh	-15127
▁syl	-15128
borne	-15129
chang	-15130
oison	-15131
quête	-15132
▁Dong	-15133
▁atta	-15134
kinson	-15135
▁Chess	-15136
▁Devon	-15137
▁Pruss	-15138
▁anglo	-15139
▁Compar	-15140
▁Hughes	-15141
▁decade	-15142
▁depend	-15143
▁Égypte	-15144
▁Hermann	-15145
exception	-15146
▁Alphonse	-15147
▁Auckland	-15148
▁Palmarès	-15149
▁Finistère	-15150
▁presenter	-15151
▁disponible	-15152
▁inférieure	-15153
▁popularity	-15154
▁metropolitan	-15155
etz	-15156
▁73	-15157
cott	-15158
insp	-15159
épin	-15160
▁Pou	-15161
ipzig	-15162
oples	-15163
uished	-15164
▁Idaho	-15165
▁Paragu	-15166
médiaire	-15167
▁Belfort	-15168
▁announc	-15169
partement	-15170
▁belonged	-15171
▁stadiums	-15172
▁véritable	-15173
▁Publishers	-15174
▁Commissioner	-15175
nee	-15176
uto	-15177
ipeg	-15178
▁Ply	-15179
going	-15180
izard	-15181
olith	-15182
▁Bâle	-15183
▁Mats	-15184
▁Serg	-15185
▁Chuck	-15186
▁Forum	-15187
▁Manga	-15188
▁attaque	-15189
▁farming	-15190
▁urbaine	-15191
▁airports	-15192
▁Constance	-15193
▁ministres	-15194
▁Utilisation	-15195
▁Municipalités	-15196
aso	-15197
ilt	-15198
▁--	-15199
▁74	-15200
bole	-15201
▁Hed	-15202
▁gri	-15203
aning	-15204
front	-15205
çoise	-15206
▁Bras	-15207
Franche	-15208
▁Guatem	-15209
▁majeure	-15210
▁proclam	-15211
▁vertical	-15212
▁Electoral	-15213
inv	-15214
erto	-15215
▁167	-15216
▁NGC	-15217
▁Nig	-15218
oiseaux	-15219
stanbul	-15220
ymology	-15221
▁Conrad	-15222
▁Sparte	-15223
▁Malcolm	-15224
▁absence	-15225
▁chirurg	-15226
▁herbacée	-15227
▁cinquième	-15228
▁compounds	-15229
environnement	-15230
▁manufactured	-15231
adal	-15232
plus	-15233
▁Dre	-15234
▁Ord	-15235
▁Sons	-15236
▁skin	-15237
▁camps	-15238
▁coméd	-15239
▁decre	-15240
▁elder	-15241
English	-15242
[...]
