<unk>	0
<s>	0
</s>	0
<pad>	0
<0x00>	0
<0x01>	0
<0x02>	0
<0x03>	0
<0x04>	0
<0x05>	0
<0x06>	0
<0x07>	0
<0x08>	0
<0x09>	0
<0x0A>	0
<0x0B>	0
<0x0C>	0
<0x0D>	0
<0x0E>	0
<0x0F>	0
<0x10>	0
<0x11>	0
<0x12>	0
<0x13>	0
<0x14>	0
<0x15>	0
<0x16>	0
<0x17>	0
<0x18>	0
<0x19>	0
<0x1A>	0
<0x1B>	0
<0x1C>	0
<0x1D>	0
<0x1E>	0
<0x1F>	0
<0x20>	0
<0x21>	0
<0x22>	0
<0x23>	0
<0x24>	0
<0x25>	0
<0x26>	0
<0x27>	0
<0x28>	0
<0x29>	0
<0x2A>	0
<0x2B>	0
<0x2C>	0
<0x2D>	0
<0x2E>	0
<0x2F>	0
<0x30>	0
<0x31>	0
<0x32>	0
<0x33>	0
<0x34>	0
<0x35>	0
<0x36>	0
<0x37>	0
<0x38>	0
<0x39>	0
<0x3A>	0
<0x3B>	0
<0x3C>	0
<0x3D>	0
<0x3E>	0
<0x3F>	0
<0x40>	0
<0x41>	0
<0x42>	0
<0x43>	0
<0x44>	0
<0x45>	0
<0x46>	0
<0x47>	0
<0x48>	0
<0x49>	0
<0x4A>	0
<0x4B>	0
<0x4C>	0
<0x4D>	0
<0x4E>	0
<0x4F>	0
<0x50>	0
<0x51>	0
<0x52>	0
<0x53>	0
<0x54>	0
<0x55>	0
<0x56>	0
<0x57>	0
<0x58>	0
<0x59>	0
<0x5A>	0
<0x5B>	0
<0x5C>	0
<0x5D>	0
<0x5E>	0
<0x5F>	0
<0x60>	0
<0x61>	0
<0x62>	0
<0x63>	0
<0x64>	0
<0x65>	0
<0x66>	0
<0x67>	0
<0x68>	0
<0x69>	0
<0x6A>	0
<0x6B>	0
<0x6C>	0
<0x6D>	0
<0x6E>	0
<0x6F>	0
<0x70>	0
<0x71>	0
<0x72>	0
<0x73>	0
<0x74>	0
<0x75>	0
<0x76>	0
<0x77>	0
<0x78>	0
<0x79>	0
<0x7A>	0
<0x7B>	0
<0x7C>	0
<0x7D>	0
<0x7E>	0
<0x7F>	0
<0x80>	0
<0x81>	0
<0x82>	0
<0x83>	0
<0x84>	0
<0x85>	0
<0x86>	0
<0x87>	0
<0x88>	0
<0x89>	0
<0x8A>	0
<0x8B>	0
<0x8C>	0
<0x8D>	0
<0x8E>	0
<0x8F>	0
<0x90>	0
<0x91>	0
<0x92>	0
<0x93>	0
<0x94>	0
<0x95>	0
<0x96>	0
<0x97>	0
<0x98>	0
<0x99>	0
<0x9A>	0
<0x9B>	0
<0x9C>	0
<0x9D>	0
<0x9E>	0
<0x9F>	0
<0xA0>	0
<0xA1>	0
<0xA2>	0
<0xA3>	0
<0xA4>	0
<0xA5>	0
<0xA6>	0
<0xA7>	0
<0xA8>	0
<0xA9>	0
<0xAA>	0
<0xAB>	0
<0xAC>	0
<0xAD>	0
<0xAE>	0
<0xAF>	0
<0xB0>	0
<0xB1>	0
<0xB2>	0
<0xB3>	0
<0xB4>	0
<0xB5>	0
<0xB6>	0
<0xB7>	0
<0xB8>	0
<0xB9>	0
<0xBA>	0
<0xBB>	0
<0xBC>	0
<0xBD>	0
<0xBE>	0
<0xBF>	0
<0xC0>	0
<0xC1>	0
<0xC2>	0
<0xC3>	0
<0xC4>	0
<0xC5>	0
<0xC6>	0
<0xC7>	0
<0xC8>	0
<0xC9>	0
<0xCA>	0
<0xCB>	0
<0xCC>	0
<0xCD>	0
<0xCE>	0
<0xCF>	0
<0xD0>	0
<0xD1>	0
<0xD2>	0
<0xD3>	0
<0xD4>	0
<0xD5>	0
<0xD6>	0
<0xD7>	0
<0xD8>	0
<0xD9>	0
<0xDA>	0
<0xDB>	0
<0xDC>	0
<0xDD>	0
<0xDE>	0
<0xDF>	0
<0xE0>	0
<0xE1>	0
<0xE2>	0
<0xE3>	0
<0xE4>	0
<0xE5>	0
<0xE6>	0
<0xE7>	0
<0xE8>	0
<0xE9>	0
<0xEA>	0
<0xEB>	0
<0xEC>	0
<0xED>	0
<0xEE>	0
<0xEF>	0
<0xF0>	0
<0xF1>	0
<0xF2>	0
<0xF3>	0
<0xF4>	0
<0xF5>	0
<0xF6>	0
<0xF7>	0
<0xF8>	0
<0xF9>	0
<0xFA>	0
<0xFB>	0
<0xFC>	0
<0xFD>	0
<0xFE>	0
<0xFF>	0
es	-0
▁a	-1
▁d	-2
▁t	-3
on	-4
in	-5
er	-6
en	-7
▁p	-8
▁s	-9
ou	-10
▁l	-11
re	-12
▁c	-13
an	-14
is	-15
it	-16
he	-17
at	-18
or	-19
ar	-20
▁de	-21
▁m	-22
▁f	-23
ent	-24
le	-25
▁the	-26
▁b	-27
ion	-28
et	-29
al	-30
▁w	-31
qu	-32
il	-33
om	-34
ing	-35
▁an	-36
ic	-37
▁o	-38
ur	-39
as	-40
un	-41
▁in	-42
▁n	-43
ed	-44
our	-45
el	-46
▁to	-47
ro	-48
us	-49
▁v	-50
▁C	-51
▁and	-52
▁h	-53
▁of	-54
▁S	-55
ct	-56
ve	-57
▁A	-58
▁T	-59
▁la	-60
▁r	-61
▁th	-62
▁g	-63
te	-64
▁le	-65
ir	-66
ment	-67
▁et	-68
ce	-69
▁L	-70
▁P	-71
est	-72
ation	-73
▁I	-74
▁M	-75
▁qu	-76
ot	-77
▁un	-78
ut	-79
▁e	-80
os	-81
▁re	-82
ch	-83
ra	-84
id	-85
ol	-86
▁en	-87
▁à	-88
ant	-89
▁y	-90
im	-91
ag	-92
ig	-93
ers	-94
▁B	-95
ous	-96
am	-97
▁des	-98
▁2	-99
▁D	-100
ont	-101
ie	-102
▁les	-103
▁for	-104
▁pro	-105
▁1	-106
ay	-107
▁on	-108
ul	-109
ess	-110
▁com	-111
ad	-112
▁F	-113
▁j	-114
▁is	-115
ri	-116
▁R	-117
ans	-118
▁par	-119
▁E	-120
ow	-121
ter	-122
▁be	-123
ab	-124
if	-125
pp	-126
ill	-127
out	-128
▁pl	-129
ire	-130
ly	-131
and	-132
▁pour	-133
▁con	-134
ac	-135
▁H	-136
▁(	-137
ver	-138
▁N	-139
▁se	-140
▁st	-141
▁W	-142
ith	-143
▁ch	-144
ne	-145
ux	-146
▁du	-147
és	-148
▁é	-149
ort	-150
ain	-151
iv	-152
que	-153
▁G	-154
me	-155
▁pr	-156
..	-157
▁al	-158
▁with	-159
▁20	-160
oc	-161
▁you	-162
▁wh	-163
ais	-164
▁that	-165
ist	-166
od	-167
ure	-168
se	-169
▁ne	-170
end	-171
▁as	-172
ate	-173
▁dé	-174
age	-175
▁ex	-176
▁J	-177
▁sur	-178
op	-179
▁it	-180
st	-181
▁O	-182
▁su	-183
▁-	-184
▁une	-185
ite	-186
▁est	-187
▁The	-188
▁V	-189
th	-190
um	-191
ien	-192
▁at	-193
ée	-194
▁dans	-195
au	-196
ine	-197
pe	-198
▁are	-199
ore	-200
▁au	-201
ke	-202
▁que	-203
▁or	-204
ge	-205
ff	-206
pr	-207
em	-208
ard	-209
ction	-210
▁pas	-211
ér	-212
▁fr	-213
▁fa	-214
▁:	-215
▁ha	-216
ere	-217
ique	-218
ive	-219
▁U	-220
pl	-221
ell	-222
ies	-223
ance	-224
▁qui	-225
og	-226
igh	-227
▁tr	-228
00	-229
ier	-230
ap	-231
ue	-232
▁he	-233
ust	-234
▁"	-235
oun	-236
ib	-237
▁we	-238
urs	-239
▁your	-240
▁ré	-241
ity	-242
ud	-243
▁In	-244
ld	-245
all	-246
▁not	-247
▁vous	-248
▁201	-249
du	-250
able	-251
res	-252
art	-253
ons	-254
vec	-255
ale	-256
ité	-257
ions	-258
▁plus	-259
ial	-260
elle	-261
▁Le	-262
ond	-263
▁Th	-264
cc	-265
ide	-266
ice	-267
▁comp	-268
▁sa	-269
▁can	-270
ost	-271
▁cont	-272
▁avec	-273
ome	-274
▁3	-275
▁have	-276
ille	-277
ip	-278
up	-279
▁pe	-280
▁part	-281
ub	-282
▁ma	-283
▁by	-284
▁cl	-285
▁from	-286
ations	-287
ok	-288
ert	-289
▁this	-290
orm	-291
▁sh	-292
▁ou	-293
▁ce	-294
▁us	-295
▁ser	-296
▁tra	-297
▁was	-298
▁will	-299
ient	-300
oin	-301
▁ar	-302
ob	-303
anc	-304
▁av	-305
▁me	-306
▁K	-307
ight	-308
pt	-309
ise	-310
ès	-311
▁im	-312
ign	-313
iè	-314
▁Ch	-315
ia	-316
▁ad	-317
▁gr	-318
tre	-319
...	-320
▁ab	-321
▁app	-322
ait	-323
▁so	-324
ét	-325
ile	-326
▁per	-327
ens	-328
▁all	-329
les	-330
ace	-331
éc	-332
ult	-333
av	-334
ast	-335
are	-336
ord	-337
ors	-338
ear	-339
mb	-340
▁k	-341
▁ét	-342
ques	-343
iss	-344
one	-345
oy	-346
ind	-347
ence	-348
▁La	-349
onn	-350
oir	-351
ong	-352
port	-353
ook	-354
ich	-355
▁je	-356
▁do	-357
cl	-358
ass	-359
ork	-360
▁res	-361
▁Y	-362
ées	-363
gh	-364
ition	-365
ail	-366
act	-367
ois	-368
che	-369
▁te	-370
ould	-371
aire	-372
▁comm	-373
une	-374
ime	-375
ack	-376
▁man	-377
ouv	-378
▁has	-379
▁ent	-380
form	-381
ments	-382
ette	-383
▁off	-384
▁go	-385
air	-386
▁il	-387
▁St	-388
▁mar	-389
ose	-390
▁Re	-391
▁dis	-392
▁En	-393
ak	-394
▁4	-395
ect	-396
otre	-397
ach	-398
▁5	-399
▁out	-400
iz	-401
▁An	-402
▁sont	-403
ru	-404
ps	-405
com	-406
per	-407
▁int	-408
ang	-409
20	-410
ours	-411
ally	-412
vel	-413
▁pre	-414
▁|	-415
▁son	-416
▁but	-417
ough	-418
▁acc	-419
ry	-420
ph	-421
ants	-422
▁am	-423
ven	-424
si	-425
▁–	-426
ated	-427
▁inter	-428
ts	-429
ays	-430
enc	-431
ound	-432
lic	-433
ré	-434
her	-435
ase	-436
▁votre	-437
aux	-438
▁up	-439
▁more	-440
▁Les	-441
▁De	-442
its	-443
▁sp	-444
so	-445
▁»	-446
iff	-447
▁«	-448
▁aut	-449
ov	-450
▁our	-451
▁Com	-452
ents	-453
▁their	-454
li	-455
én	-456
use	-457
▁pers	-458
▁mais	-459
▁aux	-460
▁tout	-461
▁produ	-462
ures	-463
ern	-464
▁col	-465
ric	-466
▁Al	-467
▁my	-468
▁fe	-469
▁they	-470
▁Un	-471
▁ag	-472
▁cons	-473
▁serv	-474
ière	-475
ck	-476
ame	-477
ary	-478
ther	-479
▁nous	-480
▁li	-481
ég	-482
aut	-483
▁!	-484
▁one	-485
▁rec	-486
pos	-487
▁Fr	-488
éd	-489
ree	-490
uis	-491
▁work	-492
▁We	-493
▁ro	-494
▁car	-495
▁Il	-496
ett	-497
▁fin	-498
▁ph	-499
▁pos	-500
iques	-501
▁about	-502
ys	-503
ai	-504
▁sc	-505
▁ind	-506
reat	-507
▁co	-508
▁It	-509
ple	-510
▁new	-511
oi	-512
él	-513
▁6	-514
▁bl	-515
ical	-516
ex	-517
▁diff	-518
rit	-519
▁Mar	-520
ouve	-521
mes	-522
▁act	-523
▁0	-524
▁min	-525
ible	-526
els	-527
vent	-528
ick	-529
own	-530
▁also	-531
▁which	-532
ove	-533
).	-534
mer	-535
▁mat	-536
▁Q	-537
▁year	-538
▁19	-539
app	-540
être	-541
ages	-542
▁who	-543
ings	-544
ession	-545
eur	-546
▁Wh	-547
▁che	-548
aires	-549
▁time	-550
▁cette	-551
ui	-552
lect	-553
▁Pro	-554
ely	-555
onne	-556
▁This	-557
▁Ne	-558
ount	-559
ices	-560
▁Par	-561
ets	-562
▁prof	-563
▁7	-564
olog	-565
ood	-566
ident	-567
▁eff	-568
ram	-569
),	-570
▁ass	-571
▁bien	-572
der	-573
▁any	-574
ish	-575
ress	-576
oup	-577
de	-578
▁some	-579
ade	-580
▁10	-581
▁?	-582
ins	-583
ann	-584
▁his	-585
ual	-586
▁ann	-587
▁mod	-588
éri	-589
▁Je	-590
oci	-591
ange	-592
▁br	-593
ese	-594
▁att	-595
▁ont	-596
pect	-597
ces	-598
▁déc	-599
int	-600
▁8	-601
ep	-602
ink	-603
▁&	-604
▁been	-605
▁need	-606
tt	-607
▁conf	-608
▁af	-609
ild	-610
ère	-611
ner	-612
very	-613
▁ter	-614
ery	-615
▁ret	-616
aint	-617
▁tou	-618
▁fait	-619
▁ses	-620
elles	-621
▁just	-622
ss	-623
tem	-624
▁over	-625
▁like	-626
▁entre	-627
io	-628
▁vis	-629
ock	-630
▁when	-631
ian	-632
▁Ar	-633
▁don	-634
par	-635
▁pri	-636
chn	-637
▁fl	-638
▁pub	-639
bre	-640
ber	-641
util	-642
▁été	-643
▁supp	-644
ix	-645
oll	-646
▁prov	-647
iew	-648
gan	-649
▁sol	-650
▁/	-651
▁faire	-652
ats	-653
▁them	-654
▁comme	-655
day	-656
▁other	-657
ême	-658
ory	-659
▁kn	-660
▁rem	-661
erv	-662
▁9	-663
▁if	-664
amp	-665
▁He	-666
ussi	-667
▁there	-668
min	-669
ivers	-670
ouver	-671
endre	-672
ake	-673
ational	-674
ific	-675
▁rel	-676
▁get	-677
aine	-678
▁no	-679
▁loc	-680
▁hel	-681
cre	-682
▁trav	-683
▁trans	-684
ft	-685
ek	-686
ourn	-687
ues	-688
▁its	-689
▁ob	-690
ande	-691
▁perm	-692
▁rés	-693
ci	-694
ank	-695
▁em	-696
ates	-697
▁dire	-698
iers	-699
▁what	-700
▁art	-701
alis	-702
ject	-703
▁pass	-704
irst	-705
▁prés	-706
▁ins	-707
▁très	-708
▁Pl	-709
wn	-710
▁On	-711
▁would	-712
▁200	-713
ople	-714
▁incl	-715
▁You	-716
▁reg	-717
▁sim	-718
ôt	-719
oire	-720
▁her	-721
ict	-722
▁how	-723
az	-724
▁conc	-725
▁Pour	-726
ari	-727
▁inv	-728
ath	-729
ble	-730
▁dev	-731
▁bu	-732
ante	-733
ool	-734
▁said	-735
ll	-736
▁form	-737
▁had	-738
▁long	-739
▁look	-740
ution	-741
▁New	-742
▁leur	-743
près	-744
oth	-745
itt	-746
▁tem	-747
▁gu	-748
arg	-749
ense	-750
▁add	-751
▁pol	-752
▁prem	-753
alement	-754
▁deux	-755
▁aussi	-756
▁partic	-757
▁into	-758
▁commun	-759
ature	-760
▁make	-761
▁Se	-762
cher	-763
▁were	-764
▁être	-765
tern	-766
▁fam	-767
ités	-768
ctions	-769
iness	-770
pec	-771
▁inform	-772
▁Sh	-773
led	-774
▁prop	-775
▁tw	-776
▁fil	-777
ption	-778
▁site	-779
be	-780
ating	-781
ente	-782
▁help	-783
itu	-784
▁nom	-785
ici	-786
rough	-787
ives	-788
ful	-789
▁ans	-790
▁people	-791
▁prog	-792
▁Cl	-793
év	-794
ause	-795
old	-796
ater	-797
arn	-798
▁poss	-799
let	-800
▁inst	-801
▁mont	-802
▁than	-803
▁[	-804
▁qual	-805
ém	-806
cess	-807
000	-808
▁cour	-809
▁sec	-810
▁ac	-811
ER	-812
▁techn	-813
▁includ	-814
▁place	-815
▁peut	-816
oint	-817
ains	-818
▁personn	-819
▁cor	-820
ket	-821
▁Qu	-822
oul	-823
érie	-824
▁high	-825
▁well	-826
we	-827
▁For	-828
ug	-829
ience	-830
usiness	-831
▁most	-832
▁pet	-833
▁may	-834
▁dep	-835
▁first	-836
att	-837
arge	-838
opp	-839
▁use	-840
ities	-841
▁know	-842
▁si	-843
isse	-844
▁peu	-845
▁vos	-846
ines	-847
▁sal	-848
iste	-849
any	-850
▁bec	-851
ez	-852
ES	-853
rib	-854
▁12	-855
▁même	-856
▁,	-857
entre	-858
▁every	-859
ash	-860
ites	-861
▁cert	-862
▁Gr	-863
▁Bl	-864
▁exp	-865
▁enc	-866
ils	-867
utilis	-868
▁through	-869
▁Ex	-870
▁dem	-871
▁If	-872
ative	-873
urn	-874
▁tous	-875
▁Be	-876
co	-877
als	-878
oins	-879
ON	-880
▁sans	-881
▁15	-882
con	-883
line	-884
21	-885
▁dur	-886
orld	-887
▁met	-888
uss	-889
▁bet	-890
bl	-891
ily	-892
▁sy	-893
▁bas	-894
▁Con	-895
▁notre	-896
▁only	-897
▁back	-898
▁rest	-899
dit	-900
ah	-901
▁cou	-902
ances	-903
▁$	-904
▁cr	-905
row	-906
▁cap	-907
ww	-908
▁ces	-909
agn	-910
▁const	-911
ower	-912
ème	-913
igne	-914
und	-915
▁very	-916
ife	-917
▁mon	-918
▁Ad	-919
▁env	-920
▁vers	-921
-1	-922
êt	-923
▁...	-924
▁.	-925
onde	-926
▁bo	-927
ract	-928
ider	-929
▁she	-930
▁som	-931
▁And	-932
ax	-933
▁Pr	-934
▁sm	-935
iel	-936
."	-937
▁play	-938
ics	-939
▁Vous	-940
ands	-941
ode	-942
▁vo	-943
rop	-944
201	-945
ule	-946
▁good	-947
▁two	-948
ron	-949
▁service	-950
arm	-951
▁'	-952
▁op	-953
fin	-954
▁these	-955
▁want	-956
▁quel	-957
▁cas	-958
rent	-959
▁cre	-960
▁design	-961
▁11	-962
velop	-963
ten	-964
bs	-965
▁As	-966
▁18	-967
jet	-968
▁stud	-969
▁Ce	-970
▁many	-971
uch	-972
▁years	-973
alth	-974
ular	-975
▁phot	-976
▁program	-977
▁best	-978
ards	-979
▁sign	-980
▁mus	-981
▁mill	-982
ches	-983
ouse	-984
king	-985
▁import	-986
▁ke	-987
iqu	-988
▁num	-989
▁after	-990
▁great	-991
▁mem	-992
uit	-993
ied	-994
▁El	-995
▁France	-996
raph	-997
esp	-998
iment	-999
ystem	-1000
▁Ph	-1001
asse	-1002
ility	-1003
ital	-1004
▁ty	-1005
ene	-1006
ope	-1007
▁ég	-1008
▁str	-1009
view	-1010
▁home	-1011
▁sou	-1012
▁start	-1013
riv	-1014
▁rég	-1015
pro	-1016
▁profession	-1017
▁organ	-1018
ener	-1019
IN	-1020
▁fac	-1021
▁intern	-1022
xt	-1023
▁gl	-1024
ave	-1025
▁see	-1026
orte	-1027
▁week	-1028
mbre	-1029
▁Z	-1030
era	-1031
ients	-1032
▁Et	-1033
▁quest	-1034
fore	-1035
▁dern	-1036
▁find	-1037
ows	-1038
▁dou	-1039
▁now	-1040
▁way	-1041
AN	-1042
▁aff	-1043
▁Tr	-1044
lection	-1045
elf	-1046
ateur	-1047
▁ext	-1048
hip	-1049
▁business	-1050
▁public	-1051
erm	-1052
ton	-1053
ises	-1054
hed	-1055
ieux	-1056
insi	-1057
ious	-1058
▁pat	-1059
ull	-1060
▁cré	-1061
▁should	-1062
uc	-1063
▁post	-1064
inc	-1065
▁direct	-1066
▁Des	-1067
mber	-1068
▁could	-1069
▁temps	-1070
dition	-1071
▁product	-1072
▁Une	-1073
▁down	-1074
iter	-1075
▁services	-1076
▁exper	-1077
erc	-1078
▁pres	-1079
icle	-1080
cri	-1081
ars	-1082
ales	-1083
ables	-1084
▁spec	-1085
fr	-1086
▁even	-1087
enn	-1088
ision	-1089
▁liv	-1090
▁pré	-1091
▁nos	-1092
▁end	-1093
aur	-1094
▁non	-1095
▁requ	-1096
idé	-1097
▁elle	-1098
▁read	-1099
▁cal	-1100
▁donn	-1101
anç	-1102
▁where	-1103
eng	-1104
▁port	-1105
ole	-1106
▁nouv	-1107
ited	-1108
ipe	-1109
▁support	-1110
chool	-1111
▁ve	-1112
▁également	-1113
▁bel	-1114
hing	-1115
▁Nous	-1116
▁day	-1117
▁mot	-1118
ms	-1119
▁then	-1120
▁dist	-1121
50	-1122
▁30	-1123
pon	-1124
▁sé	-1125
▁contin	-1126
▁propos	-1127
get	-1128
jour	-1129
▁grand	-1130
▁14	-1131
▁i	-1132
30	-1133
ides	-1134
AR	-1135
//	-1136
ata	-1137
ince	-1138
ela	-1139
▁expl	-1140
imes	-1141
ête	-1142
▁jour	-1143
land	-1144
▁take	-1145
af	-1146
10	-1147
way	-1148
▁16	-1149
EN	-1150
▁Te	-1151
▁utilis	-1152
▁év	-1153
ustom	-1154
ission	-1155
ences	-1156
▁jus	-1157
acc	-1158
▁ple	-1159
▁sub	-1160
part	-1161
été	-1162
://	-1163
▁develop	-1164
▁much	-1165
orn	-1166
prise	-1167
▁Car	-1168
▁encore	-1169
ves	-1170
▁avant	-1171
▁right	-1172
aison	-1173
▁>	-1174
▁ref	-1175
▁depuis	-1176
▁cent	-1177
▁differ	-1178
erg	-1179
▁nombre	-1180
▁lui	-1181
▁Acc	-1182
aff	-1183
esse	-1184
▁own	-1185
▁cha	-1186
▁ainsi	-1187
▁information	-1188
▁vie	-1189
ced	-1190
oad	-1191
▁ju	-1192
▁here	-1193
▁sous	-1194
▁lead	-1195
▁inf	-1196
nement	-1197
man	-1198
ik	-1199
▁bon	-1200
▁mes	-1201
,"	-1202
▁because	-1203
▁team	-1204
ote	-1205
▁dec	-1206
▁Man	-1207
!!	-1208
▁17	-1209
vez	-1210
▁made	-1211
▁such	-1212
▁nouve	-1213
▁13	-1214
oot	-1215
endant	-1216
▁#	-1217
▁mal	-1218
▁prom	-1219
▁mom	-1220
éra	-1221
isation	-1222
▁How	-1223
▁world	-1224
▁process	-1225
▁Col	-1226
ason	-1227
▁cur	-1228
AT	-1229
▁Or	-1230
ement	-1231
aient	-1232
ute	-1233
iens	-1234
▁system	-1235
ration	-1236
▁Br	-1237
▁gén	-1238
illes	-1239
▁lors	-1240
▁plan	-1241
▁situ	-1242
▁fois	-1243
encont	-1244
▁sav	-1245
eurs	-1246
▁used	-1247
▁med	-1248
▁vari	-1249
▁X	-1250
ieu	-1251
▁2020	-1252
22	-1253
▁sk	-1254
▁2019	-1255
rois	-1256
▁being	-1257
▁2018	-1258
▁donc	-1259
▁val	-1260
▁di	-1261
▁où	-1262
▁vol	-1263
▁comment	-1264
atique	-1265
▁activ	-1266
▁class	-1267
▁again	-1268
ager	-1269
agement	-1270
▁inc	-1271
cept	-1272
ize	-1273
▁think	-1274
▁person	-1275
ross	-1276
rain	-1277
▁fon	-1278
lex	-1279
oh	-1280
▁htt	-1281
ruct	-1282
▁market	-1283
ouvez	-1284
▁last	-1285
▁repr	-1286
ather	-1287
▁Ind	-1288
▁soc	-1289
▁après	-1290
▁App	-1291
élé	-1292
▁ess	-1293
▁Post	-1294
tement	-1295
▁before	-1296
▁2017	-1297
conom	-1298
▁eas	-1299
▁équ	-1300
ilité	-1301
uses	-1302
velopp	-1303
▁To	-1304
▁enf	-1305
▁eng	-1306
amb	-1307
ral	-1308
▁Comm	-1309
▁There	-1310
rist	-1311
ifs	-1312
▁pay	-1313
▁resp	-1314
▁important	-1315
▁So	-1316
▁offer	-1317
▁dro	-1318
eau	-1319
▁did	-1320
RE	-1321
IS	-1322
aines	-1323
▁Cont	-1324
▁monde	-1325
vers	-1326
▁does	-1327
▁disc	-1328
oss	-1329
ention	-1330
ollow	-1331
di	-1332
▁sera	-1333
▁éc	-1334
▁leurs	-1335
orth	-1336
▁hom	-1337
▁top	-1338
▁él	-1339
ploy	-1340
jours	-1341
▁All	-1342
▁conn	-1343
vert	-1344
▁pop	-1345
oute	-1346
lement	-1347
ium	-1348
ends	-1349
por	-1350
▁fra	-1351
▁gra	-1352
ép	-1353
▁life	-1354
▁dom	-1355
ina	-1356
iles	-1357
▁effect	-1358
▁Gu	-1359
▁lot	-1360
▁free	-1361
▁opt	-1362
▁custom	-1363
▁contact	-1364
▁Si	-1365
▁perform	-1366
▁while	-1367
utes	-1368
▁dont	-1369
ames	-1370
▁care	-1371
ually	-1372
ançais	-1373
▁But	-1374
▁Sp	-1375
ark	-1376
ox	-1377
oupe	-1378
▁compl	-1379
▁cle	-1380
▁exc	-1381
▁24	-1382
▁déb	-1383
▁simple	-1384
▁po	-1385
▁prix	-1386
▁Sc	-1387
read	-1388
▁point	-1389
▁rece	-1390
▁Fl	-1391
rait	-1392
▁those	-1393
▁maint	-1394
▁Am	-1395
atch	-1396
ateurs	-1397
ward	-1398
▁Is	-1399
▁possible	-1400
▁test	-1401
▁compr	-1402
▁contre	-1403
ased	-1404
ane	-1405
atur	-1406
aille	-1407
ières	-1408
▁Dans	-1409
▁bro	-1410
alk	-1411
oud	-1412
gl	-1413
▁ed	-1414
▁really	-1415
earch	-1416
other	-1417
▁hist	-1418
▁Af	-1419
iron	-1420
ott	-1421
ograph	-1422
▁Su	-1423
▁fun	-1424
▁company	-1425
ieurs	-1426
▁around	-1427
▁soci	-1428
ailable	-1429
▁meille	-1430
▁tour	-1431
▁hand	-1432
/0	-1433
▁Go	-1434
▁list	-1435
ology	-1436
uf	-1437
▁Can	-1438
▁sort	-1439
▁toute	-1440
▁É	-1441
ha	-1442
▁différ	-1443
rir	-1444
abl	-1445
ren	-1446
▁imm	-1447
équ	-1448
▁jou	-1449
mble	-1450
▁book	-1451
▁avoir	-1452
▁toutes	-1453
▁count	-1454
▁permet	-1455
rer	-1456
▁fem	-1457
▁rapp	-1458
▁beau	-1459
▁invest	-1460
▁“	-1461
▁moins	-1462
OU	-1463
▁préc	-1464
▁different	-1465
▁under	-1466
▁z	-1467
aiss	-1468
▁spéc	-1469
▁access	-1470
▁second	-1471
▁rencont	-1472
▁suiv	-1473
▁Co	-1474
▁;	-1475
gr	-1476
ety	-1477
▁show	-1478
for	-1479
antes	-1480
ways	-1481
▁quelques	-1482
▁Mais	-1483
▁each	-1484
▁succ	-1485
▁toujours	-1486
▁2016	-1487
agne	-1488
red	-1489
▁dés	-1490
▁him	-1491
▁pays	-1492
work	-1493
▁sem	-1494
▁25	-1495
ché	-1496
▁tak	-1497
yn	-1498
▁méd	-1499
ports	-1500
▁US	-1501
ivid	-1502
▁adv	-1503
▁online	-1504
ized	-1505
rol	-1506
iser	-1507
ça	-1508
▁iss	-1509
yle	-1510
▁opp	-1511
inn	-1512
utions	-1513
▁month	-1514
▁fact	-1515
▁With	-1516
▁mois	-1517
ulture	-1518
▁mer	-1519
▁sl	-1520
▁Tra	-1521
▁hum	-1522
elon	-1523
▁pur	-1524
▁Me	-1525
▁21	-1526
▁coll	-1527
aw	-1528
▁100	-1529
▁2021	-1530
ude	-1531
▁They	-1532
▁Au	-1533
rat	-1534
▁présent	-1535
▁child	-1536
ever	-1537
▁réalis	-1538
IT	-1539
▁health	-1540
▁développ	-1541
comm	-1542
less	-1543
▁change	-1544
▁available	-1545
▁real	-1546
▁Home	-1547
▁ste	-1548
▁Paris	-1549
▁fonction	-1550
▁experience	-1551
▁tu	-1552
AL	-1553
▁—	-1554
▁suis	-1555
▁indust	-1556
▁rep	-1557
▁litt	-1558
▁priv	-1559
aces	-1560
ros	-1561
anche	-1562
▁run	-1563
outh	-1564
▁particip	-1565
isc	-1566
▁No	-1567
▁going	-1568
rez	-1569
ween	-1570
▁applic	-1571
▁project	-1572
▁recher	-1573
▁Res	-1574
yl	-1575
ying	-1576
▁soit	-1577
▁found	-1578
▁prote	-1579
▁set	-1580
▁fut	-1581
sh	-1582
▁personnes	-1583
ctob	-1584
▁still	-1585
▁follow	-1586
ware	-1587
ateg	-1588
",	-1589
▁using	-1590
OR	-1591
▁ça	-1592
▁(1	-1593
▁puis	-1594
▁love	-1595
▁moment	-1596
aute	-1597
ders	-1598
meric	-1599
etting	-1600
▁both	-1601
▁va	-1602
▁mult	-1603
ément	-1604
▁tri	-1605
▁dém	-1606
▁déj	-1607
▁pouvez	-1608
ger	-1609
ness	-1610
▁few	-1611
▁Pub	-1612
apt	-1613
▁Cette	-1614
ipp	-1615
ellement	-1616
ving	-1617
▁comb	-1618
▁conne	-1619
▁though	-1620
▁conse	-1621
/201	-1622
▁somet	-1623
In	-1624
▁happ	-1625
▁pu	-1626
▁lib	-1627
ec	-1628
ids	-1629
▁était	-1630
vern	-1631
istes	-1632
br	-1633
▁Im	-1634
▁between	-1635
lev	-1636
ior	-1637
▁large	-1638
ler	-1639
▁lo	-1640
ody	-1641
▁ris	-1642
▁Intern	-1643
▁plusieurs	-1644
igin	-1645
▁rép	-1646
ories	-1647
AS	-1648
▁open	-1649
uel	-1650
▁bes	-1651
anger	-1652
▁cours	-1653
▁Che	-1654
ired	-1655
fer	-1656
▁same	-1657
▁Fe	-1658
▁At	-1659
ield	-1660
book	-1661
▁ev	-1662
▁She	-1663
▁too	-1664
gg	-1665
▁state	-1666
ienne	-1667
ulation	-1668
▁camp	-1669
▁including	-1670
oney	-1671
▁grat	-1672
▁sens	-1673
ortun	-1674
▁during	-1675
▁build	-1676
omm	-1677
▁journ	-1678
enir	-1679
▁professionn	-1680
▁mob	-1681
▁log	-1682
▁men	-1683
▁es	-1684
11	-1685
▁fri	-1686
iche	-1687
▁nature	-1688
▁game	-1689
▁page	-1690
▁chez	-1691
▁pouv	-1692
▁learn	-1693
▁Pre	-1694
▁incre	-1695
▁appro	-1696
▁2015	-1697
▁autres	-1698
▁travail	-1699
▁rev	-1700
ination	-1701
ished	-1702
▁lim	-1703
▁May	-1704
▁respons	-1705
▁polit	-1706
▁family	-1707
▁bre	-1708
coup	-1709
▁…	-1710
ots	-1711
ération	-1712
▁three	-1713
▁social	-1714
▁vra	-1715
oix	-1716
▁maison	-1717
cle	-1718
▁trois	-1719
▁tot	-1720
entes	-1721
isme	-1722
nes	-1723
▁22	-1724
▁sure	-1725
▁feel	-1726
▁Serv	-1727
ails	-1728
uite	-1729
thing	-1730
▁premier	-1731
▁Ab	-1732
irm	-1733
vous	-1734
▁tit	-1735
▁occ	-1736
▁sour	-1737
▁imp	-1738
▁What	-1739
▁webs	-1740
▁gener	-1741
▁Aut	-1742
reen	-1743
▁cho	-1744
▁cost	-1745
▁face	-1746
bers	-1747
▁Christ	-1748
▁ligne	-1749
fe	-1750
ges	-1751
▁Americ	-1752
▁minutes	-1753
inter	-1754
▁local	-1755
rive	-1756
▁stand	-1757
The	-1758
ister	-1759
▁When	-1760
▁alors	-1761
▁school	-1762
AC	-1763
▁Ass	-1764
iller	-1765
▁super	-1766
▁parf	-1767
ists	-1768
▁jours	-1769
▁My	-1770
▁ant	-1771
uer	-1772
▁déf	-1773
aly	-1774
▁avait	-1775
▁water	-1776
▁keep	-1777
▁faut	-1778
▁maj	-1779
▁come	-1780
▁provide	-1781
▁2014	-1782
enant	-1783
▁Our	-1784
xim	-1785
aud	-1786
▁film	-1787
▁main	-1788
▁cela	-1789
ocu	-1790
▁23	-1791
ueil	-1792
▁better	-1793
▁français	-1794
▁small	-1795
▁result	-1796
oints	-1797
rier	-1798
éf	-1799
▁dét	-1800
▁clients	-1801
IC	-1802
▁cher	-1803
".	-1804
▁Eur	-1805
▁vide	-1806
omp	-1807
▁exam	-1808
ié	-1809
▁question	-1810
▁2013	-1811
▁produits	-1812
ding	-1813
▁always	-1814
▁jusqu	-1815
▁chaque	-1816
ception	-1817
▁nouveau	-1818
uv	-1819
ones	-1820
▁qualité	-1821
▁ide	-1822
itch	-1823
ved	-1824
▁gar	-1825
▁say	-1826
LE	-1827
ication	-1828
room	-1829
▁afin	-1830
▁50	-1831
▁Elle	-1832
place	-1833
ley	-1834
▁put	-1835
arch	-1836
▁ens	-1837
▁air	-1838
▁nouvelle	-1839
▁rap	-1840
▁web	-1841
ume	-1842
ape	-1843
▁interest	-1844
▁mach	-1845
▁little	-1846
▁data	-1847
iversity	-1848
▁things	-1849
▁train	-1850
▁2012	-1851
▁financ	-1852
▁report	-1853
▁eur	-1854
▁déjà	-1855
▁dép	-1856
▁Mont	-1857
▁Saint	-1858
▁Art	-1859
▁projet	-1860
▁suite	-1861
fect	-1862
arr	-1863
▁big	-1864
▁next	-1865
arly	-1866
▁diffic	-1867
▁area	-1868
▁able	-1869
ks	-1870
aî	-1871
▁Act	-1872
▁type	-1873
▁News	-1874
▁special	-1875
▁employ	-1876
of	-1877
oor	-1878
▁char	-1879
▁enj	-1880
ret	-1881
duct	-1882
Un	-1883
▁trouver	-1884
pte	-1885
▁mil	-1886
▁pot	-1887
▁beaucoup	-1888
ules	-1889
▁première	-1890
▁individ	-1891
urance	-1892
▁ren	-1893
ruction	-1894
▁unique	-1895
▁install	-1896
edi	-1897
▁proble	-1898
ification	-1899
▁full	-1900
ût	-1901
▁Em	-1902
▁bar	-1903
▁ils	-1904
▁bi	-1905
▁Part	-1906
udi	-1907
▁Ste	-1908
▁fav	-1909
urg	-1910
▁equ	-1911
ared	-1912
▁number	-1913
12	-1914
ney	-1915
▁Min	-1916
▁four	-1917
▁•	-1918
erre	-1919
abor	-1920
ential	-1921
▁petit	-1922
ency	-1923
▁room	-1924
pes	-1925
▁pap	-1926
hui	-1927
▁+	-1928
.0	-1929
ently	-1930
onc	-1931
▁since	-1932
ène	-1933
aster	-1934
ream	-1935
jourd	-1936
▁»,	-1937
▁Pol	-1938
incip	-1939
▁call	-1940
▁Off	-1941
▁power	-1942
écur	-1943
press	-1944
atures	-1945
▁without	-1946
uck	-1947
▁cet	-1948
ache	-1949
▁lég	-1950
▁rend	-1951
hor	-1952
action	-1953
▁today	-1954
issement	-1955
▁recomm	-1956
,000	-1957
irt	-1958
êtes	-1959
▁cro	-1960
▁table	-1961
by	-1962
▁savoir	-1963
▁oper	-1964
autres	-1965
▁order	-1966
ically	-1967
▁compte	-1968
▁ville	-1969
ibles	-1970
▁must	-1971
kes	-1972
▁det	-1973
ball	-1974
▁anim	-1975
▁Pe	-1976
ator	-1977
lease	-1978
▁mess	-1979
▁looking	-1980
▁aur	-1981
asion	-1982
érieur	-1983
▁level	-1984
▁ép	-1985
ples	-1986
▁grow	-1987
▁meet	-1988
itions	-1989
▁fond	-1990
rée	-1991
▁sing	-1992
ush	-1993
▁mag	-1994
off	-1995
▁vi	-1996
▁Cent	-1997
-0	-1998
▁Av	-1999
▁addition	-2000
▁Jul	-2001
amment	-2002
▁give	-2003
til	-2004
▁hab	-2005
▁current	-2006
ditions	-2007
▁mov	-2008
▁job	-2009
▁writ	-2010
iver	-2011
▁Comp	-2012
▁hard	-2013
▁head	-2014
▁Comment	-2015
▁quality	-2016
▁beaut	-2017
▁might	-2018
▁partie	-2019
omen	-2020
▁esp	-2021
▁respect	-2022
▁grande	-2023
▁days	-2024
ords	-2025
ury	-2026
▁something	-2027
▁demand	-2028
▁within	-2029
▁el	-2030
▁Cor	-2031
▁x	-2032
duc	-2033
▁course	-2034
▁group	-2035
tes	-2036
40	-2037
irc	-2038
otel	-2039
▁Bar	-2040
▁spe	-2041
illet	-2042
▁voy	-2043
▁view	-2044
▁got	-2045
▁concern	-2046
▁Jan	-2047
▁another	-2048
▁By	-2049
▁Ag	-2050
oles	-2051
▁website	-2052
▁voir	-2053
60	-2054
▁nive	-2055
ID	-2056
iture	-2057
....	-2058
www	-2059
▁autre	-2060
▁enfants	-2061
oph	-2062
minist	-2063
▁etc	-2064
▁docu	-2065
▁origin	-2066
ension	-2067
▁One	-2068
sp	-2069
▁working	-2070
▁associ	-2071
âce	-2072
ately	-2073
▁recherche	-2074
ino	-2075
anté	-2076
rique	-2077
▁provid	-2078
EL	-2079
fér	-2080
▁old	-2081
▁blog	-2082
▁peuvent	-2083
▁avez	-2084
enne	-2085
omb	-2086
▁products	-2087
▁environ	-2088
▁questions	-2089
▁food	-2090
▁avons	-2091
▁CO	-2092
▁base	-2093
self	-2094
▁fab	-2095
wh	-2096
▁syst	-2097
▁princip	-2098
erts	-2099
ival	-2100
anks	-2101
estion	-2102
ills	-2103
▁seule	-2104
▁particul	-2105
▁visit	-2106
urer	-2107
▁bou	-2108
cent	-2109
▁points	-2110
99	-2111
olution	-2112
▁check	-2113
▁dernier	-2114
▁permett	-2115
▁light	-2116
▁quand	-2117
▁retr	-2118
▁regard	-2119
▁Sur	-2120
▁complet	-2121
▁let	-2122
▁Med	-2123
ony	-2124
▁enjoy	-2125
ird	-2126
ison	-2127
▁chang	-2128
▁télé	-2129
ift	-2130
lié	-2131
unes	-2132
ères	-2133
▁restaur	-2134
yd	-2135
-2	-2136
ump	-2137
derst	-2138
isé	-2139
▁consider	-2140
▁impro	-2141
▁28	-2142
jets	-2143
▁€	-2144
▁Do	-2145
leur	-2146
icles	-2147
▁dispos	-2148
▁collect	-2149
itation	-2150
▁gard	-2151
ED	-2152
ième	-2153
▁autom	-2154
▁moy	-2155
aj	-2156
enu	-2157
nov	-2158
ires	-2159
▁dest	-2160
occ	-2161
▁Inst	-2162
ray	-2163
UR	-2164
▁leg	-2165
▁less	-2166
▁À	-2167
▁Mon	-2168
ieve	-2169
▁sent	-2170
▁Cal	-2171
▁doit	-2172
cription	-2173
ctor	-2174
mp	-2175
▁article	-2176
itive	-2177
ran	-2178
▁26	-2179
icro	-2180
▁That	-2181
reg	-2182
cteur	-2183
to	-2184
▁1.	-2185
load	-2186
▁making	-2187
▁money	-2188
▁Fin	-2189
▁mis	-2190
▁cad	-2191
▁opportun	-2192
▁groupe	-2193
AM	-2194
▁sécur	-2195
ada	-2196
ified	-2197
ettes	-2198
▁27	-2199
▁house	-2200
ohn	-2201
▁*	-2202
aim	-2203
ries	-2204
▁pan	-2205
▁trop	-2206
▁version	-2207
15	-2208
OS	-2209
▁dim	-2210
ige	-2211
▁partir	-2212
▁major	-2213
oires	-2214
idence	-2215
itez	-2216
▁souv	-2217
▁effic	-2218
▁success	-2219
▁music	-2220
▁prot	-2221
▁découv	-2222
▁années	-2223
IL	-2224
▁turn	-2225
▁Val	-2226
▁propose	-2227
▁easy	-2228
ording	-2229
ability	-2230
▁effet	-2231
itter	-2232
▁compos	-2233
▁Mer	-2234
▁publ	-2235
▁région	-2236
duction	-2237
enef	-2238
▁Gl	-2239
atég	-2240
▁bonne	-2241
▁students	-2242
aise	-2243
èle	-2244
▁underst	-2245
ief	-2246
ems	-2247
fort	-2248
▁2011	-2249
▁Tw	-2250
ôle	-2251
▁never	-2252
ION	-2253
erie	-2254
▁élect	-2255
80	-2256
inst	-2257
▁review	-2258
▁ident	-2259
▁production	-2260
▁Your	-2261
alité	-2262
▁probl	-2263
▁dra	-2264
écess	-2265
ET	-2266
▁dit	-2267
▁dispon	-2268
▁favor	-2269
the	-2270
ending	-2271
▁needs	-2272
▁mise	-2273
▁https	-2274
aking	-2275
▁mettre	-2276
ering	-2277
▁More	-2278
vernment	-2279
▁against	-2280
▁Bu	-2281
▁piè	-2282
bor	-2283
formation	-2284
▁jeu	-2285
▁chois	-2286
ips	-2287
▁event	-2288
▁University	-2289
ext	-2290
▁début	-2291
prises	-2292
éro	-2293
▁certain	-2294
vention	-2295
▁case	-2296
bo	-2297
▁selon	-2298
▁sever	-2299
25	-2300
ike	-2301
erty	-2302
▁lieu	-2303
fl	-2304
▁photos	-2305
▁niveau	-2306
▁nécess	-2307
ially	-2308
▁charge	-2309
▁pendant	-2310
▁research	-2311
vious	-2312
▁past	-2313
ization	-2314
▁style	-2315
▁cand	-2316
▁côt	-2317
▁mét	-2318
▁law	-2319
▁Jean	-2320
▁».	-2321
iday	-2322
▁ca	-2323
▁40	-2324
:0	-2325
oo	-2326
▁sw	-2327
▁prendre	-2328
ièrement	-2329
▁Dr	-2330
▁net	-2331
vier	-2332
▁price	-2333
▁crit	-2334
▁match	-2335
:4	-2336
▁spécial	-2337
▁Bro	-2338
▁coup	-2339
ee	-2340
iez	-2341
▁children	-2342
▁pract	-2343
▁present	-2344
▁centre	-2345
▁creat	-2346
▁dess	-2347
pression	-2348
▁DE	-2349
▁expect	-2350
▁moi	-2351
▁Per	-2352
▁appar	-2353
▁arr	-2354
ling	-2355
▁cam	-2356
indows	-2357
ocus	-2358
iale	-2359
US	-2360
ogle	-2361
▁29	-2362
▁Sal	-2363
▁Europe	-2364
phone	-2365
▁jam	-2366
.5	-2367
▁Avec	-2368
▁These	-2369
ism	-2370
:3	-2371
oe	-2372
▁national	-2373
ze	-2374
▁cover	-2375
▁exem	-2376
▁suff	-2377
ril	-2378
iance	-2379
▁John	-2380
iving	-2381
▁Read	-2382
ivre	-2383
ights	-2384
▁City	-2385
▁contr	-2386
▁décl	-2387
ana	-2388
face	-2389
▁minist	-2390
▁vit	-2391
▁cra	-2392
▁away	-2393
▁via	-2394
ville	-2395
▁http	-2396
▁mieux	-2397
▁Sm	-2398
OT	-2399
erial	-2400
▁allow	-2401
ably	-2402
▁culture	-2403
uring	-2404
cer	-2405
▁PM	-2406
▁conv	-2407
▁bal	-2408
▁fourn	-2409
▁soir	-2410
▁sat	-2411
▁community	-2412
▁vidé	-2413
ung	-2414
▁rapide	-2415
▁soft	-2416
irl	-2417
▁front	-2418
▁connect	-2419
▁Mal	-2420
▁situation	-2421
org	-2422
▁video	-2423
▁personal	-2424
▁bout	-2425
▁short	-2426
ront	-2427
▁bén	-2428
:5	-2429
thers	-2430
itement	-2431
▁Plus	-2432
▁elect	-2433
▁red	-2434
illage	-2435
ture	-2436
side	-2437
▁circ	-2438
An	-2439
▁sport	-2440
ilt	-2441
▁far	-2442
▁along	-2443
▁perfect	-2444
▁sites	-2445
uter	-2446
▁Dis	-2447
▁date	-2448
▁include	-2449
▁Sep	-2450
clus	-2451
opt	-2452
--	-2453
uff	-2454
▁toget	-2455
19	-2456
ologie	-2457
▁together	-2458
ionn	-2459
▁choix	-2460
▁photo	-2461
▁porte	-2462
ris	-2463
▁deal	-2464
eter	-2465
ergy	-2466
ning	-2467
▁norm	-2468
▁ici	-2469
ociation	-2470
▁times	-2471
▁offic	-2472
▁président	-2473
▁treat	-2474
▁kind	-2475
▁live	-2476
▁notamment	-2477
▁init	-2478
▁proch	-2479
aul	-2480
▁gam	-2481
▁pack	-2482
onnement	-2483
▁line	-2484
▁réc	-2485
▁199	-2486
▁2010	-2487
▁position	-2488
elui	-2489
la	-2490
▁why	-2491
lin	-2492
▁abs	-2493
▁rou	-2494
▁benef	-2495
▁client	-2496
je	-2497
ica	-2498
▁rencontre	-2499
▁util	-2500
AP	-2501
mm	-2502
▁année	-2503
▁understand	-2504
EC	-2505
▁stock	-2506
rict	-2507
quer	-2508
▁dig	-2509
atives	-2510
▁Bo	-2511
14	-2512
16	-2513
▁tradition	-2514
osp	-2515
▁Dire	-2516
erve	-2517
▁Char	-2518
urity	-2519
▁ask	-2520
ctobre	-2521
▁sout	-2522
▁Apr	-2523
▁Ke	-2524
rière	-2525
▁vict	-2526
▁million	-2527
▁rapport	-2528
▁development	-2529
ufact	-2530
▁internet	-2531
▁demande	-2532
▁based	-2533
▁Mus	-2534
èg	-2535
cy	-2536
▁beg	-2537
aring	-2538
rim	-2539
▁name	-2540
▁deli	-2541
ibilité	-2542
▁having	-2543
lle	-2544
▁km	-2545
son	-2546
▁grâce	-2547
leurs	-2548
▁control	-2549
pir	-2550
▁sau	-2551
ester	-2552
▁clean	-2553
▁options	-2554
▁club	-2555
val	-2556
unch	-2557
▁juin	-2558
resse	-2559
▁says	-2560
▁cook	-2561
▁Face	-2562
▁across	-2563
ensive	-2564
▁conditions	-2565
▁solution	-2566
17	-2567
▁excell	-2568
▁object	-2569
▁season	-2570
aill	-2571
▁formation	-2572
iled	-2573
ental	-2574
▁fix	-2575
▁lang	-2576
▁buy	-2577
▁vac	-2578
atiques	-2579
▁create	-2580
▁fer	-2581
▁After	-2582
▁facile	-2583
oman	-2584
▁besoin	-2585
▁Cons	-2586
éb	-2587
▁mars	-2588
▁news	-2589
ged	-2590
▁individual	-2591
▁Ge	-2592
▁cin	-2593
▁TV	-2594
sez	-2595
▁assist	-2596
▁Aug	-2597
▁là	-2598
vis	-2599
▁whe	-2600
▁range	-2601
▁country	-2602
▁performance	-2603
OM	-2604
▁ress	-2605
13	-2606
▁Tout	-2607
▁industry	-2608
▁contrib	-2609
24	-2610
anies	-2611
▁vendre	-2612
▁pouvoir	-2613
▁%	-2614
venir	-2615
▁génér	-2616
▁Accueil	-2617
obal	-2618
wards	-2619
çon	-2620
rad	-2621
▁sus	-2622
go	-2623
▁produit	-2624
bres	-2625
èmes	-2626
▁2022	-2627
▁série	-2628
▁move	-2629
▁World	-2630
▁sam	-2631
ready	-2632
▁jan	-2633
▁clos	-2634
▁parc	-2635
ources	-2636
▁relations	-2637
lege	-2638
▁solutions	-2639
▁ill	-2640
▁thing	-2641
▁équipe	-2642
▁struct	-2643
▁jamais	-2644
▁cuis	-2645
▁mort	-2646
▁ach	-2647
▁material	-2648
▁text	-2649
▁comes	-2650
▁eu	-2651
▁dr	-2652
▁Not	-2653
▁rien	-2654
ended	-2655
▁Di	-2656
▁until	-2657
▁ense	-2658
eth	-2659
ovembre	-2660
▁représ	-2661
▁ver	-2662
▁données	-2663
▁Sam	-2664
▁proc	-2665
▁Rob	-2666
▁Port	-2667
▁getting	-2668
▁prév	-2669
▁become	-2670
▁cause	-2671
▁members	-2672
▁West	-2673
uelle	-2674
▁stat	-2675
▁offers	-2676
18	-2677
▁purch	-2678
▁beh	-2679
cul	-2680
▁rad	-2681
▁prob	-2682
tout	-2683
▁night	-2684
▁often	-2685
:00	-2686
▁several	-2687
.,	-2688
▁color	-2689
atter	-2690
200	-2691
▁champ	-2692
▁cop	-2693
ationale	-2694
▁Vo	-2695
▁résult	-2696
▁Après	-2697
▁side	-2698
itable	-2699
▁Posted	-2700
iful	-2701
▁travers	-2702
▁Sun	-2703
▁tax	-2704
▁famil	-2705
pose	-2706
iven	-2707
▁anc	-2708
▁reste	-2709
▁famille	-2710
ierre	-2711
ète	-2712
▁candid	-2713
▁future	-2714
▁seront	-2715
ama	-2716
▁continue	-2717
acy	-2718
▁système	-2719
▁fund	-2720
▁quick	-2721
▁However	-2722
▁société	-2723
éric	-2724
▁makes	-2725
▁tant	-2726
▁Phot	-2727
▁développement	-2728
▁National	-2729
▁share	-2730
▁Pat	-2731
1,	-2732
▁mai	-2733
▁Reg	-2734
ched	-2735
bum	-2736
▁fais	-2737
▁Us	-2738
▁marché	-2739
▁cadre	-2740
AD	-2741
▁def	-2742
icy	-2743
▁foot	-2744
▁extra	-2745
▁York	-2746
ât	-2747
Th	-2748
▁Cour	-2749
▁international	-2750
elling	-2751
▁ceux	-2752
▁Count	-2753
▁body	-2754
roid	-2755
obil	-2756
▁phys	-2757
▁charg	-2758
▁AM	-2759
▁done	-2760
ases	-2761
▁bit	-2762
▁aj	-2763
▁millions	-2764
▁quot	-2765
▁following	-2766
▁city	-2767
▁difficult	-2768
gment	-2769
ôtel	-2770
▁educ	-2771
▁Ann	-2772
▁Mod	-2773
70	-2774
▁card	-2775
ptembre	-2776
▁already	-2777
▁require	-2778
éli	-2779
▁aujourd	-2780
▁santé	-2781
érer	-2782
ponse	-2783
▁content	-2784
lete	-2785
▁sécurité	-2786
▁Commun	-2787
dre	-2788
▁bed	-2789
▁six	-2790
▁commerc	-2791
ively	-2792
iqué	-2793
play	-2794
▁auc	-2795
▁Just	-2796
▁location	-2797
▁programme	-2798
▁Déc	-2799
▁machine	-2800
sy	-2801
alys	-2802
23	-2803
ply	-2804
EM	-2805
-19	-2806
▁United	-2807
itaire	-2808
ols	-2809
otion	-2810
▁discuss	-2811
▁miss	-2812
▁emb	-2813
▁press	-2814
▁fre	-2815
▁janvier	-2816
orter	-2817
ivité	-2818
▁000	-2819
▁salle	-2820
▁personne	-2821
▁pa	-2822
▁mass	-2823
▁semaine	-2824
cture	-2825
▁septembre	-2826
ags	-2827
lez	-2828
atre	-2829
▁divers	-2830
ural	-2831
rie	-2832
▁ever	-2833
▁accomp	-2834
ma	-2835
▁intér	-2836
▁Pres	-2837
▁celui	-2838
▁pict	-2839
▁low	-2840
▁petite	-2841
▁compet	-2842
▁focus	-2843
▁High	-2844
mi	-2845
▁months	-2846
ored	-2847
érience	-2848
▁1,	-2849
▁fig	-2850
▁wr	-2851
▁Sup	-2852
▁tal	-2853
▁fur	-2854
▁collabor	-2855
▁construction	-2856
▁nombreux	-2857
▁économ	-2858
cembre	-2859
alf	-2860
▁êtes	-2861
▁Google	-2862
▁Prof	-2863
ng	-2864
▁fall	-2865
▁Ils	-2866
▁continu	-2867
▁return	-2868
itude	-2869
▁mobile	-2870
▁features	-2871
urb	-2872
rice	-2873
▁left	-2874
▁link	-2875
▁hours	-2876
▁State	-2877
▁offre	-2878
▁ago	-2879
ained	-2880
▁près	-2881
ores	-2882
ouss	-2883
▁couple	-2884
▁Techn	-2885
▁bud	-2886
▁droit	-2887
odes	-2888
▁code	-2889
▁adapt	-2890
▁application	-2891
▁March	-2892
idd	-2893
ades	-2894
env	-2895
▁Bel	-2896
▁try	-2897
eff	-2898
We	-2899
▁Ces	-2900
▁management	-2901
▁Inter	-2902
aps	-2903
▁customers	-2904
▁collection	-2905
uits	-2906
▁teach	-2907
▁souha	-2908
▁tend	-2909
now	-2910
ured	-2911
▁search	-2912
ising	-2913
▁Ins	-2914
▁octobre	-2915
▁key	-2916
aging	-2917
▁space	-2918
▁Bon	-2919
▁ton	-2920
▁South	-2921
▁vraiment	-2922
année	-2923
ara	-2924
opé	-2925
icip	-2926
▁cy	-2927
quoi	-2928
▁femme	-2929
1.	-2930
▁Air	-2931
▁cit	-2932
▁School	-2933
eral	-2934
ENT	-2935
2.	-2936
vest	-2937
▁cut	-2938
▁means	-2939
▁Health	-2940
▁Will	-2941
ify	-2942
▁syn	-2943
▁plat	-2944
▁others	-2945
▁near	-2946
back	-2947
▁lat	-2948
ym	-2949
▁parten	-2950
nent	-2951
▁chall	-2952
▁Dav	-2953
ulaire	-2954
▁Trans	-2955
atif	-2956
▁parents	-2957
oon	-2958
▁companies	-2959
▁Lib	-2960
▁effort	-2961
▁games	-2962
▁stay	-2963
▁novembre	-2964
▁sommes	-2965
udes	-2966
▁bring	-2967
▁total	-2968
▁Feb	-2969
▁60	-2970
ube	-2971
▁Loc	-2972
▁technology	-2973
atic	-2974
▁American	-2975
OL	-2976
▁Now	-2977
▁viol	-2978
▁bénéf	-2979
lig	-2980
▁story	-2981
▁dél	-2982
iaux	-2983
▁avis	-2984
était	-2985
▁mind	-2986
▁government	-2987
ilities	-2988
▁appr	-2989
arger	-2990
▁impact	-2991
▁particular	-2992
oit	-2993
ifi	-2994
▁Ret	-2995
▁action	-2996
▁équip	-2997
ws	-2998
ests	-2999
équipe	-3000
ership	-3001
▁friends	-3002
▁souvent	-3003
▁exist	-3004
▁Free	-3005
▁Eng	-3006
▁heures	-3007
▁North	-3008
iner	-3009
▁Internet	-3010
astic	-3011
▁enough	-3012
▁découvrir	-3013
▁upd	-3014
▁ball	-3015
ye	-3016
ague	-3017
▁minim	-3018
sc	-3019
▁gouver	-3020
▁document	-3021
uk	-3022
ting	-3023
▁Aust	-3024
atural	-3025
▁types	-3026
▁chose	-3027
▁issues	-3028
Al	-3029
▁nouvelles	-3030
▁Sim	-3031
▁protection	-3032
isf	-3033
▁hold	-3034
▁account	-3035
▁saison	-3036
istoire	-3037
▁strong	-3038
▁répond	-3039
▁compét	-3040
tres	-3041
▁Park	-3042
Ar	-3043
iction	-3044
▁single	-3045
▁women	-3046
▁gen	-3047
des	-3048
▁break	-3049
venue	-3050
err	-3051
▁propri	-3052
ength	-3053
uary	-3054
▁doing	-3055
ipment	-3056
▁2.	-3057
▁id	-3058
▁due	-3059
▁court	-3060
▁property	-3061
▁called	-3062
▁double	-3063
▁fore	-3064
évrier	-3065
▁certains	-3066
▁arriv	-3067
▁attend	-3068
▁matéri	-3069
▁Stud	-3070
ardin	-3071
ifier	-3072
▁côté	-3073
qué	-3074
▁Don	-3075
▁Here	-3076
éh	-3077
▁avril	-3078
▁plate	-3079
▁econom	-3080
▁specific	-3081
Ph	-3082
▁juillet	-3083
oom	-3084
▁seul	-3085
▁Facebook	-3086
▁Del	-3087
wer	-3088
▁invol	-3089
oration	-3090
omme	-3091
ening	-3092
ops	-3093
▁2009	-3094
organ	-3095
▁Cr	-3096
▁started	-3097
▁commercial	-3098
▁capac	-3099
▁retour	-3100
anch	-3101
tr	-3102
Ch	-3103
▁April	-3104
exp	-3105
▁mix	-3106
▁haut	-3107
▁won	-3108
Le	-3109
▁Rec	-3110
▁join	-3111
▁jeunes	-3112
▁Sk	-3113
▁@	-3114
▁surtout	-3115
▁aim	-3116
▁June	-3117
▁décembre	-3118
ledge	-3119
ought	-3120
aque	-3121
ifique	-3122
▁Web	-3123
▁belle	-3124
▁staff	-3125
▁seulement	-3126
▁once	-3127
▁final	-3128
▁Business	-3129
▁professional	-3130
▁aud	-3131
oses	-3132
▁cu	-3133
once	-3134
orer	-3135
▁forme	-3136
▁IN	-3137
▁problem	-3138
▁Dep	-3139
▁corre	-3140
ST	-3141
▁femmes	-3142
▁Mc	-3143
▁pens	-3144
▁building	-3145
▁below	-3146
▁media	-3147
▁actually	-3148
▁haute	-3149
▁beautiful	-3150
augh	-3151
▁Phil	-3152
▁clim	-3153
▁organis	-3154
▁Est	-3155
▁simil	-3156
▁gestion	-3157
hab	-3158
▁doesn	-3159
▁exemple	-3160
▁mode	-3161
asc	-3162
90	-3163
▁sais	-3164
ived	-3165
▁marketing	-3166
▁informations	-3167
▁font	-3168
▁lik	-3169
▁chance	-3170
▁péri	-3171
▁win	-3172
2,	-3173
▁vue	-3174
▁cuisine	-3175
▁everything	-3176
▁sugg	-3177
▁announ	-3178
âte	-3179
▁marque	-3180
▁From	-3181
▁email	-3182
▁record	-3183
▁mean	-3184
iences	-3185
ducation	-3186
ench	-3187
▁fabric	-3188
▁passer	-3189
▁Ac	-3190
aining	-3191
▁del	-3192
ironnement	-3193
▁Day	-3194
▁didn	-3195
▁source	-3196
paration	-3197
▁différents	-3198
▁manufact	-3199
▁images	-3200
▁Mac	-3201
over	-3202
▁Black	-3203
▁travel	-3204
▁distrib	-3205
rage	-3206
▁pie	-3207
ares	-3208
inning	-3209
▁Up	-3210
▁improve	-3211
entreprise	-3212
▁appel	-3213
▁voyage	-3214
▁please	-3215
ham	-3216
▁laiss	-3217
most	-3218
…]	-3219
▁God	-3220
▁Sol	-3221
▁Sw	-3222
▁ten	-3223
▁livre	-3224
▁Red	-3225
AG	-3226
uge	-3227
abilité	-3228
bour	-3229
▁vente	-3230
▁rent	-3231
▁Canada	-3232
▁pick	-3233
▁hor	-3234
eux	-3235
come	-3236
▁TH	-3237
ambre	-3238
▁administ	-3239
▁entreprises	-3240
▁Septe	-3241
▁office	-3242
mar	-3243
asing	-3244
cast	-3245
gu	-3246
erson	-3247
ogn	-3248
irus	-3249
▁trouve	-3250
IM	-3251
uvre	-3252
▁Pet	-3253
▁Sec	-3254
▁meilleur	-3255
rant	-3256
illed	-3257
▁bois	-3258
tte	-3259
5.	-3260
▁Ang	-3261
▁rais	-3262
▁essay	-3263
▁yet	-3264
aign	-3265
ève	-3266
▁celle	-3267
aged	-3268
▁message	-3269
▁Notre	-3270
▁provides	-3271
eaux	-3272
▁option	-3273
▁vale	-3274
outer	-3275
▁jeune	-3276
▁Design	-3277
▁results	-3278
▁lum	-3279
▁strateg	-3280
▁spect	-3281
▁infl	-3282
28	-3283
▁various	-3284
avoir	-3285
iam	-3286
▁host	-3287
▁Out	-3288
▁sil	-3289
▁works	-3290
not	-3291
▁Windows	-3292
St	-3293
▁dès	-3294
▁prior	-3295
▁environment	-3296
▁July	-3297
urch	-3298
sych	-3299
▁ache	-3300
▁Ed	-3301
▁Ser	-3302
▁tre	-3303
zz	-3304
onder	-3305
▁expert	-3306
partment	-3307
▁prim	-3308
▁Que	-3309
▁journée	-3310
26	-3311
▁complete	-3312
imp	-3313
igue	-3314
▁rac	-3315
▁heart	-3316
▁popular	-3317
esh	-3318
imm	-3319
▁vidéo	-3320
▁least	-3321
alt	-3322
▁Bre	-3323
▁consult	-3324
▁pris	-3325
lem	-3326
▁Book	-3327
▁plac	-3328
ounds	-3329
mbl	-3330
ctober	-3331
▁Har	-3332
▁Stre	-3333
aissance	-3334
▁nav	-3335
▁trouv	-3336
auff	-3337
▁Service	-3338
▁Publié	-3339
▁image	-3340
▁value	-3341
ask	-3342
IR	-3343
ither	-3344
▁[…]	-3345
▁siè	-3346
▁Grand	-3347
▁représent	-3348
ource	-3349
▁early	-3350
▁field	-3351
▁engine	-3352
CH	-3353
oût	-3354
iod	-3355
▁hy	-3356
▁known	-3357
▁sex	-3358
▁innov	-3359
▁obten	-3360
éch	-3361
cover	-3362
▁transport	-3363
▁Services	-3364
cret	-3365
27	-3366
▁tourn	-3367
anning	-3368
▁déclar	-3369
▁dernière	-3370
▁techniques	-3371
▁Of	-3372
pecially	-3373
acter	-3374
▁came	-3375
▁training	-3376
▁magn	-3377
ING	-3378
ications	-3379
▁rév	-3380
▁series	-3381
estival	-3382
▁février	-3383
▁puiss	-3384
ised	-3385
▁cell	-3386
-3	-3387
aily	-3388
▁terr	-3389
▁satisf	-3390
▁commer	-3391
▁2008	-3392
▁suppl	-3393
rug	-3394
▁San	-3395
▁five	-3396
▁Please	-3397
▁communication	-3398
oring	-3399
prim	-3400
▁hot	-3401
ardi	-3402
autre	-3403
▁plant	-3404
ovember	-3405
▁taking	-3406
▁travaux	-3407
▁defin	-3408
érique	-3409
aître	-3410
▁box	-3411
bec	-3412
5,	-3413
▁network	-3414
time	-3415
▁Du	-3416
▁PR	-3417
▁multi	-3418
▁track	-3419
▁police	-3420
▁seen	-3421
▁January	-3422
▁meth	-3423
▁accept	-3424
▁maxim	-3425
nel	-3426
▁Some	-3427
▁among	-3428
▁·	-3429
gram	-3430
ibility	-3431
▁signific	-3432
▁cart	-3433
▁hope	-3434
▁Net	-3435
iger	-3436
▁autour	-3437
▁reason	-3438
▁Arch	-3439
▁europé	-3440
▁areas	-3441
▁Work	-3442
▁close	-3443
▁took	-3444
▁cat	-3445
▁crus	-3446
▁added	-3447
▁histor	-3448
▁Center	-3449
▁quant	-3450
onom	-3451
▁Top	-3452
▁energy	-3453
▁veh	-3454
▁appear	-3455
▁politique	-3456
plac	-3457
▁Dé	-3458
▁ouv	-3459
met	-3460
▁plais	-3461
▁sélection	-3462
▁October	-3463
▁Sa	-3464
auv	-3465
▁hon	-3466
▁While	-3467
▁thought	-3468
lections	-3469
▁manière	-3470
▁Mag	-3471
▁exact	-3472
ivent	-3473
river	-3474
▁International	-3475
▁friend	-3476
▁brand	-3477
▁carte	-3478
rix	-3479
▁software	-3480
▁address	-3481
ploi	-3482
▁Best	-3483
▁modern	-3484
rap	-3485
▁Op	-3486
vo	-3487
▁bill	-3488
ington	-3489
▁condition	-3490
▁plans	-3491
▁Market	-3492
▁technique	-3493
aste	-3494
▁arch	-3495
çu	-3496
▁human	-3497
▁watch	-3498
usion	-3499
▁living	-3500
▁façon	-3501
▁optim	-3502
▁garant	-3503
▁deb	-3504
antage	-3505
ald	-3506
IV	-3507
esent	-3508
▁size	-3509
undi	-3510
▁excellent	-3511
aby	-3512
▁Int	-3513
▁div	-3514
▁PC	-3515
oque	-3516
▁lov	-3517
78	-3518
agit	-3519
▁author	-3520
▁Mart	-3521
▁someone	-3522
arl	-3523
▁fit	-3524
itted	-3525
▁August	-3526
▁juste	-3527
▁mond	-3528
▁intro	-3529
▁Supp	-3530
33	-3531
PS	-3532
▁talk	-3533
▁comfort	-3534
olf	-3535
wood	-3536
▁www	-3537
▁donner	-3538
En	-3539
▁photograph	-3540
▁attention	-3541
▁history	-3542
▁patients	-3543
▁donne	-3544
▁devant	-3545
▁went	-3546
itchen	-3547
▁passe	-3548
▁percent	-3549
▁House	-3550
▁September	-3551
ynam	-3552
▁Ob	-3553
▁quart	-3554
occasion	-3555
▁2,	-3556
fully	-3557
▁Ben	-3558
agner	-3559
▁protect	-3560
▁November	-3561
▁titre	-3562
Re	-3563
▁Pal	-3564
▁Mr	-3565
▁ensure	-3566
▁maintenant	-3567
▁Lond	-3568
idents	-3569
enti	-3570
temps	-3571
▁Mich	-3572
▁fort	-3573
tat	-3574
▁Mad	-3575
▁visite	-3576
itution	-3577
▁sale	-3578
umb	-3579
EO	-3580
▁album	-3581
▁original	-3582
ifest	-3583
▁Form	-3584
ators	-3585
4,	-3586
ocol	-3587
idge	-3588
▁sac	-3589
▁contract	-3590
▁Are	-3591
▁wait	-3592
▁entreprise	-3593
▁County	-3594
▁nouveaux	-3595
▁common	-3596
▁habit	-3597
▁mari	-3598
ament	-3599
▁tell	-3600
▁corps	-3601
▁whole	-3602
ensemble	-3603
▁amb	-3604
▁chef	-3605
▁projets	-3606
▁assez	-3607
tra	-3608
▁rele	-3609
▁Cap	-3610
▁Centre	-3611
▁mesure	-3612
▁later	-3613
▁petits	-3614
▁everyone	-3615
4.	-3616
iting	-3617
▁expos	-3618
uellement	-3619
gement	-3620
▁further	-3621
▁quotid	-3622
resp	-3623
œur	-3624
▁phone	-3625
▁above	-3626
▁young	-3627
▁details	-3628
▁pied	-3629
▁feu	-3630
▁lic	-3631
▁given	-3632
▁method	-3633
▁pratique	-3634
éth	-3635
▁vu	-3636
▁jeux	-3637
▁cab	-3638
ishing	-3639
/20	-3640
roit	-3641
iennent	-3642
yant	-3643
▁éch	-3644
▁Son	-3645
étique	-3646
▁Inc	-3647
▁Ré	-3648
cember	-3649
▁UK	-3650
It	-3651
▁Prem	-3652
alu	-3653
▁ni	-3654
ologies	-3655
▁example	-3656
placement	-3657
▁Tri	-3658
airs	-3659
▁Gra	-3660
▁80	-3661
▁rob	-3662
▁designed	-3663
▁study	-3664
termin	-3665
▁gratuit	-3666
▁told	-3667
TE	-3668
▁saf	-3669
ureau	-3670
▁lanc	-3671
▁believe	-3672
▁black	-3673
▁note	-3674
iné	-3675
▁driv	-3676
aper	-3677
ided	-3678
▁ven	-3679
▁tête	-3680
▁direction	-3681
▁obs	-3682
▁bord	-3683
▁period	-3684
▁complex	-3685
29	-3686
▁potential	-3687
head	-3688
verage	-3689
▁ém	-3690
45	-3691
▁bad	-3692
isions	-3693
3.	-3694
▁acqu	-3695
▁Rés	-3696
elt	-3697
▁oil	-3698
▁Cert	-3699
▁self	-3700
erne	-3701
▁consum	-3702
▁road	-3703
▁san	-3704
▁gouvernement	-3705
▁Hol	-3706
7,	-3707
▁mission	-3708
▁claim	-3709
▁naturel	-3710
▁opportunity	-3711
▁Hotel	-3712
▁needed	-3713
▁includes	-3714
▁--	-3715
▁prin	-3716
▁Lou	-3717
▁Sch	-3718
▁choose	-3719
3,	-3720
ruary	-3721
▁3.	-3722
ira	-3723
▁Flor	-3724
▁wind	-3725
▁31	-3726
▁Mond	-3727
▁Her	-3728
▁dam	-3729
usement	-3730
▁reconn	-3731
▁issue	-3732
▁concept	-3733
comp	-3734
▁améric	-3735
▁sû	-3736
unt	-3737
▁cm	-3738
▁walk	-3739
▁Wed	-3740
▁tom	-3741
▁affect	-3742
▁deliver	-3743
dic	-3744
obile	-3745
▁especially	-3746
▁Review	-3747
▁grands	-3748
tead	-3749
▁ord	-3750
ias	-3751
▁whether	-3752
iciel	-3753
▁sales	-3754
ël	-3755
ètres	-3756
▁généra	-3757
▁deg	-3758
rup	-3759
▁CH	-3760
▁Att	-3761
quel	-3762
▁pièces	-3763
▁Rel	-3764
▁territ	-3765
aï	-3766
▁commenc	-3767
▁lit	-3768
▁Tour	-3769
ospital	-3770
▁required	-3771
▁vert	-3772
▁select	-3773
azing	-3774
iquer	-3775
▁download	-3776
▁ult	-3777
▁Paul	-3778
▁force	-3779
SE	-3780
▁vend	-3781
▁articles	-3782
year	-3783
coming	-3784
ili	-3785
▁voul	-3786
▁vot	-3787
▁coach	-3788
▁feature	-3789
▁Vis	-3790
ivement	-3791
▁financial	-3792
histoire	-3793
6,	-3794
voir	-3795
▁ban	-3796
▁soon	-3797
▁India	-3798
▁activités	-3799
▁analys	-3800
▁applications	-3801
anced	-3802
▁réun	-3803
atoire	-3804
▁raison	-3805
▁route	-3806
▁coming	-3807
▁anything	-3808
▁reading	-3809
▁pain	-3810
▁store	-3811
xte	-3812
▁fast	-3813
▁Play	-3814
▁events	-3815
▁touch	-3816
▁simply	-3817
ailleurs	-3818
CE	-3819
▁budget	-3820
▁December	-3821
▁wor	-3822
▁forward	-3823
▁vient	-3824
▁half	-3825
II	-3826
▁univers	-3827
▁bus	-3828
▁yourself	-3829
▁Austral	-3830
▁œ	-3831
▁idea	-3832
▁voiture	-3833
▁mark	-3834
▁compar	-3835
▁entire	-3836
▁customer	-3837
▁vér	-3838
▁exerc	-3839
istiques	-3840
▁différentes	-3841
75	-3842
aide	-3843
▁pil	-3844
▁smart	-3845
ambres	-3846
▁ready	-3847
▁quite	-3848
▁Dem	-3849
▁homme	-3850
▁sche	-3851
▁sein	-3852
ropri	-3853
aisse	-3854
oyer	-3855
▁China	-3856
▁secteur	-3857
▁equipment	-3858
▁nombreuses	-3859
ried	-3860
▁land	-3861
cript	-3862
▁analy	-3863
IP	-3864
▁Ét	-3865
UE	-3866
▁hol	-3867
member	-3868
▁problems	-3869
▁insurance	-3870
▁paper	-3871
▁Met	-3872
▁plaisir	-3873
▁pense	-3874
▁membres	-3875
▁prest	-3876
▁démar	-3877
▁digital	-3878
▁according	-3879
istance	-3880
▁référ	-3881
▁pages	-3882
uve	-3883
onnes	-3884
▁States	-3885
▁pourrait	-3886
▁Ve	-3887
▁save	-3888
▁drive	-3889
▁amount	-3890
bon	-3891
iant	-3892
ena	-3893
rés	-3894
▁gros	-3895
yer	-3896
▁AN	-3897
▁LA	-3898
ervation	-3899
▁Cam	-3900
oke	-3901
▁quoi	-3902
▁February	-3903
▁model	-3904
▁latest	-3905
▁confort	-3906
▁serait	-3907
onst	-3908
▁trying	-3909
erez	-3910
▁security	-3911
▁dog	-3912
▁ing	-3913
▁liste	-3914
▁correct	-3915
used	-3916
▁Dan	-3917
7.	-3918
▁Conse	-3919
IG	-3920
▁guide	-3921
▁relationship	-3922
▁meas	-3923
▁règ	-3924
▁systems	-3925
▁sum	-3926
▁dir	-3927
▁problème	-3928
▁réseau	-3929
IE	-3930
▁bra	-3931
▁soul	-3932
▁musique	-3933
▁rédu	-3934
forme	-3935
▁file	-3936
▁users	-3937
▁altern	-3938
▁Str	-3939
partement	-3940
▁Afric	-3941
illa	-3942
▁Micro	-3943
▁doll	-3944
igation	-3945
▁création	-3946
▁provided	-3947
▁located	-3948
▁Blog	-3949
▁graph	-3950
heure	-3951
ueill	-3952
▁places	-3953
amm	-3954
▁cele	-3955
itting	-3956
▁Alors	-3957
dess	-3958
▁Friday	-3959
▁euros	-3960
roll	-3961
▁défin	-3962
▁aider	-3963
▁frais	-3964
▁caract	-3965
▁fire	-3966
▁likely	-3967
▁créer	-3968
▁Sl	-3969
▁David	-3970
▁standard	-3971
▁Bra	-3972
arter	-3973
azon	-3974
▁Group	-3975
▁09	-3976
▁Merci	-3977
ué	-3978
▁currently	-3979
▁Ju	-3980
ida	-3981
▁vacances	-3982
▁eux	-3983
▁throughout	-3984
tty	-3985
▁Vol	-3986
▁ful	-3987
▁ways	-3988
▁print	-3989
OP	-3990
though	-3991
▁encour	-3992
▁industri	-3993
ualité	-3994
▁former	-3995
▁Rep	-3996
▁général	-3997
6.	-3998
▁restaurant	-3999
elves	-4000
▁knowledge	-4001
▁natural	-4002
idi	-4003
▁passé	-4004
▁scient	-4005
ened	-4006
▁ministre	-4007
▁Ev	-4008
isée	-4009
imin	-4010
▁taken	-4011
▁professionnels	-4012
▁confirm	-4013
▁function	-4014
▁War	-4015
▁plein	-4016
▁clear	-4017
▁kids	-4018
▁sup	-4019
AU	-4020
▁First	-4021
ining	-4022
▁writing	-4023
▁Jap	-4024
▁President	-4025
▁role	-4026
▁girl	-4027
▁enter	-4028
▁Online	-4029
▁almost	-4030
▁parce	-4031
OC	-4032
▁wonder	-4033
▁increase	-4034
▁Bien	-4035
▁taille	-4036
éhic	-4037
▁previous	-4038
▁présente	-4039
▁weeks	-4040
aker	-4041
ordin	-4042
glish	-4043
né	-4044
▁mor	-4045
▁dég	-4046
charge	-4047
inet	-4048
hés	-4049
▁Cle	-4050
▁credit	-4051
orge	-4052
▁198	-4053
urr	-4054
adem	-4055
▁heure	-4056
oux	-4057
▁Program	-4058
tez	-4059
▁Down	-4060
nerg	-4061
▁block	-4062
▁Get	-4063
▁global	-4064
▁age	-4065
▁Mem	-4066
▁08	-4067
▁Comme	-4068
▁happy	-4069
respond	-4070
.)	-4071
▁necess	-4072
▁besoins	-4073
▁ir	-4074
iler	-4075
auté	-4076
▁Depuis	-4077
▁oblig	-4078
▁Gener	-4079
▁white	-4080
arth	-4081
▁progress	-4082
ender	-4083
▁autor	-4084
▁either	-4085
éré	-4086
merg	-4087
▁70	-4088
utilisation	-4089
▁mention	-4090
▁pourra	-4091
▁civ	-4092
▁inj	-4093
▁however	-4094
▁tél	-4095
▁termin	-4096
▁third	-4097
▁)	-4098
▁août	-4099
oes	-4100
lique	-4101
▁platform	-4102
opping	-4103
▁jardin	-4104
▁recent	-4105
▁redu	-4106
▁chambre	-4107
▁IS	-4108
▁ST	-4109
▁auprès	-4110
oie	-4111
term	-4112
▁Lors	-4113
▁skills	-4114
▁elles	-4115
ruit	-4116
▁psych	-4117
rog	-4118
▁90	-4119
▁quatre	-4120
▁idé	-4121
ico	-4122
▁bott	-4123
ype	-4124
erver	-4125
▁private	-4126
▁official	-4127
35	-4128
▁approach	-4129
▁education	-4130
Ad	-4131
raî	-4132
▁Club	-4133
OUR	-4134
▁intéress	-4135
▁rate	-4136
zy	-4137
▁chac	-4138
▁disponible	-4139
▁â	-4140
▁inside	-4141
▁Page	-4142
▁Roy	-4143
▁significant	-4144
65	-4145
endent	-4146
▁Fam	-4147
▁items	-4148
▁created	-4149
▁College	-4150
▁running	-4151
▁intég	-4152
utôt	-4153
mas	-4154
▁surface	-4155
▁consomm	-4156
▁vendredi	-4157
yr	-4158
oche	-4159
▁bénéfic	-4160
▁sle	-4161
▁fant	-4162
▁blanc	-4163
▁utiliser	-4164
hib	-4165
▁résultats	-4166
ounc	-4167
▁regular	-4168
▁gratuite	-4169
▁appli	-4170
▁propre	-4171
▁Twitter	-4172
orie	-4173
▁aw	-4174
▁fich	-4175
▁500	-4176
▁imag	-4177
AF	-4178
▁isn	-4179
▁sell	-4180
▁Every	-4181
ttes	-4182
umes	-4183
▁exclus	-4184
▁véhic	-4185
▁changes	-4186
aving	-4187
hu	-4188
▁35	-4189
▁Over	-4190
▁reach	-4191
▁sujet	-4192
▁exception	-4193
▁players	-4194
isl	-4195
▁population	-4196
ml	-4197
▁personnel	-4198
▁Mat	-4199
▁impl	-4200
▁rapidement	-4201
where	-4202
▁stress	-4203
▁Cela	-4204
▁receive	-4205
▁arm	-4206
ality	-4207
▁growth	-4208
▁Rem	-4209
izing	-4210
ouverture	-4211
▁recently	-4212
DF	-4213
istique	-4214
▁represent	-4215
▁nég	-4216
▁Cre	-4217
ogue	-4218
▁command	-4219
credi	-4220
enance	-4221
▁aura	-4222
▁probably	-4223
oid	-4224
▁rout	-4225
▁chambres	-4226
▁Ter	-4227
▁prend	-4228
▁dimanche	-4229
▁nuit	-4230
▁veut	-4231
▁samedi	-4232
▁loi	-4233
BC	-4234
-201	-4235
▁learning	-4236
▁nice	-4237
▁noir	-4238
**	-4239
▁thé	-4240
▁deuxième	-4241
ees	-4242
▁atte	-4243
▁domaine	-4244
▁adm	-4245
érieure	-4246
▁couleur	-4247
▁System	-4248
▁correspond	-4249
TS	-4250
Unis	-4251
ined	-4252
▁Fil	-4253
orning	-4254
soft	-4255
▁matin	-4256
▁meeting	-4257
▁Gold	-4258
▁quelque	-4259
gré	-4260
▁English	-4261
regist	-4262
▁ensuite	-4263
▁village	-4264
▁ouvert	-4265
za	-4266
▁lundi	-4267
▁shows	-4268
▁activities	-4269
▁usually	-4270
▁rendre	-4271
▁Ma	-4272
▁Cas	-4273
ologique	-4274
issant	-4275
▁safe	-4276
lant	-4277
▁Tur	-4278
▁tar	-4279
▁risk	-4280
charger	-4281
▁click	-4282
▁floor	-4283
▁LE	-4284
amed	-4285
▁medical	-4286
▁additional	-4287
▁Great	-4288
▁instru	-4289
▁période	-4290
▁refer	-4291
▁absol	-4292
itte	-4293
▁initi	-4294
▁variety	-4295
▁treatment	-4296
▁Sub	-4297
▁prise	-4298
▁agree	-4299
oub	-4300
▁annonc	-4301
▁seem	-4302
▁takes	-4303
▁Super	-4304
▁projects	-4305
▁modèle	-4306
su	-4307
▁cool	-4308
▁Franc	-4309
▁structure	-4310
▁held	-4311
▁impos	-4312
▁song	-4313
▁region	-4314
▁matière	-4315
key	-4316
board	-4317
▁loss	-4318
cel	-4319
▁£	-4320
▁estim	-4321
▁Ly	-4322
▁Apple	-4323
▁worth	-4324
install	-4325
weet	-4326
▁cherche	-4327
▁matter	-4328
▁actions	-4329
▁summer	-4330
▁wide	-4331
▁establ	-4332
ael	-4333
▁stop	-4334
▁Class	-4335
hait	-4336
▁Brit	-4337
▁Aff	-4338
▁typ	-4339
agram	-4340
▁Contact	-4341
▁choses	-4342
▁rue	-4343
mail	-4344
▁member	-4345
▁His	-4346
▁America	-4347
ancement	-4348
net	-4349
▁solid	-4350
▁CD	-4351
▁Lire	-4352
▁Pas	-4353
érence	-4354
UN	-4355
based	-4356
ublic	-4357
▁else	-4358
VID	-4359
▁skin	-4360
▁recommend	-4361
ka	-4362
même	-4363
▁cœur	-4364
▁fans	-4365
▁expérience	-4366
▁outside	-4367
ounts	-4368
▁screen	-4369
▁lorsque	-4370
▁=	-4371
▁serve	-4372
▁pourquoi	-4373
obilier	-4374
ford	-4375
▁cru	-4376
▁jud	-4377
oure	-4378
orial	-4379
▁wall	-4380
▁gamme	-4381
▁micro	-4382
▁pretty	-4383
enge	-4384
▁wanted	-4385
▁anti	-4386
▁aller	-4387
▁Wash	-4388
▁similar	-4389
▁Satur	-4390
IF	-4391
▁u	-4392
istic	-4393
▁easily	-4394
alisation	-4395
nelle	-4396
▁party	-4397
▁desc	-4398
▁rock	-4399
▁received	-4400
▁gre	-4401
▁agré	-4402
▁board	-4403
▁batter	-4404
▁higher	-4405
▁behind	-4406
▁RE	-4407
▁Sy	-4408
box	-4409
▁cult	-4410
▁hommes	-4411
▁plutôt	-4412
▁stratég	-4413
acle	-4414
▁longue	-4415
ini	-4416
leg	-4417
▁virt	-4418
▁départ	-4419
aît	-4420
ecut	-4421
▁pal	-4422
▁choisir	-4423
▁Good	-4424
▁About	-4425
▁pm	-4426
▁lien	-4427
cell	-4428
▁tent	-4429
usse	-4430
▁Public	-4431
venu	-4432
▁looks	-4433
▁Street	-4434
dom	-4435
▁loin	-4436
expl	-4437
▁Tous	-4438
▁régul	-4439
95	-4440
rance	-4441
igine	-4442
enf	-4443
9.	-4444
▁Develop	-4445
▁vent	-4446
▁souhait	-4447
ennes	-4448
▁bath	-4449
▁ayant	-4450
▁100%	-4451
▁aucun	-4452
▁Thanks	-4453
ga	-4454
▁Gar	-4455
▁purchase	-4456
roy	-4457
gra	-4458
▁obt	-4459
▁zone	-4460
▁adult	-4461
ellig	-4462
sur	-4463
▁Tod	-4464
▁sun	-4465
ums	-4466
▁4.	-4467
▁step	-4468
▁dynam	-4469
▁augment	-4470
ooth	-4471
ormais	-4472
▁paint	-4473
akes	-4474
▁stream	-4475
▁station	-4476
té	-4477
▁prep	-4478
▁amazing	-4479
tant	-4480
pring	-4481
ulations	-4482
gent	-4483
▁emp	-4484
iforn	-4485
idential	-4486
▁subject	-4487
ancy	-4488
umin	-4489
▁goal	-4490
▁influ	-4491
▁Let	-4492
▁traitement	-4493
▁Mot	-4494
▁Sen	-4495
▁larg	-4496
▁précéd	-4497
▁sn	-4498
▁town	-4499
rom	-4500
▁choice	-4501
▁Ant	-4502
▁bât	-4503
▁Soci	-4504
▁gens	-4505
??	-4506
eds	-4507
iple	-4508
▁terrain	-4509
▁ensemble	-4510
▁nécessaire	-4511
▁établ	-4512
▁fine	-4513
▁related	-4514
inf	-4515
▁milit	-4516
▁leading	-4517
▁earn	-4518
▁contra	-4519
▁sports	-4520
▁distance	-4521
ya	-4522
gin	-4523
▁classe	-4524
44	-4525
▁inte	-4526
▁Most	-4527
uage	-4528
▁stage	-4529
rick	-4530
▁leave	-4531
▁étaient	-4532
▁Alex	-4533
▁anyone	-4534
RA	-4535
▁séjour	-4536
▁Camp	-4537
▁quotidien	-4538
▁spir	-4539
▁surve	-4540
▁moyen	-4541
▁aspect	-4542
▁King	-4543
azine	-4544
▁providing	-4545
▁recogn	-4546
▁parts	-4547
actions	-4548
▁Conc	-4549
▁chauff	-4550
▁professionnel	-4551
▁Rad	-4552
▁section	-4553
▁general	-4554
▁Entre	-4555
▁semble	-4556
ht	-4557
ashion	-4558
▁subst	-4559
CT	-4560
▁wood	-4561
▁couleurs	-4562
▁française	-4563
▁built	-4564
▁suggest	-4565
▁positive	-4566
Wh	-4567
ij	-4568
▁procéd	-4569
▁London	-4570
▁journal	-4571
ny	-4572
ola	-4573
▁term	-4574
▁Hel	-4575
8.	-4576
▁Saturday	-4577
▁occasion	-4578
▁safety	-4579
▁wel	-4580
.”	-4581
onie	-4582
▁Dec	-4583
La	-4584
▁Prés	-4585
▁career	-4586
▁challeng	-4587
▁tard	-4588
▁parfa	-4589
▁dér	-4590
▁Rest	-4591
ailler	-4592
▁découver	-4593
OD	-4594
gar	-4595
▁Dist	-4596
▁améli	-4597
unk	-4598
▁lux	-4599
▁sound	-4600
▁Green	-4601
▁doivent	-4602
hood	-4603
▁center	-4604
▁Law	-4605
▁indic	-4606
▁jeudi	-4607
▁adj	-4608
▁playing	-4609
▁trading	-4610
▁Bas	-4611
▁lire	-4612
▁accord	-4613
anding	-4614
▁Jack	-4615
▁méth	-4616
▁user	-4617
▁ci	-4618
light	-4619
▁commune	-4620
▁mél	-4621
▁electric	-4622
▁Find	-4623
▁sole	-4624
▁asked	-4625
▁Well	-4626
house	-4627
put	-4628
ivity	-4629
▁proxim	-4630
▁sortie	-4631
▁devrait	-4632
▁practice	-4633
▁Nov	-4634
▁rich	-4635
Phone	-4636
▁compagn	-4637
▁aliment	-4638
ède	-4639
ners	-4640
▁sud	-4641
pper	-4642
alités	-4643
▁character	-4644
▁Journ	-4645
atory	-4646
change	-4647
▁Nos	-4648
▁Cet	-4649
▁conduct	-4650
▁parties	-4651
▁AP	-4652
▁cot	-4653
▁tick	-4654
▁quickly	-4655
▁decision	-4656
▁Selon	-4657
▁réaliser	-4658
▁Bou	-4659
▁Exp	-4660
▁late	-4661
▁45	-4662
▁hair	-4663
raft	-4664
▁Sing	-4665
rag	-4666
▁3,	-4667
▁dress	-4668
étaire	-4669
▁documents	-4670
▁Champ	-4671
▁Also	-4672
▁bank	-4673
plement	-4674
▁policy	-4675
▁Maison	-4676
IA	-4677
asseur	-4678
▁answer	-4679
▁PS	-4680
▁vont	-4681
▁Cong	-4682
▁targ	-4683
▁prépar	-4684
▁computer	-4685
▁hit	-4686
▁Monday	-4687
▁fresh	-4688
▁books	-4689
▁true	-4690
▁inspir	-4691
iling	-4692
▁Bay	-4693
▁Français	-4694
Mar	-4695
▁stra	-4696
▁films	-4697
9,	-4698
hum	-4699
▁Product	-4700
▁Rép	-4701
prit	-4702
▁format	-4703
teur	-4704
rel	-4705
▁susp	-4706
▁longer	-4707
iversité	-4708
SS	-4709
▁gold	-4710
▁capital	-4711
ouncil	-4712
▁Lo	-4713
auche	-4714
▁Gal	-4715
▁(3	-4716
▁convers	-4717
omet	-4718
iments	-4719
▁benefits	-4720
▁prices	-4721
▁Mor	-4722
▁dos	-4723
irth	-4724
▁valeur	-4725
▁cookies	-4726
rab	-4727
▁terme	-4728
▁favorite	-4729
▁contem	-4730
▁EN	-4731
▁Power	-4732
▁meilleurs	-4733
▁vision	-4734
▁release	-4735
lick	-4736
:30	-4737
▁risque	-4738
▁département	-4739
▁sold	-4740
▁appare	-4741
ached	-4742
▁coff	-4743
▁programs	-4744
▁Ou	-4745
▁seek	-4746
▁Const	-4747
▁ideas	-4748
Or	-4749
▁included	-4750
▁Department	-4751
▁ferm	-4752
▁simplement	-4753
▁<	-4754
▁rê	-4755
oign	-4756
▁voit	-4757
▁allows	-4758
▁ET	-4759
▁Cur	-4760
▁hotel	-4761
▁surv	-4762
▁Long	-4763
▁Votre	-4764
▁passion	-4765
iddle	-4766
▁mardi	-4767
▁rej	-4768
▁condu	-4769
ground	-4770
▁death	-4771
▁parfois	-4772
dy	-4773
▁peau	-4774
▁Sil	-4775
▁ordin	-4776
▁kitchen	-4777
lets	-4778
▁certaines	-4779
▁apply	-4780
▁interview	-4781
▁UN	-4782
issez	-4783
▁écrit	-4784
avy	-4785
rupt	-4786
▁Dou	-4787
irer	-4788
▁maximum	-4789
▁bag	-4790
''	-4791
anges	-4792
hold	-4793
▁Non	-4794
▁rom	-4795
▁nationale	-4796
ensions	-4797
▁experts	-4798
UT	-4799
▁Sunday	-4800
yth	-4801
orage	-4802
▁maî	-4803
▁View	-4804
▁patient	-4805
ATION	-4806
▁retrouver	-4807
ocial	-4808
▁lives	-4809
▁tools	-4810
pm	-4811
▁Hall	-4812
▁sûr	-4813
/10	-4814
oise	-4815
▁Dom	-4816
▁Plan	-4817
▁rather	-4818
▁pourrez	-4819
▁weekend	-4820
fois	-4821
▁Découv	-4822
100	-4823
▁neg	-4824
▁Gard	-4825
▁ability	-4826
▁planning	-4827
▁directement	-4828
▁esc	-4829
▁auto	-4830
▁Mil	-4831
▁Laur	-4832
▁ones	-4833
aves	-4834
▁clin	-4835
▁feed	-4836
uels	-4837
▁temp	-4838
lication	-4839
▁Sud	-4840
▁batt	-4841
▁06	-4842
enses	-4843
▁Add	-4844
ousse	-4845
▁seems	-4846
issions	-4847
quet	-4848
-4	-4849
8,	-4850
▁Tex	-4851
▁White	-4852
▁Elect	-4853
▁essential	-4854
ios	-4855
▁highly	-4856
▁Mark	-4857
▁droits	-4858
▁réponse	-4859
èves	-4860
oups	-4861
▁march	-4862
article	-4863
ging	-4864
-5	-4865
▁vacc	-4866
▁words	-4867
▁Quel	-4868
▁prefer	-4869
rement	-4870
lor	-4871
▁lab	-4872
▁nothing	-4873
▁Research	-4874
isez	-4875
▁oppos	-4876
▁désormais	-4877
▁fille	-4878
ki	-4879
▁Whe	-4880
▁taux	-4881
ablement	-4882
uth	-4883
CC	-4884
▁01	-4885
isson	-4886
▁enfant	-4887
As	-4888
itor	-4889
▁conseils	-4890
▁Germ	-4891
▁rendez	-4892
▁histoire	-4893
▁Management	-4894
▁cél	-4895
▁conte	-4896
▁mouve	-4897
▁Californ	-4898
▁permettre	-4899
▁disponibles	-4900
▁band	-4901
▁discover	-4902
▁Ber	-4903
▁der	-4904
▁Sign	-4905
▁semaines	-4906
▁grandes	-4907
itely	-4908
▁materials	-4909
▁reb	-4910
uration	-4911
▁morning	-4912
▁cases	-4913
▁vivre	-4914
▁mun	-4915
▁deep	-4916
AB	-4917
▁Any	-4918
▁Mach	-4919
▁étant	-4920
▁étudi	-4921
▁vehicle	-4922
▁succès	-4923
enseigne	-4924
ieur	-4925
merc	-4926
▁Cré	-4927
▁campaign	-4928
istant	-4929
▁helps	-4930
hern	-4931
▁leader	-4932
▁hyd	-4933
asons	-4934
▁Rock	-4935
▁souhaitez	-4936
▁particulier	-4937
▁Spec	-4938
▁flow	-4939
yp	-4940
ffic	-4941
▁Life	-4942
▁Miche	-4943
▁meilleure	-4944
▁consid	-4945
▁worked	-4946
▁mercredi	-4947
▁costs	-4948
▁salon	-4949
▁gas	-4950
▁réuss	-4951
illeurs	-4952
cing	-4953
▁East	-4954
▁rôle	-4955
▁display	-4956
iti	-4957
▁Rich	-4958
▁extre	-4959
asser	-4960
▁chale	-4961
▁ta	-4962
▁nut	-4963
apter	-4964
▁remember	-4965
edia	-4966
▁Contin	-4967
▁sociaux	-4968
▁transform	-4969
▁student	-4970
▁chocol	-4971
▁destin	-4972
»,	-4973
ifié	-4974
itif	-4975
▁fol	-4976
▁weight	-4977
▁Mo	-4978
▁average	-4979
▁concent	-4980
▁effective	-4981
▁Tues	-4982
▁Big	-4983
abord	-4984
▁Id	-4985
▁relation	-4986
èles	-4987
▁Conseil	-4988
▁Many	-4989
▁Prix	-4990
▁Russ	-4991
lements	-4992
▁caf	-4993
elier	-4994
▁relig	-4995
▁Office	-4996
▁cry	-4997
▁ble	-4998
▁Amazon	-4999
▁cannot	-5000
▁répondre	-5001
▁Why	-5002
ôtels	-5003
ursday	-5004
▁announced	-5005
▁�	-5006
▁chem	-5007
▁experien	-5008
▁mas	-5009
▁disposition	-5010
▁Washington	-5011
!!!	-5012
quare	-5013
▁amis	-5014
ault	-5015
▁jouer	-5016
▁mi	-5017
intér	-5018
88	-5019
urez	-5020
bit	-5021
▁Voici	-5022
rons	-5023
▁Then	-5024
▁remov	-5025
erse	-5026
▁businesses	-5027
field	-5028
▁énerg	-5029
▁fat	-5030
▁terre	-5031
nements	-5032
Eur	-5033
▁sett	-5034
▁vrai	-5035
▁catég	-5036
isode	-5037
▁assur	-5038
▁pièce	-5039
▁expected	-5040
▁durant	-5041
▁07	-5042
▁Thom	-5043
▁proximité	-5044
▁IT	-5045
▁active	-5046
▁profiter	-5047
den	-5048
▁illust	-5049
▁Env	-5050
▁parmi	-5051
alie	-5052
pped	-5053
éments	-5054
▁lower	-5055
66	-5056
▁picture	-5057
▁tiss	-5058
▁introdu	-5059
eler	-5060
▁Prov	-5061
origine	-5062
▁cond	-5063
▁Company	-5064
information	-5065
▁bureau	-5066
▁normal	-5067
▁facil	-5068
▁surpr	-5069
▁évé	-5070
▁request	-5071
▁released	-5072
AY	-5073
▁Microsoft	-5074
berg	-5075
enez	-5076
▁wish	-5077
▁possib	-5078
my	-5079
ano	-5080
▁confiance	-5081
▁vite	-5082
▁Real	-5083
ederal	-5084
ounter	-5085
▁Trump	-5086
▁countries	-5087
band	-5088
cont	-5089
▁parking	-5090
iring	-5091
▁daily	-5092
▁situé	-5093
édi	-5094
▁jol	-5095
▁gives	-5096
▁crusher	-5097
▁efficace	-5098
ued	-5099
▁malad	-5100
▁genre	-5101
▁dernières	-5102
▁difficile	-5103
▁AL	-5104
▁gé	-5105
ergie	-5106
▁tim	-5107
▁proper	-5108
▁Nord	-5109
teurs	-5110
▁firm	-5111
▁green	-5112
▁efforts	-5113
osph	-5114
▁fight	-5115
▁minimum	-5116
▁stri	-5117
▁celebr	-5118
hi	-5119
▁cash	-5120
▁terms	-5121
▁joueurs	-5122
issements	-5123
▁permis	-5124
▁lecture	-5125
▁guid	-5126
▁Tuesday	-5127
orme	-5128
▁calcul	-5129
▁existe	-5130
▁interested	-5131
▁COVID	-5132
▁goes	-5133
▁Thank	-5134
cles	-5135
▁autant	-5136
ky	-5137
▁Care	-5138
▁Site	-5139
▁drug	-5140
▁stre	-5141
▁sen	-5142
enty	-5143
quelle	-5144
▁Thursday	-5145
ds	-5146
mment	-5147
▁réf	-5148
indre	-5149
illing	-5150
▁économique	-5151
▁Vi	-5152
tien	-5153
2)	-5154
▁300	-5155
▁multiple	-5156
▁lut	-5157
▁huge	-5158
▁©	-5159
▁Ham	-5160
endra	-5161
▁chacun	-5162
▁ep	-5163
▁legal	-5164
▁involved	-5165
isés	-5166
aries	-5167
▁Indian	-5168
▁reported	-5169
étés	-5170
mage	-5171
▁appropri	-5172
▁football	-5173
▁trip	-5174
uls	-5175
issent	-5176
▁door	-5177
▁ground	-5178
▁presse	-5179
wide	-5180
▁appe	-5181
▁parler	-5182
▁schedu	-5183
ébec	-5184
▁Lim	-5185
▁Photo	-5186
ifications	-5187
▁Log	-5188
agers	-5189
▁Last	-5190
▁prochain	-5191
onomie	-5192
▁donné	-5193
▁scène	-5194
OW	-5195
▁mm	-5196
▁levels	-5197
▁Commission	-5198
▁organization	-5199
▁trust	-5200
▁profit	-5201
▁Tem	-5202
après	-5203
▁nation	-5204
▁Ro	-5205
▁Nic	-5206
▁attack	-5207
▁milieu	-5208
▁suivre	-5209
77	-5210
▁mote	-5211
▁concernant	-5212
▁hands	-5213
▁Make	-5214
▁pool	-5215
▁parti	-5216
anne	-5217
cole	-5218
▁cade	-5219
▁round	-5220
ological	-5221
▁aurait	-5222
▁Hot	-5223
▁rare	-5224
▁Christmas	-5225
▁subm	-5226
▁Community	-5227
▁dollars	-5228
rary	-5229
▁Association	-5230
éma	-5231
down	-5232
▁supply	-5233
anim	-5234
iaire	-5235
entiel	-5236
ovid	-5237
obs	-5238
▁depart	-5239
▁perman	-5240
activité	-5241
▁Christian	-5242
onnect	-5243
▁drink	-5244
este	-5245
érif	-5246
▁magas	-5247
▁posted	-5248
▁conseil	-5249
▁polic	-5250
achat	-5251
▁lost	-5252
Ne	-5253
▁Num	-5254
arante	-5255
▁Today	-5256
▁star	-5257
▁médec	-5258
▁Québec	-5259
MP	-5260
▁élev	-5261
▁Posté	-5262
▁laquelle	-5263
__	-5264
inement	-5265
position	-5266
▁Dig	-5267
▁path	-5268
▁write	-5269
aime	-5270
▁Jac	-5271
▁fully	-5272
▁souff	-5273
▁necessary	-5274
▁Equ	-5275
illon	-5276
▁piece	-5277
hol	-5278
▁instead	-5279
ouch	-5280
irs	-5281
▁Team	-5282
▁agric	-5283
imate	-5284
▁facilement	-5285
ago	-5286
▁dise	-5287
porate	-5288
▁Android	-5289
itute	-5290
Les	-5291
▁mur	-5292
▁Pierre	-5293
▁téléphone	-5294
▁SP	-5295
coin	-5296
ters	-5297
nesday	-5298
ani	-5299
anda	-5300
▁archite	-5301
▁requirements	-5302
▁THE	-5303
Sh	-5304
▁possibilité	-5305
iennes	-5306
▁Cro	-5307
ario	-5308
▁serious	-5309
▁Star	-5310
▁Ol	-5311
aser	-5312
▁obtenir	-5313
ignes	-5314
▁Road	-5315
▁reli	-5316
iscine	-5317
▁peint	-5318
rif	-5319
▁James	-5320
▁transm	-5321
▁occup	-5322
▁chat	-5323
isant	-5324
urt	-5325
asy	-5326
▁subs	-5327
▁Found	-5328
▁chiff	-5329
quête	-5330
▁Télé	-5331
▁Check	-5332
argent	-5333
▁relax	-5334
yes	-5335
▁05	-5336
▁Bi	-5337
▁pros	-5338
endu	-5339
▁saw	-5340
▁préfér	-5341
▁soutien	-5342
cr	-5343
rale	-5344
▁rouge	-5345
▁volont	-5346
▁implement	-5347
ançois	-5348
▁aide	-5349
▁technologies	-5350
▁sources	-5351
▁upon	-5352
▁commande	-5353
▁suivi	-5354
▁Article	-5355
▁dispose	-5356
▁healthy	-5357
▁problèmes	-5358
new	-5359
bert	-5360
▁successful	-5361
tect	-5362
issance	-5363
▁Water	-5364
▁express	-5365
▁Even	-5366
onner	-5367
▁Music	-5368
▁Beach	-5369
▁William	-5370
▁durée	-5371
▁employees	-5372
▁individuals	-5373
ellow	-5374
formations	-5375
▁dating	-5376
▁immedi	-5377
Pro	-5378
▁Bour	-5379
▁Philipp	-5380
pens	-5381
uille	-5382
▁ment	-5383
TC	-5384
uil	-5385
▁rub	-5386
mon	-5387
▁Gen	-5388
▁boy	-5389
▁Découvrez	-5390
▁commentaire	-5391
▁Bal	-5392
▁bul	-5393
▁achieve	-5394
▁starting	-5395
▁derniers	-5396
▁machines	-5397
▁liqu	-5398
▁roll	-5399
▁Court	-5400
▁bless	-5401
ipping	-5402
▁Sports	-5403
oule	-5404
▁mett	-5405
▁4,	-5406
▁USA	-5407
▁Lab	-5408
▁Cy	-5409
round	-5410
▁peux	-5411
▁gradu	-5412
...]	-5413
ker	-5414
▁Max	-5415
▁player	-5416
▁Food	-5417
▁word	-5418
▁venir	-5419
▁bedroom	-5420
▁accueill	-5421
SP	-5422
▁hors	-5423
▁chemin	-5424
▁Fab	-5425
▁Wednesday	-5426
Am	-5427
▁auth	-5428
BA	-5429
ôte	-5430
otes	-5431
▁strength	-5432
▁opportunities	-5433
uy	-5434
▁poste	-5435
intérieur	-5436
crit	-5437
ibre	-5438
▁Year	-5439
▁capit	-5440
veux	-5441
▁Learn	-5442
▁Quand	-5443
▁definitely	-5444
▁recommand	-5445
▁nett	-5446
▁compris	-5447
aler	-5448
crire	-5449
▁flex	-5450
▁send	-5451
avais	-5452
▁speed	-5453
▁science	-5454
▁AR	-5455
ifiques	-5456
▁comments	-5457
▁fan	-5458
▁decided	-5459
quent	-5460
uelles	-5461
selves	-5462
▁Open	-5463
▁Sand	-5464
▁Other	-5465
▁travaill	-5466
▁California	-5467
▁petites	-5468
iding	-5469
▁Sum	-5470
▁reve	-5471
▁begin	-5472
▁publi	-5473
▁wed	-5474
bourg	-5475
▁II	-5476
▁Pay	-5477
▁Michael	-5478
▁Louis	-5479
▁Look	-5480
▁offering	-5481
âteau	-5482
▁maintenance	-5483
raison	-5484
▁cross	-5485
▁arrive	-5486
ideo	-5487
▁contrôle	-5488
▁Fore	-5489
▁Mass	-5490
▁speak	-5491
oma	-5492
▁consist	-5493
Je	-5494
▁Martin	-5495
▁restaurants	-5496
▁resources	-5497
oper	-5498
▁lots	-5499
▁rempl	-5500
osing	-5501
▁giving	-5502
wing	-5503
▁cinq	-5504
lé	-5505
▁baby	-5506
▁analysis	-5507
apes	-5508
otte	-5509
▁enfin	-5510
vin	-5511
▁Back	-5512
▁Indust	-5513
▁According	-5514
▁travailler	-5515
▁chant	-5516
▁movie	-5517
NE	-5518
▁finish	-5519
▁rencontres	-5520
▁04	-5521
▁ap	-5522
▁premiers	-5523
▁Week	-5524
▁numéro	-5525
▁General	-5526
▁prevent	-5527
EST	-5528
▁mail	-5529
▁reviews	-5530
▁édition	-5531
36	-5532
▁proche	-5533
ado	-5534
rate	-5535
▁completely	-5536
tempt	-5537
ilà	-5538
amin	-5539
chan	-5540
uly	-5541
izes	-5542
homme	-5543
▁published	-5544
ariat	-5545
▁Project	-5546
▁collaboration	-5547
▁forum	-5548
emploi	-5549
▁utilisé	-5550
abil	-5551
▁2000	-5552
▁contenu	-5553
▁véritable	-5554
▁contempor	-5555
uler	-5556
▁Det	-5557
▁tool	-5558
▁adopt	-5559
▁réseaux	-5560
▁ang	-5561
iation	-5562
▁device	-5563
▁Hum	-5564
▁installation	-5565
riend	-5566
ossier	-5567
ronique	-5568
34	-5569
comes	-5570
▁présence	-5571
▁NE	-5572
mark	-5573
▁mine	-5574
▁Bill	-5575
▁motiv	-5576
▁Fre	-5577
accès	-5578
▁Bank	-5579
▁See	-5580
▁bin	-5581
▁Wood	-5582
▁categ	-5583
▁relev	-5584
▁déclaré	-5585
école	-5586
▁iPhone	-5587
▁attract	-5588
▁Ver	-5589
▁Voir	-5590
▁né	-5591
▁gets	-5592
▁Oh	-5593
▁pictures	-5594
▁themselves	-5595
▁sense	-5596
▁Spe	-5597
▁dipl	-5598
▁constru	-5599
▁Tom	-5600
▁scol	-5601
▁responsable	-5602
lam	-5603
icile	-5604
▁aucune	-5605
verse	-5606
▁award	-5607
ca	-5608
▁hous	-5609
▁People	-5610
▁Saf	-5611
▁Since	-5612
▁mobil	-5613
▁Engine	-5614
ège	-5615
▁developed	-5616
▁warm	-5617
▁mid	-5618
▁ailleurs	-5619
MS	-5620
more	-5621
▁Once	-5622
▁laisser	-5623
▁Love	-5624
▁poll	-5625
▁Education	-5626
▁permettant	-5627
▁dry	-5628
▁fair	-5629
▁neigh	-5630
▁cancer	-5631
▁target	-5632
gy	-5633
▁renfor	-5634
atifs	-5635
▁pose	-5636
▁towards	-5637
▁connaiss	-5638
▁mots	-5639
▁carry	-5640
na	-5641
▁led	-5642
▁décidé	-5643
aude	-5644
well	-5645
▁Tags	-5646
▁minute	-5647
▁Lead	-5648
▁Bonjour	-5649
êmes	-5650
▁diagn	-5651
▁toile	-5652
▁creating	-5653
▁hop	-5654
▁glob	-5655
▁réserv	-5656
▁5.	-5657
▁supplément	-5658
▁Tor	-5659
▁vais	-5660
▁Ainsi	-5661
Cl	-5662
▁Den	-5663
▁Texas	-5664
▁contrat	-5665
▁participants	-5666
▁Inf	-5667
▁prêt	-5668
▁teams	-5669
▁processus	-5670
▁traditional	-5671
êts	-5672
▁gro	-5673
asses	-5674
▁volume	-5675
76	-5676
▁families	-5677
aled	-5678
▁Blue	-5679
▁Forum	-5680
▁éléments	-5681
▁comprendre	-5682
55	-5683
onds	-5684
▁mo	-5685
▁radio	-5686
érature	-5687
▁campagne	-5688
reci	-5689
▁directly	-5690
▁eye	-5691
▁outils	-5692
▁thinking	-5693
▁Leg	-5694
▁shop	-5695
▁mini	-5696
aume	-5697
▁mount	-5698
▁siècle	-5699
cipl	-5700
aling	-5701
▁protég	-5702
▁talent	-5703
▁HD	-5704
door	-5705
▁written	-5706
▁décision	-5707
▁myself	-5708
▁concert	-5709
cement	-5710
▁merci	-5711
▁investment	-5712
rows	-5713
▁dat	-5714
ualités	-5715
astique	-5716
▁vou	-5717
arlier	-5718
▁Download	-5719
▁Comments	-5720
▁5,	-5721
lymp	-5722
▁Pré	-5723
itaires	-5724
▁Social	-5725
38	-5726
gest	-5727
▁méc	-5728
▁doute	-5729
▁limit	-5730
▁itself	-5731
-20	-5732
ôme	-5733
UL	-5734
▁Upd	-5735
▁étr	-5736
▁angl	-5737
ota	-5738
▁college	-5739
espace	-5740
porter	-5741
▁Japan	-5742
▁espace	-5743
▁2007	-5744
▁état	-5745
▁figure	-5746
▁personnalis	-5747
▁classes	-5748
▁sand	-5749
▁actuellement	-5750
▁spot	-5751
▁trade	-5752
▁poly	-5753
▁tém	-5754
▁permettent	-5755
▁fé	-5756
▁furn	-5757
▁played	-5758
pres	-5759
nous	-5760
▁Bur	-5761
▁appréc	-5762
▁goals	-5763
hel	-5764
uts	-5765
▁dén	-5766
essions	-5767
ainment	-5768
▁vin	-5769
▁béb	-5770
▁attempt	-5771
▁Festival	-5772
ministration	-5773
▁Ess	-5774
▁enh	-5775
▁hear	-5776
▁jobs	-5777
mont	-5778
▁franc	-5779
▁phil	-5780
▁Angel	-5781
AND	-5782
▁Prop	-5783
▁load	-5784
▁limited	-5785
rome	-5786
▁Pers	-5787
▁crise	-5788
isan	-5789
▁interesting	-5790
▁Cond	-5791
▁1/	-5792
▁Code	-5793
▁moments	-5794
▁viv	-5795
ancer	-5796
▁Next	-5797
▁ajout	-5798
▁mesures	-5799
▁ly	-5800
rich	-5801
▁shoot	-5802
CA	-5803
ône	-5804
▁growing	-5805
▁session	-5806
ero	-5807
estre	-5808
aie	-5809
▁Dim	-5810
▁Call	-5811
▁offres	-5812
▁neuf	-5813
▁lieux	-5814
▁sleep	-5815
▁yeux	-5816
▁notes	-5817
▁woman	-5818
Ex	-5819
▁manifest	-5820
▁prochaine	-5821
èque	-5822
▁trib	-5823
▁broad	-5824
▁Fem	-5825
▁Vers	-5826
▁conven	-5827
amour	-5828
ecutive	-5829
▁salari	-5830
Pl	-5831
▁views	-5832
▁03	-5833
MA	-5834
▁Priv	-5835
▁info	-5836
oms	-5837
▁Mess	-5838
▁dream	-5839
▁tel	-5840
association	-5841
▁casino	-5842
émie	-5843
▁hour	-5844
accord	-5845
500	-5846
▁Council	-5847
▁annoncé	-5848
ala	-5849
énergie	-5850
▁chauss	-5851
▁faites	-5852
▁meub	-5853
▁afford	-5854
care	-5855
âtre	-5856
▁mauv	-5857
▁therm	-5858
▁Invest	-5859
▁central	-5860
▁partner	-5861
▁hospital	-5862
▁broy	-5863
▁dead	-5864
▁manque	-5865
inte	-5866
▁constitu	-5867
image	-5868
▁Media	-5869
▁proposer	-5870
ras	-5871
▁rates	-5872
▁war	-5873
▁homes	-5874
▁physical	-5875
istics	-5876
74	-5877
Etat	-5878
▁score	-5879
▁parcours	-5880
istan	-5881
▁celles	-5882
▁Time	-5883
▁wrong	-5884
▁loan	-5885
▁Hist	-5886
▁Family	-5887
▁Chin	-5888
64	-5889
ta	-5890
▁gift	-5891
ceed	-5892
hôtel	-5893
▁moving	-5894
▁équipes	-5895
CI	-5896
▁Esp	-5897
▁separ	-5898
▁states	-5899
▁publié	-5900
▁jur	-5901
▁forces	-5902
▁changer	-5903
▁reports	-5904
▁wid	-5905
inding	-5906
Com	-5907
▁heat	-5908
▁Child	-5909
▁suivant	-5910
▁FR	-5911
▁Isra	-5912
▁simpl	-5913
▁spend	-5914
▁symb	-5915
cé	-5916
do	-5917
han	-5918
▁Robert	-5919
▁environnement	-5920
CO	-5921
▁vois	-5922
▁durable	-5923
▁MA	-5924
nels	-5925
▁labor	-5926
▁devez	-5927
pective	-5928
▁Bit	-5929
▁coeur	-5930
▁conséqu	-5931
▁Mill	-5932
▁wonderful	-5933
wner	-5934
▁0.	-5935
▁Information	-5936
▁Data	-5937
▁entry	-5938
▁European	-5939
haps	-5940
▁sit	-5941
▁Enter	-5942
▁economic	-5943
▁secret	-5944
▁sym	-5945
agged	-5946
▁Custom	-5947
▁Pan	-5948
▁municip	-5949
▁sociale	-5950
▁Coll	-5951
▁Organ	-5952
▁flu	-5953
inner	-5954
oine	-5955
▁opér	-5956
▁voix	-5957
▁stuff	-5958
▁soleil	-5959
alled	-5960
▁Marie	-5961
▁Jun	-5962
ura	-5963
avant	-5964
▁élèves	-5965
otions	-5966
col	-5967
rew	-5968
▁AT	-5969
▁loved	-5970
▁milli	-5971
iced	-5972
▁Australia	-5973
▁ID	-5974
upart	-5975
▁Board	-5976
▁guerre	-5977
▁piscine	-5978
▁response	-5979
▁weather	-5980
euros	-5981
ument	-5982
▁pratiques	-5983
▁02	-5984
merce	-5985
▁schools	-5986
▁delivery	-5987
▁Miss	-5988
▁Show	-5989
▁soirée	-5990
▁nu	-5991
inos	-5992
▁overall	-5993
ech	-5994
▁Wall	-5995
▁accès	-5996
astruct	-5997
▁experienced	-5998
cm	-5999
▁distribution	-6000
oyage	-6001
▁Pass	-6002
▁plupart	-6003
▁farm	-6004
▁référence	-6005
ronic	-6006
aliste	-6007
▁config	-6008
▁Ren	-6009
▁Each	-6010
erap	-6011
▁Tit	-6012
▁Vir	-6013
▁Mary	-6014
▁menu	-6015
frastruct	-6016
▁partager	-6017
▁Vict	-6018
▁French	-6019
iteur	-6020
▁avoid	-6021
▁Aujourd	-6022
▁largest	-6023
icon	-6024
ieuse	-6025
▁groups	-6026
▁livres	-6027
▁promotion	-6028
▁acheter	-6029
▁publique	-6030
▁symp	-6031
▁soins	-6032
On	-6033
quis	-6034
ublique	-6035
▁Science	-6036
▁pert	-6037
ME	-6038
▁uses	-6039
▁confer	-6040
▁dent	-6041
ètre	-6042
▁began	-6043
yond	-6044
▁certainly	-6045
▁rat	-6046
▁envie	-6047
▁résultat	-6048
▁advert	-6049
▁enregist	-6050
▁Matt	-6051
39	-6052
▁Use	-6053
▁Sant	-6054
▁kil	-6055
ittee	-6056
▁libre	-6057
▁danger	-6058
▁exactly	-6059
▁Director	-6060
overs	-6061
▁lequel	-6062
▁benefit	-6063
▁activité	-6064
wise	-6065
▁quarter	-6066
▁moyenne	-6067
aqu	-6068
▁Ca	-6069
▁extrem	-6070
▁modèles	-6071
▁programm	-6072
▁Technology	-6073
car	-6074
AV	-6075
▁150	-6076
▁essenti	-6077
▁accompagn	-6078
oto	-6079
▁accessible	-6080
agé	-6081
▁lock	-6082
▁nour	-6083
▁blood	-6084
▁devenir	-6085
oindre	-6086
▁quartier	-6087
▁urb	-6088
▁pressure	-6089
▁comfortable	-6090
like	-6091
-8	-6092
68	-6093
▁(4	-6094
▁Rou	-6095
ielle	-6096
▁motor	-6097
ita	-6098
fast	-6099
▁vote	-6100
▁chaud	-6101
▁justice	-6102
▁register	-6103
▁statement	-6104
avirus	-6105
-10	-6106
▁birth	-6107
▁CON	-6108
▁harm	-6109
▁offered	-6110
▁électrique	-6111
▁MP	-6112
df	-6113
▁écl	-6114
erties	-6115
▁directeur	-6116
cs	-6117
▁Luc	-6118
▁race	-6119
▁master	-6120
▁frame	-6121
▁Nouv	-6122
Europe	-6123
▁presque	-6124
oudre	-6125
▁suit	-6126
▁bur	-6127
▁CB	-6128
▁emerg	-6129
▁challenge	-6130
▁construct	-6131
...)	-6132
ander	-6133
▁wear	-6134
▁Oct	-6135
▁passage	-6136
rais	-6137
▁pou	-6138
▁Guide	-6139
▁Development	-6140
▁Fire	-6141
▁lumière	-6142
ouer	-6143
▁courses	-6144
▁contacter	-6145
yg	-6146
▁Cat	-6147
▁Lat	-6148
▁integr	-6149
▁billion	-6150
):	-6151
,”	-6152
pping	-6153
▁bain	-6154
▁numérique	-6155
▁considered	-6156
/200	-6157
yles	-6158
▁Van	-6159
▁marche	-6160
▁Publ	-6161
▁slow	-6162
▁capacité	-6163
▁logiciel	-6164
▁dark	-6165
▁avaient	-6166
▁activity	-6167
▁remar	-6168
onavirus	-6169
▁connu	-6170
▁tests	-6171
▁advice	-6172
▁devices	-6173
This	-6174
▁Report	-6175
ups	-6176
▁capt	-6177
▁crois	-6178
LC	-6179
itz	-6180
▁Ros	-6181
▁Support	-6182
▁voc	-6183
▁wal	-6184
annel	-6185
▁Carol	-6186
▁destination	-6187
▁consul	-6188
▁organiz	-6189
▁strategy	-6190
▁professionnelle	-6191
ato	-6192
user	-6193
▁Test	-6194
▁blue	-6195
▁caractér	-6196
▁Press	-6197
rey	-6198
▁poursu	-6199
▁commence	-6200
▁political	-6201
▁pand	-6202
▁degree	-6203
▁saying	-6204
▁territoire	-6205
▁AD	-6206
▁Adv	-6207
▁mains	-6208
ference	-6209
▁offici	-6210
▁straight	-6211
▁difference	-6212
▁matériel	-6213
ustain	-6214
encies	-6215
▁générale	-6216
qui	-6217
▁paid	-6218
▁sait	-6219
▁indep	-6220
▁Search	-6221
▁title	-6222
▁League	-6223
èse	-6224
▁Cop	-6225
▁retra	-6226
▁partenaires	-6227
ians	-6228
▁shopping	-6229
alog	-6230
unte	-6231
▁mand	-6232
▁Light	-6233
▁happen	-6234
▁longtemps	-6235
igner	-6236
▁Bord	-6237
▁indép	-6238
▁fruits	-6239
ams	-6240
ipped	-6241
▁François	-6242
▁Africa	-6243
▁helping	-6244
éder	-6245
▁tips	-6246
▁Access	-6247
▁accident	-6248
ora	-6249
▁Mel	-6250
raine	-6251
▁dispar	-6252
▁rose	-6253
▁évol	-6254
issons	-6255
▁explique	-6256
▁List	-6257
▁recru	-6258
▁vérif	-6259
▁appoint	-6260
▁feeling	-6261
men	-6262
anie	-6263
▁miles	-6264
▁storage	-6265
▁thanks	-6266
▁annonce	-6267
bes	-6268
▁trouverez	-6269
▁dossier	-6270
▁Tu	-6271
▁mut	-6272
▁Price	-6273
▁libert	-6274
▁orient	-6275
PR	-6276
▁stories	-6277
▁développer	-6278
ula	-6279
▁Thomas	-6280
▁CA	-6281
ocrat	-6282
▁cloth	-6283
▁participation	-6284
▁Color	-6285
▁entrepr	-6286
79	-6287
▁Sport	-6288
▁cards	-6289
▁mouvement	-6290
▁hé	-6291
▁Game	-6292
▁trouvé	-6293
aller	-6294
▁États	-6295
▁Restaur	-6296
gn	-6297
lo	-6298
▁pharm	-6299
▁Archives	-6300
▁Instagram	-6301
ona	-6302
idée	-6303
▁entert	-6304
PA	-6305
▁Er	-6306
▁beach	-6307
▁language	-6308
▁tried	-6309
▁OF	-6310
▁oui	-6311
▁basic	-6312
▁appreci	-6313
▁pattern	-6314
▁commentaires	-6315
▁Jo	-6316
▁leaders	-6317
▁purpose	-6318
▁retail	-6319
▁devient	-6320
▁surprise	-6321
▁annual	-6322
▁assess	-6323
De	-6324
▁SU	-6325
▁œuvre	-6326
SA	-6327
▁gave	-6328
▁Church	-6329
▁soient	-6330
▁capable	-6331
IER	-6332
▁Cast	-6333
▁Florida	-6334
▁wasn	-6335
▁became	-6336
alle	-6337
ifie	-6338
▁Aud	-6339
▁Hand	-6340
pie	-6341
▁(5	-6342
onces	-6343
▁felt	-6344
▁manager	-6345
▁Lyon	-6346
▁Mount	-6347
▁Manager	-6348
▁item	-6349
▁van	-6350
▁75	-6351
▁pén	-6352
▁Note	-6353
▁tels	-6354
▁Covid	-6355
▁launch	-6356
roph	-6357
▁charges	-6358
rées	-6359
▁unit	-6360
▁Start	-6361
isseurs	-6362
▁ge	-6363
▁Ville	-6364
▁damage	-6365
top	-6366
▁ouver	-6367
▁fonctionn	-6368
▁principal	-6369
olas	-6370
cteurs	-6371
▁Chine	-6372
▁instant	-6373
▁7,	-6374
▁reduce	-6375
▁messages	-6376
umn	-6377
▁Bern	-6378
▁gauche	-6379
▁Special	-6380
▁audio	-6381
▁gagner	-6382
mat	-6383
▁ai	-6384
▁garage	-6385
▁certaine	-6386
▁permettra	-6387
▁Rom	-6388
▁Deux	-6389
▁expéri	-6390
▁Dev	-6391
▁Author	-6392
▁réalisé	-6393
▁sometimes	-6394
td	-6395
▁Po	-6396
▁coin	-6397
▁opin	-6398
▁Mex	-6399
▁paie	-6400
active	-6401
azz	-6402
▁trou	-6403
▁thous	-6404
▁combat	-6405
▁expertise	-6406
ja	-6407
▁temper	-6408
▁changement	-6409
▁understanding	-6410
lim	-6411
▁domicile	-6412
▁père	-6413
▁liter	-6414
▁intellig	-6415
▁cul	-6416
▁Belg	-6417
▁pierre	-6418
▁Central	-6419
▁Head	-6420
▁Sale	-6421
▁parfait	-6422
del	-6423
▁pen	-6424
▁vib	-6425
aught	-6426
inder	-6427
▁ideal	-6428
▁guarante	-6429
▁physique	-6430
▁mém	-6431
▁Place	-6432
▁agréable	-6433
▁communauté	-6434
istry	-6435
avantage	-6436
énagement	-6437
▁eat	-6438
riques	-6439
▁mariage	-6440
▁payment	-6441
▁bonnes	-6442
▁papier	-6443
▁Two	-6444
atrice	-6445
▁spent	-6446
va	-6447
▁48	-6448
▁bons	-6449
▁Disc	-6450
▁holiday	-6451
▁habitants	-6452
69	-6453
owl	-6454
▁oe	-6455
issage	-6456
TER	-6457
▁CN	-6458
▁wants	-6459
▁droite	-6460
IRE	-6461
▁Soft	-6462
▁repair	-6463
▁DU	-6464
▁fruit	-6465
▁glass	-6466
▁compt	-6467
▁pouss	-6468
▁texte	-6469
▁Gén	-6470
48	-6471
ella	-6472
▁Rég	-6473
▁réd	-6474
icine	-6475
▁Click	-6476
He	-6477
▁GR	-6478
▁har	-6479
▁Arts	-6480
▁maybe	-6481
expérience	-6482
▁park	-6483
▁brought	-6484
rid	-6485
▁concasseur	-6486
▁Under	-6487
▁earlier	-6488
▁6,	-6489
▁window	-6490
▁décor	-6491
▁easier	-6492
▁festival	-6493
nd	-6494
ken	-6495
▁ahead	-6496
burg	-6497
▁estate	-6498
▁technologie	-6499
▁Los	-6500
▁err	-6501
ously	-6502
▁Enfin	-6503
▁[...]	-6504
▁parle	-6505
▁utilisateurs	-6506
▁Full	-6507
▁selection	-6508
med	-6509
▁Like	-6510
▁chaî	-6511
▁souhaite	-6512
osed	-6513
set	-6514
ivités	-6515
ression	-6516
VD	-6517
▁Cab	-6518
▁decl	-6519
accueil	-6520
▁Chaque	-6521
▁heard	-6522
tection	-6523
▁offrir	-6524
aid	-6525
▁phase	-6526
▁Es	-6527
▁mother	-6528
acité	-6529
▁fils	-6530
▁rights	-6531
▁célè	-6532
ban	-6533
▁vs	-6534
▁Pack	-6535
▁cast	-6536
▁animal	-6537
▁accur	-6538
▁spirit	-6539
▁wedding	-6540
▁notice	-6541
▁32	-6542
▁Etats	-6543
rations	-6544
▁impression	-6545
reh	-6546
▁ut	-6547
▁Mult	-6548
ography	-6549
▁Island	-6550
▁extremely	-6551
Af	-6552
▁Foot	-6553
êche	-6554
▁Réf	-6555
▁den	-6556
▁lay	-6557
rition	-6558
▁croissance	-6559
▁increasing	-6560
outs	-6561
bi	-6562
▁(0	-6563
▁Opt	-6564
▁Merc	-6565
▁Resp	-6566
hésitez	-6567
▁impress	-6568
▁PL	-6569
unning	-6570
▁ast	-6571
▁connaître	-6572
/11	-6573
▁cer	-6574
iquez	-6575
▁moteur	-6576
▁voulez	-6577
▁cheveux	-6578
aming	-6579
▁dial	-6580
▁standards	-6581
htt	-6582
vey	-6583
▁télév	-6584
ographie	-6585
▁commerce	-6586
▁terrasse	-6587
▁Aj	-6588
▁Master	-6589
▁appartement	-6590
▁éto	-6591
▁sch	-6592
▁Dur	-6593
▁thème	-6594
▁Date	-6595
▁Have	-6596
▁Hill	-6597
▁fashion	-6598
▁fro	-6599
▁finally	-6600
▁parfaitement	-6601
oker	-6602
bur	-6603
▁SE	-6604
▁Sar	-6605
ulent	-6606
▁president	-6607
TR	-6608
▁surf	-6609
▁director	-6610
▁Ir	-6611
▁tap	-6612
▁efficient	-6613
ennis	-6614
▁Live	-6615
▁files	-6616
ae	-6617
▁bébé	-6618
▁driving	-6619
▁stick	-6620
▁CR	-6621
▁rester	-6622
▁troisième	-6623
ello	-6624
▁Hor	-6625
lying	-6626
établ	-6627
▁devra	-6628
▁nearly	-6629
réal	-6630
▁PDF	-6631
▁truly	-6632
▁Hi	-6633
avor	-6634
sible	-6635
anches	-6636
oust	-6637
▁dedic	-6638
▁observ	-6639
▁Marketing	-6640
oga	-6641
▁Journal	-6642
inct	-6643
▁Expl	-6644
▁Build	-6645
▁compétences	-6646
▁Tim	-6647
▁repro	-6648
▁Digital	-6649
réd	-6650
tenir	-6651
▁incor	-6652
▁montre	-6653
▁remain	-6654
▁commission	-6655
itut	-6656
▁sweet	-6657
aren	-6658
▁rand	-6659
auteur	-6660
▁gross	-6661
▁Global	-6662
êtements	-6663
ibli	-6664
▁10,	-6665
▁Wik	-6666
▁gaz	-6667
lands	-6668
environnement	-6669
▁36	-6670
▁Fort	-6671
▁dédi	-6672
▁transfer	-6673
▁automatique	-6674
▁toi	-6675
ouvre	-6676
▁rooms	-6677
▁responsible	-6678
fait	-6679
▁Imm	-6680
▁Noël	-6681
▁locaux	-6682
▁TR	-6683
OG	-6684
▁invent	-6685
▁mining	-6686
▁moyens	-6687
organisation	-6688
49	-6689
ered	-6690
▁partage	-6691
▁gain	-6692
▁steps	-6693
▁boutique	-6694
▁étudiants	-6695
Bl	-6696
abs	-6697
▁Jose	-6698
mosph	-6699
▁République	-6700
ection	-6701
▁délic	-6702
▁stars	-6703
osc	-6704
aughter	-6705
▁completed	-6706
▁nord	-6707
▁2018,	-6708
▁setting	-6709
▁38	-6710
▁Mur	-6711
▁beginning	-6712
pre	-6713
useum	-6714
▁2020,	-6715
▁poids	-6716
jectif	-6717
▁thank	-6718
▁Hom	-6719
uster	-6720
▁Crus	-6721
▁Wi	-6722
▁400	-6723
▁Cra	-6724
▁numer	-6725
▁malgré	-6726
▁Pos	-6727
▁Polit	-6728
▁British	-6729
application	-6730
▁Très	-6731
entrée	-6732
▁Lux	-6733
▁Cost	-6734
wers	-6735
uteur	-6736
▁retrouv	-6737
▁technical	-6738
fit	-6739
rote	-6740
ster	-6741
▁Cou	-6742
▁sortir	-6743
▁Take	-6744
▁sang	-6745
invest	-6746
▁meaning	-6747
rou	-6748
▁Chic	-6749
▁basis	-6750
▁Premier	-6751
▁retrouve	-6752
▁compagnie	-6753
▁Div	-6754
▁steel	-6755
novation	-6756
ba	-6757
▁Room	-6758
▁Travel	-6759
▁proven	-6760
▁update	-6761
▁Network	-6762
uty	-6763
orrow	-6764
▁Auto	-6765
▁feet	-6766
▁Women	-6767
UM	-6768
free	-6769
▁catégorie	-6770
inal	-6771
osoph	-6772
▁Cook	-6773
▁cars	-6774
▁Table	-6775
rét	-6776
▁Dub	-6777
▁rav	-6778
▁récup	-6779
▁Profession	-6780
▁repas	-6781
Is	-6782
▁urg	-6783
▁douce	-6784
▁fonds	-6785
▁Link	-6786
▁effects	-6787
▁reçu	-6788
auss	-6789
iano	-6790
ancing	-6791
▁Train	-6792
▁cleaning	-6793
▁gratuitement	-6794
▁Hy	-6795
▁!!!	-6796
▁Hen	-6797
▁recy	-6798
▁spl	-6799
huile	-6800
visor	-6801
▁Direct	-6802
▁compon	-6803
body	-6804
▁laun	-6805
FA	-6806
gage	-6807
iency	-6808
▁préf	-6809
▁River	-6810
▁decor	-6811
rian	-6812
▁légère	-6813
▁alternative	-6814
état	-6815
arily	-6816
▁eyes	-6817
FR	-6818
tements	-6819
▁surround	-6820
add	-6821
▁shared	-6822
unis	-6823
▁proced	-6824
ipes	-6825
uisse	-6826
▁Econom	-6827
▁véhicule	-6828
▁12,	-6829
▁Bet	-6830
dessous	-6831
▁sin	-6832
▁Ball	-6833
▁existing	-6834
icial	-6835
▁named	-6836
▁spread	-6837
▁politiques	-6838
indust	-6839
▁compat	-6840
▁highest	-6841
▁creative	-6842
▁Description	-6843
▁00	-6844
▁adjust	-6845
▁concours	-6846
▁parent	-6847
▁faisant	-6848
oral	-6849
icing	-6850
▁regarding	-6851
ailed	-6852
appar	-6853
angers	-6854
▁buying	-6855
▁driver	-6856
▁profess	-6857
▁manage	-6858
▁éviter	-6859
▁bio	-6860
▁coû	-6861
html	-6862
▁roof	-6863
▁complète	-6864
▁dévo	-6865
▁studio	-6866
▁comporte	-6867
Fi	-6868
élo	-6869
▁fera	-6870
▁journey	-6871
▁ressources	-6872
friend	-6873
▁owner	-6874
ulaires	-6875
▁served	-6876
▁33	-6877
▁Rh	-6878
inger	-6879
irement	-6880
Ass	-6881
îte	-6882
▁Trip	-6883
çons	-6884
▁lorsqu	-6885
▁Buy	-6886
▁prol	-6887
▁traffic	-6888
▁bathroom	-6889
▁navig	-6890
▁Pourquoi	-6891
undred	-6892
▁Lang	-6893
ologiques	-6894
▁Ul	-6895
▁shot	-6896
▁videos	-6897
▁respond	-6898
▁détermin	-6899
▁facilities	-6900
▁Nom	-6901
▁Yes	-6902
▁fen	-6903
aises	-6904
▁born	-6905
▁diam	-6906
IQ	-6907
▁Lake	-6908
▁mère	-6909
▁immédi	-6910
▁locations	-6911
▁publication	-6912
iar	-6913
anging	-6914
▁mental	-6915
▁idées	-6916
▁Location	-6917
IB	-6918
can	-6919
▁convert	-6920
ML	-6921
▁Video	-6922
▁conception	-6923
/12	-6924
endar	-6925
▁fisc	-6926
▁8,	-6927
▁Anim	-6928
uré	-6929
▁isol	-6930
▁sorte	-6931
poser	-6932
▁faud	-6933
▁lack	-6934
▁ore	-6935
▁annivers	-6936
venus	-6937
▁Sans	-6938
look	-6939
▁Watch	-6940
affaires	-6941
▁meilleures	-6942
▁peace	-6943
▁During	-6944
▁disease	-6945
▁accom	-6946
▁conseill	-6947
▁objectif	-6948
ANT	-6949
anned	-6950
▁citoy	-6951
▁associated	-6952
▁coffee	-6953
▁réalité	-6954
▁Qual	-6955
▁concl	-6956
▁sympt	-6957
▁porter	-6958
èche	-6959
usband	-6960
▁garde	-6961
▁Liv	-6962
▁2019,	-6963
▁turned	-6964
▁numbers	-6965
▁Méd	-6966
alles	-6967
▁forte	-6968
▁lines	-6969
opération	-6970
lette	-6971
▁recette	-6972
oré	-6973
▁fête	-6974
▁civil	-6975
rimoine	-6976
onge	-6977
èrent	-6978
▁princi	-6979
▁produce	-6980
▁uniquement	-6981
▁assistance	-6982
CD	-6983
▁2017,	-6984
▁finale	-6985
▁Ep	-6986
▁wife	-6987
▁Charl	-6988
adresse	-6989
uters	-6990
▁models	-6991
▁advantage	-6992
▁diss	-6993
App	-6994
▁ride	-6995
▁evalu	-6996
▁pieces	-6997
▁mondial	-6998
▁Toutes	-6999
▁sector	-7000
▁possède	-7001
▁tir	-7002
liers	-7003
▁prec	-7004
▁friendly	-7005
▁garden	-7006
irme	-7007
▁suffit	-7008
▁powerful	-7009
▁commencer	-7010
▁ray	-7011
enture	-7012
rices	-7013
atever	-7014
▁secure	-7015
▁threat	-7016
▁Times	-7017
▁dram	-7018
▁pull	-7019
pet	-7020
rated	-7021
sembl	-7022
▁nouvel	-7023
▁windows	-7024
▁constant	-7025
osh	-7026
irie	-7027
▁primary	-7028
▁increased	-7029
▁magnifique	-7030
ty	-7031
▁Brown	-7032
▁belie	-7033
▁paris	-7034
▁Recher	-7035
▁helped	-7036
ènes	-7037
▁Marc	-7038
▁dirige	-7039
▁Although	-7040
▁pourtant	-7041
eller	-7042
icians	-7043
▁reflect	-7044
▁comprend	-7045
▁Pop	-7046
ommod	-7047
▁animaux	-7048
▁Word	-7049
▁disp	-7050
▁reasons	-7051
▁mondiale	-7052
heur	-7053
nership	-7054
▁cartes	-7055
▁Fun	-7056
▁idéal	-7057
onses	-7058
kin	-7059
chant	-7060
▁Radio	-7061
▁income	-7062
▁marques	-7063
▁réalisation	-7064
▁mécan	-7065
▁consac	-7066
ror	-7067
▁entraî	-7068
usé	-7069
éral	-7070
▁fréqu	-7071
ila	-7072
▁surg	-7073
▁stone	-7074
▁camera	-7075
▁quelle	-7076
▁règles	-7077
▁determin	-7078
▁stratégie	-7079
▁34	-7080
illy	-7081
▁Cup	-7082
▁dedicated	-7083
estic	-7084
▁acteurs	-7085
▁residents	-7086
▁restrict	-7087
▁cong	-7088
▁brill	-7089
▁incred	-7090
▁Grâce	-7091
▁villes	-7092
▁présenter	-7093
▁fonctionnement	-7094
▁insp	-7095
▁Michel	-7096
▁belles	-7097
▁opening	-7098
emment	-7099
▁Mobile	-7100
▁livraison	-7101
▁coût	-7102
▁internationale	-7103
▁virus	-7104
▁performances	-7105
da	-7106
▁valid	-7107
ependant	-7108
itutions	-7109
▁workers	-7110
▁participer	-7111
▁sept	-7112
▁Elles	-7113
vi	-7114
▁Bed	-7115
▁accompl	-7116
▁demander	-7117
▁und	-7118
▁Hous	-7119
▁wild	-7120
▁apport	-7121
▁commit	-7122
▁cabinet	-7123
INE	-7124
▁Security	-7125
rite	-7126
▁én	-7127
▁aime	-7128
▁fail	-7129
▁Bec	-7130
▁Toute	-7131
▁alone	-7132
▁Conf	-7133
hes	-7134
▁LED	-7135
▁Prom	-7136
▁mètres	-7137
oitation	-7138
▁immediately	-7139
▁reç	-7140
▁challenges	-7141
▁discussion	-7142
▁Smith	-7143
▁abord	-7144
-6	-7145
98	-7146
▁Ven	-7147
▁beauté	-7148
▁visual	-7149
▁lait	-7150
▁arrêt	-7151
▁regist	-7152
▁groupes	-7153
▁maintain	-7154
intes	-7155
▁beyond	-7156
▁portes	-7157
▁Rencont	-7158
▁fabrication	-7159
▁professionals	-7160
OB	-7161
▁Police	-7162
▁contain	-7163
▁Minister	-7164
▁logement	-7165
âge	-7166
onte	-7167
▁conference	-7168
▁soi	-7169
alyse	-7170
▁idée	-7171
▁param	-7172
ourse	-7173
▁entièrement	-7174
ointe	-7175
▁testing	-7176
▁violence	-7177
▁particularly	-7178
▁Tre	-7179
ainte	-7180
▁actual	-7181
▁membre	-7182
▁finding	-7183
▁tut	-7184
ientôt	-7185
▁Republic	-7186
▁affich	-7187
▁publics	-7188
▁Institute	-7189
▁indis	-7190
▁Hu	-7191
▁Ital	-7192
▁Pays	-7193
appro	-7194
▁Rev	-7195
▁senior	-7196
▁useful	-7197
▁biggest	-7198
iny	-7199
▁cinéma	-7200
▁aren	-7201
▁cold	-7202
▁fabri	-7203
▁!!	-7204
▁fi	-7205
▁rig	-7206
eline	-7207
▁2006	-7208
▁Whether	-7209
▁puisque	-7210
▁Chinese	-7211
ESS	-7212
uie	-7213
▁seven	-7214
bed	-7215
uté	-7216
▁Sav	-7217
▁tendance	-7218
▁NY	-7219
▁hauteur	-7220
▁premières	-7221
apon	-7222
▁Meet	-7223
▁langue	-7224
▁aspects	-7225
▁demonst	-7226
fol	-7227
duit	-7228
▁manger	-7229
▁owners	-7230
▁smooth	-7231
▁Cependant	-7232
iés	-7233
▁AS	-7234
▁Nor	-7235
▁Writ	-7236
▁button	-7237
▁plateforme	-7238
1)	-7239
▁nécessaires	-7240
▁coord	-7241
▁conserv	-7242
▁importante	-7243
▁Norm	-7244
crete	-7245
seille	-7246
▁vidéos	-7247
▁Charles	-7248
installation	-7249
37	-7250
OV	-7251
ART	-7252
akers	-7253
▁Series	-7254
▁England	-7255
▁aid	-7256
▁6.	-7257
▁lett	-7258
DA	-7259
▁established	-7260
igu	-7261
▁doub	-7262
▁proud	-7263
▁welcome	-7264
amps	-7265
▁lesqu	-7266
▁verre	-7267
▁Academ	-7268
▁assign	-7269
▁pleine	-7270
▁Ok	-7271
▁Set	-7272
▁Gall	-7273
▁transpar	-7274
▁programmes	-7275
▁lois	-7276
▁situations	-7277
ILL	-7278
▁IP	-7279
rand	-7280
andsc	-7281
isent	-7282
▁repl	-7283
▁hôtel	-7284
▁zones	-7285
ématique	-7286
▁détails	-7287
▁profond	-7288
▁seconde	-7289
▁peine	-7290
▁agents	-7291
▁describ	-7292
▁européenne	-7293
▁prison	-7294
inée	-7295
▁metal	-7296
ovation	-7297
▁investig	-7298
▁américain	-7299
▁operations	-7300
▁TO	-7301
shop	-7302
égét	-7303
France	-7304
▁franch	-7305
▁imprim	-7306
▁Foundation	-7307
ylv	-7308
▁familles	-7309
▁Frank	-7310
▁dates	-7311
▁laisse	-7312
och	-7313
▁rét	-7314
▁cheap	-7315
▁looked	-7316
▁adresse	-7317
▁pul	-7318
▁length	-7319
▁changed	-7320
▁streaming	-7321
----	-7322
iors	-7323
▁CEO	-7324
▁cos	-7325
▁Culture	-7326
ims	-7327
▁Wal	-7328
ouvrir	-7329
ava	-7330
vely	-7331
êter	-7332
esprit	-7333
▁middle	-7334
▁competition	-7335
ded	-7336
aman	-7337
▁tele	-7338
aix	-7339
town	-7340
placer	-7341
▁Union	-7342
▁plenty	-7343
asp	-7344
▁wine	-7345
▁Président	-7346
erry	-7347
▁goût	-7348
▁helpful	-7349
▁dot	-7350
▁gal	-7351
▁gagn	-7352
▁rules	-7353
32	-7354
▁Ban	-7355
▁Autom	-7356
▁consommation	-7357
rd	-7358
uted	-7359
▁pod	-7360
attle	-7361
occup	-7362
▁mechan	-7363
▁AND	-7364
utely	-7365
▁Machine	-7366
mond	-7367
▁Atlant	-7368
▁George	-7369
▁critical	-7370
▁classique	-7371
▁opération	-7372
sung	-7373
▁carrière	-7374
▁luck	-7375
▁exhib	-7376
quée	-7377
▁tes	-7378
▁wat	-7379
import	-7380
▁Games	-7381
▁economy	-7382
DE	-7383
het	-7384
ourt	-7385
▁ryth	-7386
isseur	-7387
ètement	-7388
▁handle	-7389
▁magazine	-7390
▁Kn	-7391
▁od	-7392
▁Stand	-7393
▁letter	-7394
▁Medical	-7395
▁bottom	-7396
urers	-7397
▁défense	-7398
▁organisation	-7399
▁Cho	-7400
étude	-7401
ancien	-7402
dict	-7403
cribe	-7404
▁argu	-7405
▁recevoir	-7406
▁association	-7407
PE	-7408
▁behav	-7409
▁outre	-7410
▁Another	-7411
▁allez	-7412
▁climat	-7413
▁compared	-7414
▁properties	-7415
ati	-7416
▁husband	-7417
▁capacity	-7418
▁conj	-7419
▁Virgin	-7420
avez	-7421
▁Fac	-7422
▁soin	-7423
▁immobilier	-7424
mé	-7425
ordre	-7426
▁Share	-7427
▁guests	-7428
▁initial	-7429
▁AV	-7430
▁Bob	-7431
▁bonus	-7432
▁numerous	-7433
Il	-7434
phones	-7435
riture	-7436
DC	-7437
isco	-7438
▁finished	-7439
%.	-7440
▁envoy	-7441
▁cadeau	-7442
▁seeing	-7443
kn	-7444
▁(201	-7445
▁extr	-7446
▁scen	-7447
▁Scott	-7448
▁haven	-7449
uner	-7450
▁pair	-7451
▁Valley	-7452
▁ON	-7453
▁measure	-7454
▁régulièrement	-7455
▁Fund	-7456
▁partout	-7457
▁hundred	-7458
▁developing	-7459
▁communities	-7460
▁FOR	-7461
▁attrib	-7462
▁church	-7463
▁methods	-7464
▁Dieu	-7465
▁Sujet	-7466
▁excited	-7467
quently	-7468
▁audience	-7469
▁196	-7470
▁dix	-7471
▁puissance	-7472
▁travaille	-7473
▁AF	-7474
alls	-7475
▁somme	-7476
obe	-7477
▁café	-7478
▁Victor	-7479
▁adding	-7480
▁choisi	-7481
▁déroul	-7482
▁milliards	-7483
arité	-7484
▁Mons	-7485
▁cycle	-7486
▁Sé	-7487
intég	-7488
▁Chris	-7489
▁calme	-7490
▁voici	-7491
▁Because	-7492
▁2016,	-7493
▁Sn	-7494
▁schedule	-7495
▁experiences	-7496
▁Men	-7497
termine	-7498
▁ancien	-7499
▁connection	-7500
▁engagement	-7501
▁Qui	-7502
▁moved	-7503
▁listed	-7504
▁studies	-7505
▁veux	-7506
▁risques	-7507
▁CL	-7508
craft	-7509
ennent	-7510
▁Stock	-7511
▁delic	-7512
▁truck	-7513
▁greater	-7514
▁stru	-7515
▁montant	-7516
PC	-7517
ifts	-7518
▁Jes	-7519
▁découverte	-7520
▁allowed	-7521
▁consc	-7522
▁posts	-7523
▁précis	-7524
▁Angeles	-7525
esc	-7526
▁7.	-7527
▁therap	-7528
▁pure	-7529
▁wrote	-7530
ulé	-7531
rivée	-7532
▁maladie	-7533
inaire	-7534
igan	-7535
▁Jon	-7536
▁District	-7537
▁terror	-7538
▁balance	-7539
▁sharing	-7540
▁convention	-7541
GB	-7542
▁bil	-7543
▁bande	-7544
▁Follow	-7545
▁contrô	-7546
xion	-7547
▁hu	-7548
▁Who	-7549
▁agent	-7550
▁academ	-7551
ady	-7552
▁Type	-7553
▁rank	-7554
▁updated	-7555
▁heavy	-7556
▁préparation	-7557
▁winter	-7558
▁Bitcoin	-7559
naire	-7560
▁keeping	-7561
▁Government	-7562
▁leadership	-7563
▁ath	-7564
▁although	-7565
▁organizations	-7566
="	-7567
cut	-7568
▁55	-7569
icken	-7570
▁guit	-7571
intage	-7572
».	-7573
▁péd	-7574
bling	-7575
▁Litt	-7576
▁golf	-7577
▁créé	-7578
▁vitesse	-7579
▁approxim	-7580
ERS	-7581
▁voice	-7582
▁street	-7583
Ag	-7584
▁Kh	-7585
▁magasin	-7586
dire	-7587
itage	-7588
fa	-7589
▁Land	-7590
▁laws	-7591
▁crypt	-7592
ématiques	-7593
▁requires	-7594
▁panne	-7595
▁package	-7596
▁Ltd	-7597
▁mig	-7598
▁Sout	-7599
▁assure	-7600
Tube	-7601
▁Help	-7602
▁portable	-7603
informations	-7604
xi	-7605
ori	-7606
▁Avant	-7607
▁Israel	-7608
▁connaissance	-7609
▁tur	-7610
MC	-7611
▁Ken	-7612
▁Energy	-7613
▁gather	-7614
▁études	-7615
▁plastic	-7616
▁peinture	-7617
gas	-7618
acles	-7619
uvres	-7620
itness	-7621
▁plants	-7622
▁infrastruct	-7623
icap	-7624
▁Oui	-7625
▁réflex	-7626
ôp	-7627
▁Its	-7628
▁Key	-7629
▁knew	-7630
▁rain	-7631
▁authent	-7632
▁eight	-7633
▁spectacle	-7634
TH	-7635
▁..	-7636
▁11,	-7637
▁Ast	-7638
▁Mes	-7639
▁accommod	-7640
▁continues	-7641
mis	-7642
▁Ref	-7643
▁rot	-7644
fection	-7645
▁Chicago	-7646
▁Did	-7647
▁Peter	-7648
▁joint	-7649
▁records	-7650
31	-7651
▁renouv	-7652
▁assurer	-7653
▁Ur	-7654
▁advanced	-7655
▁culturel	-7656
▁drop	-7657
▁cloud	-7658
offre	-7659
▁shown	-7660
▁doctor	-7661
▁appropriate	-7662
yan	-7663
▁mir	-7664
▁transition	-7665
améli	-7666
▁federal	-7667
▁relevant	-7668
SC	-7669
▁ign	-7670
▁classic	-7671
pload	-7672
importe	-7673
▁Source	-7674
▁remove	-7675
▁musical	-7676
▁120	-7677
▁remb	-7678
▁Philippe	-7679
▁description	-7680
'.	-7681
▁Ah	-7682
anner	-7683
▁indispens	-7684
▁totalement	-7685
emp	-7686
▁Maint	-7687
▁engage	-7688
▁moderne	-7689
▁supports	-7690
▁:)	-7691
▁Town	-7692
▁fear	-7693
▁Bud	-7694
▁uns	-7695
▁salariés	-7696
emic	-7697
▁passionn	-7698
▁13,	-7699
suite	-7700
▁talking	-7701
▁pression	-7702
▁objectifs	-7703
▁gone	-7704
▁Smart	-7705
assurance	-7706
▁bénéficier	-7707
ania	-7708
▁coc	-7709
▁cris	-7710
▁father	-7711
Se	-7712
▁Local	-7713
▁Person	-7714
▁discipl	-7715
▁evening	-7716
▁systèmes	-7717
▁Old	-7718
▁Financ	-7719
▁signal	-7720
85	-7721
arde	-7722
west	-7723
▁250	-7724
▁exciting	-7725
arp	-7726
▁enable	-7727
▁Pot	-7728
▁Clean	-7729
▁plage	-7730
▁administrat	-7731
élect	-7732
▁apporter	-7733
▁14,	-7734
andis	-7735
▁Actualités	-7736
▁Eff	-7737
▁Syn	-7738
▁websites	-7739
▁complément	-7740
▁EX	-7741
▁snow	-7742
▁Continue	-7743
▁produced	-7744
▁stores	-7745
owe	-7746
▁Perm	-7747
aye	-7748
bar	-7749
eliers	-7750
appel	-7751
▁étape	-7752
▁sustain	-7753
NA	-7754
bu	-7755
effect	-7756
zer	-7757
▁Way	-7758
▁pow	-7759
▁chien	-7760
▁anglais	-7761
TA	-7762
cée	-7763
▁DVD	-7764
▁calls	-7765
▁architect	-7766
▁Inde	-7767
▁logo	-7768
▁panel	-7769
utation	-7770
▁Suisse	-7771
▁endroit	-7772
▁fichier	-7773
avait	-7774
▁importance	-7775
oster	-7776
▁arts	-7777
▁chans	-7778
▁bought	-7779
▁immobil	-7780
▁followed	-7781
▁guys	-7782
▁closed	-7783
▁hôtels	-7784
uste	-7785
▁topic	-7786
▁neighbor	-7787
ali	-7788
▁15,	-7789
esome	-7790
▁draw	-7791
▁réce	-7792
▁breat	-7793
▁colle	-7794
▁visitors	-7795
nam	-7796
▁tree	-7797
illance	-7798
▁généralement	-7799
aven	-7800
eneurs	-7801
▁sauce	-7802
▁compreh	-7803
DS	-7804
appr	-7805
▁195	-7806
▁Anne	-7807
onnées	-7808
▁funds	-7809
▁Before	-7810
▁Montréal	-7811
▁versions	-7812
▁whose	-7813
▁thousands	-7814
ads	-7815
▁éd	-7816
▁maisons	-7817
▁selling	-7818
▁encourage	-7819
▁gent	-7820
oureux	-7821
▁Canad	-7822
▁famous	-7823
▁rappel	-7824
▁AC	-7825
aches	-7826
▁Oper	-7827
▁fill	-7828
▁valeurs	-7829
▁relative	-7830
▁réel	-7831
▁Santé	-7832
▁markets	-7833
46	-7834
life	-7835
onné	-7836
▁stim	-7837
▁ours	-7838
▁hier	-7839
▁Associ	-7840
aug	-7841
list	-7842
▁bat	-7843
▁fémin	-7844
▁végét	-7845
édition	-7846
▁mélange	-7847
▁FC	-7848
icks	-7849
▁rid	-7850
▁indiqué	-7851
uns	-7852
▁joue	-7853
étiques	-7854
▁slight	-7855
▁voie	-7856
▁usage	-7857
▁hyp	-7858
ctors	-7859
▁Toul	-7860
▁Niger	-7861
atively	-7862
chester	-7863
▁movement	-7864
▁9,	-7865
▁iP	-7866
iber	-7867
▁Util	-7868
▁task	-7869
▁joueur	-7870
GE	-7871
▁(2	-7872
▁chair	-7873
▁girls	-7874
▁lance	-7875
ao	-7876
▁Joe	-7877
▁39	-7878
info	-7879
▁Nice	-7880
▁2015,	-7881
▁célèbre	-7882
▁2005	-7883
▁styl	-7884
▁Reviews	-7885
énom	-7886
▁197	-7887
▁ram	-7888
▁artist	-7889
fic	-7890
▁65	-7891
using	-7892
▁crimin	-7893
▁cup	-7894
▁colors	-7895
▁lancer	-7896
▁operating	-7897
▁impossible	-7898
▁Appar	-7899
▁domin	-7900
▁explore	-7901
pell	-7902
word	-7903
▁Pac	-7904
▁joy	-7905
▁prepared	-7906
….	-7907
arts	-7908
▁peur	-7909
▁burn	-7910
▁generally	-7911
enda	-7912
▁eth	-7913
unesse	-7914
rine	-7915
▁métier	-7916
▁Nicolas	-7917
▁Box	-7918
▁demi	-7919
▁Maroc	-7920
objectif	-7921
▁cycl	-7922
▁YouTube	-7923
▁Sat	-7924
▁chocolat	-7925
olit	-7926
ested	-7927
PM	-7928
▁8.	-7929
edom	-7930
eneur	-7931
objet	-7932
▁Rose	-7933
▁larger	-7934
▁smartphone	-7935
',	-7936
cean	-7937
▁devis	-7938
cious	-7939
▁Front	-7940
going	-7941
▁fest	-7942
atement	-7943
▁spring	-7944
▁philosoph	-7945
▁conférence	-7946
wel	-7947
hips	-7948
▁vul	-7949
esses	-7950
dessus	-7951
▁faite	-7952
▁garder	-7953
▁fantastic	-7954
▁kit	-7955
▁vir	-7956
ataires	-7957
▁himself	-7958
▁Belgique	-7959
▁coverage	-7960
▁department	-7961
▁âg	-7962
igné	-7963
▁Mis	-7964
▁Mike	-7965
iquant	-7966
▁Exper	-7967
▁winning	-7968
▁ja	-7969
▁30,	-7970
umé	-7971
éph	-7972
alien	-7973
▁onto	-7974
▁FL	-7975
▁Lu	-7976
oirs	-7977
▁19,	-7978
▁EUR	-7979
asure	-7980
▁Royal	-7981
▁shape	-7982
▁transl	-7983
▁dû	-7984
▁Daily	-7985
▁massage	-7986
▁DES	-7987
ateau	-7988
▁ingred	-7989
▁améliorer	-7990
▁AB	-7991
orney	-7992
▁2020.	-7993
▁rapid	-7994
▁bientôt	-7995
▁concerne	-7996
▁fish	-7997
▁beauty	-7998
▁médias	-7999
?"	-8000
▁SC	-8001
▁USB	-8002
▁mac	-8003
▁furniture	-8004
ventions	-8005
▁Bul	-8006
▁transf	-8007
▁covered	-8008
▁artistes	-8009
▁historique	-8010
reek	-8011
▁(1)	-8012
▁20,	-8013
▁Ram	-8014
▁Olymp	-8015
▁selected	-8016
▁17,	-8017
/2020	-8018
▁Jesus	-8019
▁coupe	-8020
▁perhaps	-8021
▁réduire	-8022
-7	-8023
bal	-8024
ius	-8025
▁alg	-8026
eling	-8027
▁Même	-8028
▁fleurs	-8029
▁souvenir	-8030
▁affordable	-8031
▁rasse	-8032
▁touche	-8033
zen	-8034
▁runs	-8035
▁pieds	-8036
▁expand	-8037
▁16,	-8038
icale	-8039
▁Connect	-8040
▁compter	-8041
▁background	-8042
▁Ze	-8043
ètes	-8044
▁district	-8045
▁fid	-8046
▁lav	-8047
▁lutte	-8048
▁factors	-8049
▁derrière	-8050
▁Mah	-8051
▁Beau	-8052
▁2018.	-8053
▁Their	-8054
▁Ari	-8055
▁wire	-8056
▁Disney	-8057
▁military	-8058
▁Mov	-8059
▁allem	-8060
▁partners	-8061
chat	-8062
▁Ray	-8063
▁lose	-8064
▁premium	-8065
▁promote	-8066
▁matériaux	-8067
sm	-8068
/01	-8069
▁Richard	-8070
▁institutions	-8071
▁Avis	-8072
▁Store	-8073
▁couldn	-8074
▁lac	-8075
itors	-8076
▁waste	-8077
▁Lorsque	-8078
▁determine	-8079
▁sépar	-8080
▁Bordeaux	-8081
▁protéger	-8082
▁FA	-8083
égal	-8084
▁banc	-8085
annonce	-8086
▁decide	-8087
▁waiting	-8088
.00	-8089
▁Card	-8090
▁Beaut	-8091
▁raisons	-8092
▁poor	-8093
▁couver	-8094
FL	-8095
avec	-8096
umer	-8097
▁Tot	-8098
isses	-8099
▁Film	-8100
accomp	-8101
clusion	-8102
▁faible	-8103
▁propres	-8104
▁futur	-8105
▁acquis	-8106
▁dessus	-8107
utiliser	-8108
una	-8109
▁0,	-8110
▁thr	-8111
ulated	-8112
▁Samsung	-8113
iat	-8114
île	-8115
▁Obama	-8116
▁roman	-8117
▁advent	-8118
nés	-8119
▁brows	-8120
▁tough	-8121
▁happened	-8122
UB	-8123
▁BR	-8124
water	-8125
▁Tech	-8126
▁desp	-8127
▁flat	-8128
▁finance	-8129
▁vehicles	-8130
▁18,	-8131
▁étoiles	-8132
ih	-8133
eder	-8134
▁charm	-8135
▁liens	-8136
▁SA	-8137
uant	-8138
veur	-8139
▁perd	-8140
▁apart	-8141
▁tickets	-8142
▁pourront	-8143
▁personnages	-8144
Par	-8145
uet	-8146
ocation	-8147
▁govern	-8148
▁Hospital	-8149
▁exercise	-8150
▁pét	-8151
inary	-8152
▁située	-8153
▁Pu	-8154
▁scr	-8155
▁afric	-8156
▁Comple	-8157
▁proches	-8158
agon	-8159
▁squ	-8160
▁agency	-8161
▁liberté	-8162
LS	-8163
agog	-8164
assin	-8165
▁perdu	-8166
▁Lin	-8167
▁Point	-8168
▁advance	-8169
▁précise	-8170
▁Fait	-8171
▁aurez	-8172
▁theme	-8173
▁placed	-8174
▁ventes	-8175
▁atmosph	-8176
▁méthode	-8177
▁coronavirus	-8178
▁MS	-8179
▁Tax	-8180
▁medium	-8181
iciels	-8182
▁2019.	-8183
▁outdoor	-8184
semb	-8185
▁Categ	-8186
▁detail	-8187
▁ouverte	-8188
▁Edit	-8189
▁beat	-8190
▁copy	-8191
▁riche	-8192
▁vital	-8193
aliment	-8194
▁disapp	-8195
▁opened	-8196
▁elements	-8197
▁présentation	-8198
▁trim	-8199
▁status	-8200
▁counter	-8201
acks	-8202
blog	-8203
▁Shop	-8204
éroport	-8205
esterday	-8206
▁Champions	-8207
aks	-8208
sole	-8209
▁féd	-8210
▁1000	-8211
▁links	-8212
▁broyeur	-8213
▁pom	-8214
▁Daniel	-8215
▁regarder	-8216
▁Eth	-8217
▁roy	-8218
rible	-8219
ifying	-8220
▁volunte	-8221
ITE	-8222
iot	-8223
▁styles	-8224
▁influence	-8225
▁older	-8226
▁contains	-8227
▁Marseille	-8228
▁ministère	-8229
].	-8230
▁memory	-8231
▁continued	-8232
▁suc	-8233
eless	-8234
industrie	-8235
▁propriété	-8236
orce	-8237
▁valu	-8238
▁2013,	-8239
▁boost	-8240
▁facility	-8241
▁continuer	-8242
▁ski	-8243
▁tab	-8244
éries	-8245
▁thoughts	-8246
ortunately	-8247
▁rencontrer	-8248
At	-8249
arian	-8250
athol	-8251
▁Electric	-8252
▁communes	-8253
▁avantages	-8254
▁véhicules	-8255
▁ur	-8256
▁lev	-8257
▁outil	-8258
▁invite	-8259
▁presented	-8260
oble	-8261
pour	-8262
cohol	-8263
▁Eric	-8264
▁Four	-8265
▁Collection	-8266
edy	-8267
▁21,	-8268
▁taste	-8269
gements	-8270
cons	-8271
▁End	-8272
▁cir	-8273
aliser	-8274
intérêt	-8275
▁designs	-8276
▁bâtiment	-8277
▁Ext	-8278
orable	-8279
▁sembl	-8280
standing	-8281
abilities	-8282
▁daughter	-8283
▁corporate	-8284
▁Cit	-8285
▁finalement	-8286
▁Fond	-8287
ataire	-8288
▁injury	-8289
▁happens	-8290
▁partnership	-8291
▁map	-8292
▁shall	-8293
▁PH	-8294
▁caused	-8295
▁objets	-8296
IX	-8297
ingt	-8298
▁bonheur	-8299
État	-8300
inois	-8301
▁Know	-8302
▁bright	-8303
▁régime	-8304
agnement	-8305
▁drivers	-8306
kers	-8307
▁Haut	-8308
▁tables	-8309
▁processing	-8310
ersey	-8311
▁spac	-8312
arrivée	-8313
évolution	-8314
▁mêmes	-8315
▁chante	-8316
▁ED	-8317
▁fle	-8318
▁filles	-8319
▁conform	-8320
▁Sau	-8321
▁amen	-8322
▁sets	-8323
▁summ	-8324
ifestyle	-8325
▁Def	-8326
eries	-8327
riers	-8328
iro	-8329
isées	-8330
onneur	-8331
▁Party	-8332
▁37	-8333
▁Sem	-8334
▁fee	-8335
▁kept	-8336
▁recycl	-8337
▁fonctionne	-8338
▁Gh	-8339
▁Die	-8340
▁riv	-8341
letter	-8342
▁paiement	-8343
▁patrimoine	-8344
AGE	-8345
▁privé	-8346
pendant	-8347
▁Grande	-8348
appy	-8349
orient	-8350
▁tempor	-8351
▁visage	-8352
▁missions	-8353
ATE	-8354
▁inclus	-8355
▁er	-8356
▁Wel	-8357
outube	-8358
▁reality	-8359
▁Previous	-8360
.000	-8361
▁catch	-8362
▁rendu	-8363
▁causes	-8364
▁claims	-8365
anes	-8366
▁cuir	-8367
▁brain	-8368
▁formes	-8369
économie	-8370
uent	-8371
▁tomb	-8372
▁recettes	-8373
▁associations	-8374
▁Control	-8375
▁réduction	-8376
▁partenaire	-8377
/03	-8378
vet	-8379
▁Moh	-8380
▁worry	-8381
▁reliable	-8382
▁Boy	-8383
uries	-8384
▁vill	-8385
enfant	-8386
▁meubles	-8387
▁parl	-8388
▁ferme	-8389
▁payer	-8390
▁étude	-8391
▁passed	-8392
▁centres	-8393
▁launched	-8394
▁victoire	-8395
▁connected	-8396
▁independent	-8397
47	-8398
veille	-8399
▁Policy	-8400
agée	-8401
ende	-8402
▁entier	-8403
atically	-8404
▁apprendre	-8405
enz	-8406
▁deals	-8407
▁south	-8408
▁shares	-8409
▁visible	-8410
▁operation	-8411
▁administration	-8412
67	-8413
▁Dra	-8414
lywood	-8415
▁fournir	-8416
▁absolutely	-8417
▁partenariat	-8418
ii	-8419
You	-8420
âche	-8421
▁Ide	-8422
iendra	-8423
▁ajouter	-8424
▁chances	-8425
▁teaching	-8426
▁plantes	-8427
▁ordinateur	-8428
opped	-8429
▁basket	-8430
▁pouvons	-8431
▁>>	-8432
▁jug	-8433
▁identify	-8434
▁majorité	-8435
/06	-8436
ayer	-8437
annes	-8438
▁affaires	-8439
▁prévu	-8440
atoires	-8441
▁particuliers	-8442
▁satisfaction	-8443
▁Fer	-8444
▁Kar	-8445
▁Where	-8446
▁aware	-8447
▁spons	-8448
!"	-8449
▁codes	-8450
▁provider	-8451
▁consulter	-8452
▁intérieur	-8453
▁therefore	-8454
▁commencé	-8455
▁spending	-8456
▁température	-8457
▁eau	-8458
ouche	-8459
▁scul	-8460
▁jurid	-8461
▁réussi	-8462
▁scolaire	-8463
elines	-8464
▁starts	-8465
▁consumers	-8466
▁pron	-8467
▁Coupe	-8468
▁wouldn	-8469
▁Patrick	-8470
aval	-8471
effic	-8472
▁ling	-8473
▁télécharge	-8474
▁réponses	-8475
▁responsabilité	-8476
▁BE	-8477
▁2014,	-8478
▁mémoire	-8479
▁600	-8480
acters	-8481
▁Spring	-8482
▁arrange	-8483
▁proposons	-8484
km	-8485
cks	-8486
▁circuit	-8487
▁learned	-8488
▁category	-8489
▁Financial	-8490
▁davantage	-8491
▁industrial	-8492
▁contexte	-8493
MM	-8494
▁concurr	-8495
dis	-8496
/2019	-8497
▁Monde	-8498
établissement	-8499
jection	-8500
▁century	-8501
orne	-8502
abase	-8503
▁chaîne	-8504
▁annonces	-8505
▁evidence	-8506
▁précédent	-8507
▁22,	-8508
acher	-8509
▁Print	-8510
aturing	-8511
▁Hard	-8512
enseignement	-8513
rip	-8514
▁names	-8515
▁becoming	-8516
▁strategies	-8517
worth	-8518
▁Chief	-8519
▁récemment	-8520
oqu	-8521
hors	-8522
▁kid	-8523
▁claire	-8524
▁processes	-8525
▁communiqué	-8526
▁Keep	-8527
▁exig	-8528
▁clubs	-8529
iblioth	-8530
▁suspect	-8531
▁structures	-8532
▁OR	-8533
▁lignes	-8534
▁artists	-8535
▁remains	-8536
▁officials	-8537
…)	-8538
aya	-8539
▁Jeux	-8540
▁knows	-8541
▁préparer	-8542
icité	-8543
▁Human	-8544
▁utilise	-8545
▁cependant	-8546
▁24,	-8547
▁lancé	-8548
mercial	-8549
▁emergency	-8550
hér	-8551
▁ru	-8552
autom	-8553
▁Only	-8554
▁Award	-8555
▁Pri	-8556
▁iron	-8557
uillez	-8558
▁crème	-8559
▁expensive	-8560
▁résidence	-8561
▁événements	-8562
▁télécharger	-8563
▁Fra	-8564
écran	-8565
▁ultra	-8566
▁certific	-8567
TV	-8568
enger	-8569
itant	-8570
▁deme	-8571
▁tenue	-8572
▁focused	-8573
▁exchange	-8574
arc	-8575
▁Ble	-8576
▁Bang	-8577
▁Puis	-8578
▁funding	-8579
▁CC	-8580
▁sea	-8581
▁units	-8582
▁tandis	-8583
▁espaces	-8584
riculture	-8585
▁changing	-8586
▁(8	-8587
avier	-8588
▁desk	-8589
▁poser	-8590
▁profil	-8591
▁Tal	-8592
▁Diff	-8593
poration	-8594
▁camping	-8595
▁trouble	-8596
▁Nouvelle	-8597
ignon	-8598
▁Consult	-8599
▁chaleur	-8600
▁agreement	-8601
elly	-8602
onnée	-8603
▁2017.	-8604
▁effets	-8605
▁présenté	-8606
▁naissance	-8607
Aut	-8608
ria	-8609
▁ice	-8610
▁gour	-8611
▁grav	-8612
entation	-8613
▁showing	-8614
3)	-8615
▁Gre	-8616
▁Petit	-8617
▁Pen	-8618
▁mist	-8619
▁fasc	-8620
ilités	-8621
▁baisse	-8622
▁brings	-8623
▁courant	-8624
▁manufacturing	-8625
▁Creat	-8626
PL	-8627
no	-8628
▁Ali	-8629
▁Kim	-8630
▁Mir	-8631
▁Mars	-8632
▁repe	-8633
ansion	-8634
▁Sales	-8635
▁Western	-8636
▁enjoyed	-8637
▁guess	-8638
▁shipping	-8639
▁25,	-8640
▁2012,	-8641
▁Somet	-8642
▁profile	-8643
▁fichiers	-8644
▁separate	-8645
BN	-8646
/2018	-8647
▁favour	-8648
▁démarche	-8649
▁Commentaires	-8650
▁diet	-8651
▁lour	-8652
agence	-8653
nelles	-8654
▁évent	-8655
don	-8656
known	-8657
▁interior	-8658
▁apps	-8659
▁brands	-8660
▁Both	-8661
▁Stat	-8662
▁élections	-8663
▁organisations	-8664
▁pic	-8665
▁tub	-8666
front	-8667
iaires	-8668
▁dessin	-8669
esis	-8670
▁diz	-8671
crets	-8672
ivier	-8673
print	-8674
raphe	-8675
FC	-8676
▁ax	-8677
/09	-8678
oung	-8679
▁unf	-8680
▁tenu	-8681
▁Hon	-8682
▁PAR	-8683
▁bij	-8684
▁Main	-8685
▁craft	-8686
▁meant	-8687
▁Secret	-8688
-9	-8689
çant	-8690
▁Math	-8691
▁coal	-8692
▁Hôtel	-8693
▁Children	-8694
ocr	-8695
▁Haw	-8696
estin	-8697
assurer	-8698
▁extern	-8699
▁témoign	-8700
▁practices	-8701
▁Farm	-8702
▁vice	-8703
yright	-8704
▁earth	-8705
▁quelqu	-8706
▁réunion	-8707
cial	-8708
etic	-8709
▁foreign	-8710
▁society	-8711
▁champion	-8712
right	-8713
▁Roll	-8714
▁core	-8715
▁événement	-8716
▁relationships	-8717
▁23,	-8718
▁Ses	-8719
▁tor	-8720
▁Comb	-8721
▁Origin	-8722
▁Studio	-8723
▁penser	-8724
▁diagnost	-8725
écut	-8726
▁Arm	-8727
▁warn	-8728
▁dimin	-8729
▁représente	-8730
orb	-8731
inds	-8732
▁swe	-8733
point	-8734
▁remerc	-8735
▁visiter	-8736
▁concerns	-8737
▁colour	-8738
▁dynamique	-8739
DI	-8740
olt	-8741
▁Nature	-8742
anqu	-8743
▁Oil	-8744
▁privée	-8745
abri	-8746
▁26,	-8747
ronom	-8748
énage	-8749
▁bird	-8750
imming	-8751
▁dinner	-8752
▁télévision	-8753
oli	-8754
▁Crusher	-8755
▁anticip	-8756
▁marchés	-8757
▁obvious	-8758
▁Dam	-8759
raction	-8760
▁Society	-8761
▁Football	-8762
▁Pap	-8763
ussian	-8764
▁alumin	-8765
▁servir	-8766
▁écoles	-8767
▁teachers	-8768
▁termes	-8769
▁DR	-8770
▁Mun	-8771
▁fuel	-8772
▁perte	-8773
▁Addition	-8774
▁Ap	-8775
▁Carl	-8776
-12	-8777
itent	-8778
▁faith	-8779
▁recipe	-8780
WS	-8781
isher	-8782
▁adress	-8783
ouns	-8784
▁Fair	-8785
▁bleu	-8786
rative	-8787
▁scene	-8788
▁voilà	-8789
▁obtain	-8790
▁installed	-8791
alty	-8792
▁busy	-8793
▁Drive	-8794
▁reserv	-8795
▁décoration	-8796
▁joined	-8797
▁previously	-8798
▁Ent	-8799
▁mér	-8800
▁watching	-8801
▁mentioned	-8802
▁prestations	-8803
Art	-8804
prés	-8805
▁28,	-8806
▁Mai	-8807
▁occur	-8808
heim	-8809
▁Night	-8810
▁Nouve	-8811
▁forms	-8812
▁Software	-8813
▁vêtements	-8814
posit	-8815
▁Jeff	-8816
▁Lord	-8817
▁cord	-8818
ducing	-8819
▁jet	-8820
▁Hong	-8821
▁minor	-8822
gal	-8823
▁clair	-8824
QU	-8825
▁seeking	-8826
▁diverses	-8827
▁handicap	-8828
axy	-8829
▁Groupe	-8830
▁Univers	-8831
entretien	-8832
▁capitale	-8833
▁chercher	-8834
▁committed	-8835
▁utilisation	-8836
▁SS	-8837
▁phr	-8838
order	-8839
▁Manufact	-8840
▁Products	-8841
impression	-8842
là	-8843
▁médica	-8844
▁Perform	-8845
▁Christop	-8846
▁tellement	-8847
▁shut	-8848
ruption	-8849
▁institution	-8850
auc	-8851
▁excess	-8852
▁accessoires	-8853
/05	-8854
▁Fur	-8855
▁entrée	-8856
▁promot	-8857
▁passant	-8858
▁familiar	-8859
ocket	-8860
étais	-8861
idemment	-8862
▁walking	-8863
▁innovation	-8864
▁flight	-8865
▁habitu	-8866
▁Published	-8867
▁consultation	-8868
ref	-8869
yez	-8870
itre	-8871
▁Pak	-8872
assage	-8873
▁truth	-8874
stances	-8875
▁Estate	-8876
wan	-8877
▁SH	-8878
▁vélo	-8879
▁west	-8880
▁Using	-8881
▁demandé	-8882
▁exclusive	-8883
pare	-8884
▁Donc	-8885
▁Ford	-8886
▁enth	-8887
▁2021,	-8888
▁Jones	-8889
▁combin	-8890
▁volonté	-8891
▁Solutions	-8892
▁establish	-8893
enus	-8894
izer	-8895
▁Rod	-8896
▁Trav	-8897
arrant	-8898
▁Museum	-8899
▁teacher	-8900
anna	-8901
▁smaller	-8902
▁combination	-8903
▁perspective	-8904
▁Webs	-8905
▁doors	-8906
▁mises	-8907
▁novel	-8908
▁Through	-8909
▁emotion	-8910
▁sessions	-8911
tw	-8912
▁purs	-8913
▁opinion	-8914
ima	-8915
érée	-8916
▁ami	-8917
/2021	-8918
êtres	-8919
▁cities	-8920
▁landsc	-8921
▁distinct	-8922
▁whatever	-8923
!)	-8924
▁95	-8925
▁Job	-8926
▁LES	-8927
érant	-8928
▁fees	-8929
▁admin	-8930
▁Orange	-8931
▁agence	-8932
▁sounds	-8933
▁garantie	-8934
▁Vill	-8935
▁managed	-8936
éducation	-8937
dé	-8938
▁Ec	-8939
▁800	-8940
▁Dern	-8941
▁Kore	-8942
▁faudra	-8943
▁navigation	-8944
▁virtual	-8945
rees	-8946
lines	-8947
▁songs	-8948
▁Second	-8949
▁values	-8950
▁African	-8951
▁capture	-8952
page	-8953
autor	-8954
etnam	-8955
analyse	-8956
▁arriver	-8957
▁appareil	-8958
▁majority	-8959
▁Uk	-8960
mental	-8961
▁siège	-8962
▁sucre	-8963
▁dining	-8964
▁hotels	-8965
▁autorités	-8966
▁Situ	-8967
▁plug	-8968
époque	-8969
▁morce	-8970
▁legisl	-8971
▁heureux	-8972
▁recommended	-8973
eps	-8974
▁OS	-8975
▁coul	-8976
▁leaving	-8977
▁properly	-8978
▁suitable	-8979
▁Lee	-8980
orthern	-8981
▁characters	-8982
grade	-8983
▁lovely	-8984
▁detailed	-8985
▁Mid	-8986
▁compens	-8987
kins	-8988
uble	-8989
ulate	-8990
▁Wild	-8991
▁argent	-8992
▁switch	-8993
43	-8994
▁câ	-8995
erst	-8996
osis	-8997
▁beaux	-8998
▁Living	-8999
▁Johnson	-9000
▁fou	-9001
▁Cross	-9002
▁forget	-9003
▁positions	-9004
/04	-9005
▁Penn	-9006
riage	-9007
▁push	-9008
▁loans	-9009
▁privil	-9010
▁Afrique	-9011
▁conversation	-9012
▁twe	-9013
▁hall	-9014
▁jump	-9015
▁Steph	-9016
▁cream	-9017
▁construire	-9018
verg	-9019
▁Need	-9020
▁bains	-9021
▁confront	-9022
▁Dog	-9023
▁pér	-9024
▁chim	-9025
▁venue	-9026
▁hi	-9027
Inst	-9028
▁Rap	-9029
▁Tar	-9030
▁démont	-9031
▁chemical	-9032
ueux	-9033
▁Far	-9034
▁ship	-9035
▁flash	-9036
▁asking	-9037
▁square	-9038
levision	-9039
▁History	-9040
▁breakfast	-9041
ste	-9042
vre	-9043
▁10.	-9044
▁gérer	-9045
▁died	-9046
ériques	-9047
▁Committee	-9048
▁forg	-9049
Union	-9050
▁oubl	-9051
▁Email	-9052
▁devenu	-9053
▁montrer	-9054
▁prepare	-9055
ére	-9056
▁49	-9057
ricité	-9058
▁Brand	-9059
▁honest	-9060
▁caractère	-9061
▁manufacturer	-9062
▁Maur	-9063
▁Casino	-9064
CL	-9065
ju	-9066
/08	-9067
étéo	-9068
▁rêve	-9069
▁Ligue	-9070
pection	-9071
aga	-9072
▁42	-9073
ician	-9074
éraire	-9075
▁brief	-9076
▁robot	-9077
▁puisse	-9078
▁innovative	-9079
/02	-9080
▁lend	-9081
▁Suite	-9082
▁nutrition	-9083
but	-9084
▁rise	-9085
▁accompagner	-9086
▁environmental	-9087
);	-9088
▁CP	-9089
midi	-9090
neur	-9091
/2017	-9092
agues	-9093
▁dépl	-9094
▁showed	-9095
▁revenue	-9096
▁équipements	-9097
%,	-9098
how	-9099
itime	-9100
aisser	-9101
▁campus	-9102
▁measures	-9103
▁connaissances	-9104
ji	-9105
!!!!	-9106
cool	-9107
onto	-9108
urre	-9109
▁becomes	-9110
▁proposé	-9111
▁temperature	-9112
▁Cru	-9113
▁2016.	-9114
▁champions	-9115
rans	-9116
itifs	-9117
▁grant	-9118
▁Region	-9119
▁telles	-9120
while	-9121
▁chain	-9122
▁Germany	-9123
▁conseiller	-9124
iana	-9125
▁27,	-9126
autés	-9127
▁Asia	-9128
▁Parc	-9129
▁scale	-9130
▁défaut	-9131
▁sociétés	-9132
▁principaux	-9133
core	-9134
ellect	-9135
ômes	-9136
▁Sén	-9137
▁composé	-9138
▁différence	-9139
lock	-9140
resh	-9141
▁salles	-9142
▁symbol	-9143
▁Insurance	-9144
orry	-9145
endez	-9146
▁Femme	-9147
▁perdre	-9148
▁Edition	-9149
▁serving	-9150
▁permanent	-9151
▁instructions	-9152
adel	-9153
unal	-9154
▁clé	-9155
▁Girl	-9156
▁erre	-9157
▁Quant	-9158
▁eating	-9159
▁accounts	-9160
▁generation	-9161
IST	-9162
▁SEO	-9163
opper	-9164
▁crow	-9165
▁Chall	-9166
▁raised	-9167
▁designer	-9168
▁circulation	-9169
All	-9170
bro	-9171
ysi	-9172
writ	-9173
▁server	-9174
▁viennent	-9175
iki	-9176
▁Cry	-9177
▁comprehensive	-9178
▁Inn	-9179
▁achie	-9180
▁components	-9181
agnes	-9182
▁Join	-9183
89	-9184
ciale	-9185
intern	-9186
▁honor	-9187
▁Academy	-9188
▁transmission	-9189
-200	-9190
▁Toy	-9191
▁lun	-9192
onique	-9193
▁Earth	-9194
▁Haute	-9195
Est	-9196
▁por	-9197
▁envir	-9198
▁signed	-9199
▁candidats	-9200
odge	-9201
▁Bes	-9202
ionnat	-9203
▁Vente	-9204
▁hausse	-9205
▁formations	-9206
exploitation	-9207
ORT	-9208
▁Jud	-9209
▁mic	-9210
option	-9211
▁consumer	-9212
▁discount	-9213
And	-9214
▁AU	-9215
Book	-9216
▁10:	-9217
▁Sher	-9218
areil	-9219
icate	-9220
▁prat	-9221
▁maîtr	-9222
▁attach	-9223
▁incont	-9224
▁ressem	-9225
▁enquête	-9226
heureusement	-9227
nées	-9228
▁Express	-9229
▁crushing	-9230
▁complètement	-9231
ko	-9232
joy	-9233
▁64	-9234
▁ec	-9235
clud	-9236
irez	-9237
▁Mini	-9238
▁votes	-9239
▁updates	-9240
▁Congress	-9241
▁possibly	-9242
▁$1	-9243
▁guy	-9244
▁corner	-9245
▁prises	-9246
▁Bost	-9247
▁voitures	-9248
aco	-9249
▁Tél	-9250
aques	-9251
▁aband	-9252
▁label	-9253
▁veget	-9254
▁awesome	-9255
▁ingredients	-9256
PT	-9257
enew	-9258
▁Bad	-9259
▁pier	-9260
▁Donald	-9261
▁adapté	-9262
▁couverture	-9263
▁Las	-9264
▁fell	-9265
onction	-9266
▁Minist	-9267
▁Systems	-9268
▁indépend	-9269
née	-9270
plus	-9271
creen	-9272
▁Noir	-9273
▁Georg	-9274
étaires	-9275
▁Joseph	-9276
Université	-9277
dits	-9278
osen	-9279
▁Lis	-9280
▁MAR	-9281
EMENT	-9282
▁raise	-9283
▁Magazine	-9284
▁confidence	-9285
▁transformation	-9286
ami	-9287
▁Gi	-9288
▁Maj	-9289
aissez	-9290
▁prime	-9291
▁Environ	-9292
▁despite	-9293
criptions	-9294
▁génération	-9295
EE	-9296
étr	-9297
▁pray	-9298
actualité	-9299
▁bid	-9300
ignant	-9301
▁rejoindre	-9302
izza	-9303
icien	-9304
▁atteindre	-9305
▁PA	-9306
ibly	-9307
érém	-9308
▁29,	-9309
▁leads	-9310
▁Jacques	-9311
▁Laurent	-9312
gers	-9313
▁dance	-9314
▁froid	-9315
▁Install	-9316
▁allowing	-9317
▁presence	-9318
63	-9319
hand	-9320
duire	-9321
oubles	-9322
▁Japon	-9323
▁battery	-9324
▁putting	-9325
sec	-9326
▁Ath	-9327
▁shel	-9328
alogue	-9329
▁Prime	-9330
▁citiz	-9331
▁faits	-9332
▁crédit	-9333
▁sanitaire	-9334
▁visiteurs	-9335
REE	-9336
▁roul	-9337
environ	-9338
ternoon	-9339
▁Capital	-9340
▁DI	-9341
▁Gro	-9342
▁flo	-9343
aimer	-9344
▁écran	-9345
yard	-9346
▁Made	-9347
▁clés	-9348
▁reco	-9349
▁séance	-9350
▁revenir	-9351
▁quantité	-9352
▁dimension	-9353
▁typically	-9354
▁approximately	-9355
▁85	-9356
▁Kit	-9357
▁chap	-9358
▁liquid	-9359
dem	-9360
andes	-9361
▁Garden	-9362
▁niveaux	-9363
ef	-9364
▁Sac	-9365
ôpital	-9366
▁disting	-9367
▁européen	-9368
uves	-9369
▁internal	-9370
▁policies	-9371
▁utilisant	-9372
ARD	-9373
▁tas	-9374
vision	-9375
▁Space	-9376
▁Senior	-9377
▁affirm	-9378
▁efficiency	-9379
php	-9380
semblée	-9381
▁Société	-9382
hou	-9383
atri	-9384
oubl	-9385
érale	-9386
▁intr	-9387
avenir	-9388
▁côtés	-9389
rès	-9390
▁Auc	-9391
▁Rome	-9392
▁difficultés	-9393
▁étud	-9394
▁Chair	-9395
▁Salon	-9396
▁fleur	-9397
▁preuve	-9398
▁missing	-9399
▁decisions	-9400
▁appears	-9401
▁chaussures	-9402
▁Hope	-9403
▁pilot	-9404
univers	-9405
▁matches	-9406
▁signature	-9407
ript	-9408
ulte	-9409
▁....	-9410
▁math	-9411
▁Plant	-9412
▁logiciels	-9413
yo	-9414
▁Golf	-9415
▁Avenue	-9416
▁rythme	-9417
▁sculpt	-9418
▁apartment	-9419
▁investors	-9420
▁Area	-9421
▁seat	-9422
▁applied	-9423
▁housing	-9424
extérieur	-9425
▁convient	-9426
▁domaines	-9427
▁multiples	-9428
▁grade	-9429
Afrique	-9430
administration	-9431
▁Retr	-9432
▁Action	-9433
▁export	-9434
▁totally	-9435
▁EU	-9436
▁Aqu	-9437
▁Ash	-9438
▁bike	-9439
▁German	-9440
▁fitness	-9441
▁fonctions	-9442
ican	-9443
▁Caf	-9444
▁Low	-9445
▁bac	-9446
▁synth	-9447
▁flexible	-9448
▁milliers	-9449
▁Brad	-9450
igueur	-9451
▁noter	-9452
▁vingt	-9453
▁Excell	-9454
▁médecin	-9455
uma	-9456
▁BL	-9457
▁HT	-9458
icher	-9459
▁Cand	-9460
▁myst	-9461
▁toward	-9462
▁plastique	-9463
▁électronique	-9464
aza	-9465
clé	-9466
illé	-9467
ints	-9468
▁var	-9469
ettre	-9470
▁kilom	-9471
angle	-9472
idden	-9473
▁debt	-9474
▁pump	-9475
▁enhance	-9476
▁province	-9477
▁Steve	-9478
rot	-9479
uaire	-9480
▁Spir	-9481
▁pandemic	-9482
▁principalement	-9483
écl	-9484
▁Very	-9485
▁gall	-9486
▁Resort	-9487
▁commitment	-9488
ALL	-9489
▁Afin	-9490
▁Fact	-9491
awa	-9492
odies	-9493
▁listen	-9494
▁willing	-9495
▁Thé	-9496
cepte	-9497
▁célé	-9498
▁maire	-9499
▁trees	-9500
▁strugg	-9501
▁binaires	-9502
▁negative	-9503
asters	-9504
▁Allem	-9505
▁Parmi	-9506
▁Silver	-9507
▁remise	-9508
▁détaill	-9509
ELL	-9510
▁Fa	-9511
iales	-9512
▁avanc	-9513
▁climate	-9514
▁feedback	-9515
▁44	-9516
▁Line	-9517
▁boat	-9518
▁scén	-9519
itoring	-9520
IQUE	-9521
ming	-9522
▁NOT	-9523
▁Russian	-9524
▁organisé	-9525
VC	-9526
ORE	-9527
union	-9528
▁ended	-9529
▁telle	-9530
▁demain	-9531
▁Library	-9532
▁tact	-9533
érieurs	-9534
ractions	-9535
▁election	-9536
▁toutefois	-9537
ears	-9538
road	-9539
olars	-9540
▁youth	-9541
▁courage	-9542
ulf	-9543
▁Exam	-9544
▁bloc	-9545
inners	-9546
▁lunch	-9547
▁Photos	-9548
▁covers	-9549
▁stated	-9550
▁introduced	-9551
If	-9552
ilé	-9553
rages	-9554
▁Cher	-9555
▁kick	-9556
▁lift	-9557
itations	-9558
▁Story	-9559
▁bilan	-9560
areness	-9561
▁combined	-9562
▁executive	-9563
▁Restaurant	-9564
▁dispositif	-9565
300	-9566
sen	-9567
ocks	-9568
▁pont	-9569
▁Small	-9570
▁personnage	-9571
ifiée	-9572
▁Tele	-9573
espère	-9574
incent	-9575
rentissage	-9576
▁dogs	-9577
▁liés	-9578
Advisor	-9579
lix	-9580
▁Ha	-9581
Nous	-9582
faire	-9583
▁Hello	-9584
▁serez	-9585
▁réception	-9586
évé	-9587
▁doux	-9588
▁élég	-9589
▁tarifs	-9590
▁recovery	-9591
▁Amb	-9592
▁américaine	-9593
DR	-9594
oween	-9595
▁deck	-9596
▁tient	-9597
▁replac	-9598
▁survey	-9599
oz	-9600
iest	-9601
rest	-9602
▁Lot	-9603
▁Does	-9604
▁Belle	-9605
▁leaves	-9606
▁entendu	-9607
▁contient	-9608
▁initiative	-9609
▁competitive	-9610
inv	-9611
mit	-9612
▁Dar	-9613
▁ait	-9614
▁Rand	-9615
▁sugar	-9616
▁utile	-9617
▁neighborhood	-9618
▁pun	-9619
▁cant	-9620
▁mens	-9621
▁Steel	-9622
▁principe	-9623
▁Protection	-9624
MI	-9625
pool	-9626
▁190	-9627
▁envis	-9628
▁calling	-9629
▁delicious	-9630
▁inn	-9631
▁north	-9632
ivalent	-9633
▁ticket	-9634
▁kg	-9635
▁aéri	-9636
▁danse	-9637
retagne	-9638
▁Justice	-9639
▁connexion	-9640
▁AG	-9641
▁UR	-9642
▁cock	-9643
entraî	-9644
▁Santa	-9645
▁douche	-9646
6)	-9647
Ou	-9648
ICE	-9649
rin	-9650
▁Fri	-9651
▁miner	-9652
▁voire	-9653
▁Little	-9654
▁mostly	-9655
▁veulent	-9656
▁candidates	-9657
aph	-9658
▁foc	-9659
▁conç	-9660
▁jack	-9661
▁employee	-9662
▁candidate	-9663
▁naturelle	-9664
▁Conference	-9665
▁university	-9666
▁spécialiste	-9667
For	-9668
delà	-9669
▁battle	-9670
▁locale	-9671
▁tableau	-9672
▁printemps	-9673
▁Bio	-9674
▁Arab	-9675
urgence	-9676
▁replace	-9677
▁simples	-9678
▁approved	-9679
fts	-9680
agent	-9681
asting	-9682
orough	-9683
▁extrême	-9684
▁Recherche	-9685
▁réglement	-9686
▁composition	-9687
▁propriétaire	-9688
icul	-9689
plate	-9690
▁forc	-9691
▁appareils	-9692
▁worldwide	-9693
Fr	-9694
tit	-9695
uple	-9696
▁Stone	-9697
▁guest	-9698
▁filled	-9699
▁script	-9700
▁Jackson	-9701
mentation	-9702
▁practical	-9703
▁principale	-9704
▁Sin	-9705
athan	-9706
▁moul	-9707
▁faute	-9708
▁lettre	-9709
▁formulaire	-9710
▁Télécharger	-9711
▁rect	-9712
▁quiet	-9713
▁Italian	-9714
▁instance	-9715
▁convenient	-9716
▁recherches	-9717
aked	-9718
▁11:	-9719
isans	-9720
moins	-9721
▁Magn	-9722
▁interface	-9723
▁médi	-9724
▁paix	-9725
▁adults	-9726
▁Building	-9727
▁centrale	-9728
VER	-9729
▁1:	-9730
▁Az	-9731
▁nar	-9732
▁Nick	-9733
▁edge	-9734
▁Safety	-9735
▁titres	-9736
▁settings	-9737
▁delivered	-9738
▁supported	-9739
▁semi	-9740
illets	-9741
▁throw	-9742
▁Transport	-9743
▁afternoon	-9744
▁financement	-9745
oti	-9746
gérie	-9747
▁Produ	-9748
▁dépend	-9749
▁animals	-9750
▁opérations	-9751
gue	-9752
▁bars	-9753
▁fourth	-9754
▁WH	-9755
▁Nav	-9756
abeth	-9757
▁2004	-9758
▁Chauss	-9759
▁prospect	-9760
▁confident	-9761
▁entertainment	-9762
▁(19	-9763
ologue	-9764
▁tranqu	-9765
▁signifie	-9766
▁providers	-9767
▁contribution	-9768
▁gun	-9769
idité	-9770
▁Leave	-9771
▁éclair	-9772
▁protected	-9773
PN	-9774
aro	-9775
hiver	-9776
night	-9777
▁vaut	-9778
▁signe	-9779
érateur	-9780
▁veille	-9781
▁holding	-9782
▁academic	-9783
acu	-9784
▁Vos	-9785
▁Bell	-9786
▁manip	-9787
▁sitting	-9788
▁division	-9789
▁boul	-9790
manuel	-9791
▁Coast	-9792
enue	-9793
▁Brun	-9794
▁bras	-9795
▁boîte	-9796
▁nettoyage	-9797
▁Mix	-9798
▁neut	-9799
icated	-9800
▁Camer	-9801
▁Updated	-9802
▁présents	-9803
▁DC	-9804
▁chief	-9805
▁error	-9806
▁théâtre	-9807
▁Williams	-9808
▁egg	-9809
▁pin	-9810
▁Blanc	-9811
▁limite	-9812
▁Students	-9813
▁SN	-9814
▁2.0	-9815
▁révél	-9816
▁Boston	-9817
▁Training	-9818
▁engineering	-9819
▁pne	-9820
▁tag	-9821
▁tôt	-9822
roits	-9823
▁Summer	-9824
▁removed	-9825
▁retraite	-9826
▁installer	-9827
41	-9828
itue	-9829
▁McC	-9830
▁Jenn	-9831
▁brown	-9832
▁appart	-9833
▁officiel	-9834
inent	-9835
▁Requ	-9836
▁thus	-9837
▁élevé	-9838
aluation	-9839
itecture	-9840
AA	-9841
bles	-9842
gets	-9843
▁Ron	-9844
berry	-9845
▁Hotels	-9846
▁jeunesse	-9847
▁victimes	-9848
▁specifically	-9849
race	-9850
éche	-9851
▁2021.	-9852
▁populaire	-9853
▁Ans	-9854
▁Trib	-9855
▁moit	-9856
▁Awards	-9857
▁depending	-9858
▁extraordin	-9859
▁effectively	-9860
ANS	-9861
▁ok	-9862
▁Mand	-9863
▁trend	-9864
▁Portug	-9865
▁syndic	-9866
▁contest	-9867
▁TripAdvisor	-9868
tech	-9869
acing	-9870
rants	-9871
▁fame	-9872
aching	-9873
▁Quest	-9874
▁Bureau	-9875
▁allons	-9876
▁supprim	-9877
▁surgery	-9878
▁(...)	-9879
▁divid	-9880
▁Respons	-9881
▁slightly	-9882
▁reference	-9883
hom	-9884
ogne	-9885
covery	-9886
▁Kitchen	-9887
▁intervention	-9888
▁indispensable	-9889
rs	-9890
irms	-9891
▁lam	-9892
▁2011,	-9893
▁except	-9894
▁parfaite	-9895
▁spok	-9896
▁crime	-9897
▁condam	-9898
▁topics	-9899
▁rénovation	-9900
▁gel	-9901
▁Case	-9902
▁hire	-9903
▁rental	-9904
▁ateliers	-9905
▁bringing	-9906
▁assurance	-9907
▁highlight	-9908
éter	-9909
▁kinds	-9910
▁arrière	-9911
ivez	-9912
outez	-9913
▁Bernard	-9914
▁anywhere	-9915
▁extension	-9916
▁advertising	-9917
/07	-9918
alo	-9919
log	-9920
alon	-9921
asts	-9922
▁Clin	-9923
▁Marine	-9924
▁filter	-9925
▁utilisés	-9926
▁supérieur	-9927
▁Professional	-9928
▁responsables	-9929
aa	-9930
ISS	-9931
▁rh	-9932
onna	-9933
▁Faites	-9934
▁textes	-9935
▁artisan	-9936
▁effectu	-9937
▁yesterday	-9938
▁180	-9939
uting	-9940
▁Analy	-9941
▁Domin	-9942
ographe	-9943
olo	-9944
▁sauv	-9945
▁island	-9946
▁changements	-9947
▁confortable	-9948
▁supplémentaires	-9949
abet	-9950
cert	-9951
▁rang	-9952
▁writer	-9953
▁Profess	-9954
▁pédagog	-9955
▁Toulouse	-9956
▁considering	-9957
éros	-9958
▁Name	-9959
othing	-9960
érapie	-9961
▁Loire	-9962
▁déche	-9963
▁tarif	-9964
▁crucial	-9965
ouc	-9966
olis	-9967
▁Wil	-9968
index	-9969
ospit	-9970
▁tenir	-9971
▁disque	-9972
▁Certains	-9973
▁Rub	-9974
▁gram	-9975
Ab	-9976
ted	-9977
with	-9978
▁Young	-9979
▁tissu	-9980
▁revient	-9981
▁lancement	-9982
▁spécifique	-9983
gs	-9984
reed	-9985
▁Hun	-9986
bration	-9987
▁Finance	-9988
iante	-9989
▁Cart	-9990
▁Right	-9991
▁feels	-9992
▁suffis	-9993
▁delight	-9994
▁household	-9995
folio	-9996
siers	-9997
▁rail	-9998
▁Galaxy	-9999
▁supérieure	-10000
▁établissements	-10001
ASS	-10002
▁dri	-10003
▁obst	-10004
▁serr	-10005
▁carbon	-10006
▁Account	-10007
▁functions	-10008
▁educational	-10009
42	-10010
▁Jim	-10011
ieuses	-10012
▁judic	-10013
▁stret	-10014
▁chiffre	-10015
▁Développ	-10016
exposition	-10017
▁compétition	-10018
▁confidential	-10019
▁scientifique	-10020
▁Iss	-10021
▁Barb	-10022
▁pâte	-10023
▁cable	-10024
▁Région	-10025
▁purchased	-10026
aland	-10027
▁soph	-10028
▁lumine	-10029
▁Current	-10030
▁chauffage	-10031
igé	-10032
ighter	-10033
▁Offic	-10034
▁attendre	-10035
▁Rencontre	-10036
▁featuring	-10037
▁sentiment	-10038
ANCE	-10039
news	-10040
▁die	-10041
ifiés	-10042
▁Juin	-10043
▁tennis	-10044
▁reached	-10045
▁installations	-10046
OUS	-10047
URE	-10048
▁Mort	-10049
terior	-10050
▁horiz	-10051
▁stable	-10052
0.	-10053
jan	-10054
▁fly	-10055
ailles	-10056
▁délég	-10057
▁desire	-10058
▁massive	-10059
▁demandes	-10060
OF	-10061
èce	-10062
▁tun	-10063
▁signs	-10064
▁classement	-10065
▁Construction	-10066
▁infrastructure	-10067
jo	-10068
▁Bath	-10069
▁shift	-10070
▁Employ	-10071
▁moitié	-10072
.'	-10073
wich	-10074
▁Lac	-10075
elled	-10076
▁Chef	-10077
▁trial	-10078
,...	-10079
▁Imp	-10080
▁nurs	-10081
▁Trois	-10082
▁détail	-10083
▁Carolina	-10084
▁privilég	-10085
▁upcoming	-10086
CS	-10087
▁Ak	-10088
oncer	-10089
nez	-10090
win	-10091
imag	-10092
roir	-10093
▁cig	-10094
▁lif	-10095
exerc	-10096
alisme	-10097
▁biens	-10098
▁japon	-10099
▁sable	-10100
▁tight	-10101
▁vieux	-10102
uxelles	-10103
▁sujets	-10104
▁anciens	-10105
▁modifier	-10106
▁contraire	-10107
▁déje	-10108
▁gran	-10109
▁improved	-10110
oue	-10111
▁Walk	-10112
▁cout	-10113
▁icon	-10114
lights	-10115
▁Pendant	-10116
▁choices	-10117
▁médical	-10118
▁Articles	-10119
▁Sciences	-10120
▁candidat	-10121
▁Win	-10122
▁Kids	-10123
▁dialogue	-10124
▁appearance	-10125
gie	-10126
ether	-10127
oquer	-10128
▁Baby	-10129
▁ring	-10130
▁wheel	-10131
honneur	-10132
▁edition	-10133
▁Australian	-10134
▁supporting	-10135
izz	-10136
▁faç	-10137
▁tea	-10138
force	-10139
▁Forex	-10140
▁Number	-10141
▁channel	-10142
▁pharmac	-10143
▁Manchester	-10144
▁pourraient	-10145
▁communications	-10146
BS	-10147
iph	-10148
▁Camb	-10149
▁perfectly	-10150
gress	-10151
idays	-10152
Esp	-10153
▁Image	-10154
▁movies	-10155
▁pointe	-10156
▁#1	-10157
▁QU	-10158
vient	-10159
▁Russia	-10160
iquement	-10161
IVE	-10162
▁::	-10163
▁voud	-10164
▁Books	-10165
▁element	-10166
▁seconds	-10167
▁wearing	-10168
bergement	-10169
4)	-10170
▁Jam	-10171
▁cake	-10172
▁faster	-10173
▁alcohol	-10174
▁hearing	-10175
▁collections	-10176
emn	-10177
ults	-10178
▁tox	-10179
▁Welcome	-10180
▁predict	-10181
dans	-10182
▁Référence	-10183
▁Sab	-10184
▁huit	-10185
▁Cloud	-10186
▁Trust	-10187
▁clearly	-10188
▁Commercial	-10189
▁tech	-10190
▁Columb	-10191
▁fermet	-10192
▁patron	-10193
▁concrete	-10194
▁consiste	-10195
itée	-10196
▁Pur	-10197
▁revealed	-10198
▁conscience	-10199
eper	-10200
▁Three	-10201
▁goods	-10202
▁thick	-10203
▁école	-10204
▁database	-10205
▁effectuer	-10206
▁Sky	-10207
▁rear	-10208
▁cache	-10209
▁louer	-10210
▁Process	-10211
▁régions	-10212
▁extensive	-10213
ipedia	-10214
▁Credit	-10215
▁attentes	-10216
▁économiques	-10217
▁informatique	-10218
▁CF	-10219
▁gym	-10220
▁Scot	-10221
isodes	-10222
mettre	-10223
▁étapes	-10224
▁grinding	-10225
avis	-10226
▁Tok	-10227
▁regr	-10228
▁méthodes	-10229
▁regularly	-10230
▁Tag	-10231
▁pra	-10232
▁sert	-10233
obtenir	-10234
▁attent	-10235
▁atelier	-10236
▁Virginia	-10237
▁ourselves	-10238
OK	-10239
▁360	-10240
▁Prin	-10241
▁chosen	-10242
▁matern	-10243
▁shower	-10244
▁46	-10245
▁Tog	-10246
▁Effect	-10247
▁rentrée	-10248
▁vacation	-10249
▁CE	-10250
▁III	-10251
▁tro	-10252
▁batterie	-10253
HS	-10254
Qu	-10255
clos	-10256
fond	-10257
▁Fall	-10258
▁Modern	-10259
▁frust	-10260
▁butter	-10261
ialement	-10262
▁greatest	-10263
▁certainement	-10264
▁DJ	-10265
▁Bru	-10266
avance	-10267
▁2015.	-10268
▁resol	-10269
▁cutting	-10270
▁responsibility	-10271
anish	-10272
oppos	-10273
▁Easy	-10274
▁fraî	-10275
▁hyper	-10276
▁taxes	-10277
▁explos	-10278
▁stages	-10279
▁Toronto	-10280
▁Engineering	-10281
érir	-10282
▁conçu	-10283
▁Singap	-10284
▁apporte	-10285
▁cultural	-10286
▁voyageurs	-10287
ua	-10288
▁Six	-10289
usage	-10290
▁Soph	-10291
ilibre	-10292
ilation	-10293
▁incroy	-10294
▁chinois	-10295
▁Monsieur	-10296
▁featured	-10297
▁registered	-10298
▁Fut	-10299
▁Vit	-10300
▁Brook	-10301
▁convain	-10302
▁importants	-10303
▁obligatoire	-10304
ials	-10305
▁Kat	-10306
▁Sus	-10307
itées	-10308
▁clar	-10309
▁rule	-10310
▁grave	-10311
▁Mexico	-10312
▁performed	-10313
My	-10314
iami	-10315
rial	-10316
▁Phone	-10317
▁tours	-10318
▁Madrid	-10319
▁répart	-10320
▁guarantee	-10321
Et	-10322
ador	-10323
amer	-10324
▁Sir	-10325
▁iOS	-10326
▁Those	-10327
▁dépos	-10328
▁immédiatement	-10329
▁Ask	-10330
ellite	-10331
▁Terre	-10332
▁désir	-10333
▁Retrouvez	-10334
▁industries	-10335
ulty	-10336
▁brit	-10337
▁régl	-10338
▁shoes	-10339
▁banque	-10340
▁library	-10341
▁PD	-10342
Cont	-10343
▁Vie	-10344
▁milk	-10345
▁pale	-10346
▁pouvant	-10347
▁standing	-10348
plois	-10349
▁Côte	-10350
▁canad	-10351
▁veter	-10352
▁lights	-10353
▁sciences	-10354
▁lifestyle	-10355
▁intéressant	-10356
73	-10357
▁Li	-10358
anth	-10359
serv	-10360
▁Guy	-10361
ccess	-10362
▁Maybe	-10363
endrier	-10364
ultural	-10365
▁manner	-10366
▁Station	-10367
▁described	-10368
▁collective	-10369
▁MD	-10370
agir	-10371
▁Fig	-10372
▁Anton	-10373
▁overs	-10374
rétaire	-10375
▁puisqu	-10376
▁Quality	-10377
▁chiffres	-10378
▁critique	-10379
▁valuable	-10380
▁rug	-10381
▁neur	-10382
▁colon	-10383
quality	-10384
▁statut	-10385
▁compact	-10386
▁constat	-10387
▁electronic	-10388
raw	-10389
bing	-10390
utch	-10391
▁12:	-10392
▁Civ	-10393
▁cann	-10394
▁frag	-10395
uetooth	-10396
po	-10397
▁Esc	-10398
▁Tunis	-10399
▁luxury	-10400
▁monthly	-10401
▁accurate	-10402
▁otherwise	-10403
▁préd	-10404
▁Style	-10405
▁analyse	-10406
▁rappelle	-10407
▁Mme	-10408
▁vary	-10409
▁audit	-10410
▁tiers	-10411
▁Nantes	-10412
▁Canadian	-10413
▁shooting	-10414
ésie	-10415
Press	-10416
▁boute	-10417
▁législ	-10418
▁romant	-10419
isations	-10420
▁trés	-10421
▁gourm	-10422
▁ajouté	-10423
▁routes	-10424
▁sample	-10425
▁stands	-10426
▁planned	-10427
▁voyages	-10428
▁discovered	-10429
▁(9	-10430
▁GM	-10431
riez	-10432
▁Tru	-10433
▁plays	-10434
▁regul	-10435
▁Albert	-10436
▁Double	-10437
▁appelé	-10438
▁CS	-10439
site	-10440
▁Try	-10441
/2016	-10442
ourir	-10443
▁Jord	-10444
▁Sous	-10445
▁Tool	-10446
▁2010,	-10447
▁Motor	-10448
▁entour	-10449
▁Personal	-10450
▁resource	-10451
▁troubles	-10452
▁Francisco	-10453
ppe	-10454
primer	-10455
▁teeth	-10456
▁soutenir	-10457
▁intellect	-10458
hyd	-10459
▁drag	-10460
▁doubt	-10461
▁débat	-10462
▁killed	-10463
▁EP	-10464
▁Rs	-10465
▁Der	-10466
▁dois	-10467
▁sauf	-10468
▁relief	-10469
▁totale	-10470
▁married	-10471
▁approche	-10472
▁Americans	-10473
▁largement	-10474
lit	-10475
____	-10476
▁Lun	-10477
▁Ni	-10478
onnés	-10479
▁meal	-10480
▁musée	-10481
▁cheese	-10482
▁figures	-10483
▁Executive	-10484
7)	-10485
lise	-10486
▁Harry	-10487
▁indique	-10488
édération	-10489
▁Assistant	-10490
wear	-10491
▁Dès	-10492
▁compare	-10493
▁légumes	-10494
▁stations	-10495
just	-10496
▁Bat	-10497
▁spa	-10498
opter	-10499
ridge	-10500
▁eleg	-10501
▁Faire	-10502
▁Pract	-10503
▁affili	-10504
▁orange	-10505
▁Federal	-10506
▁essayer	-10507
▁Plusieurs	-10508
ifer	-10509
oqué	-10510
alism	-10511
ilton	-10512
▁Kong	-10513
▁neck	-10514
▁Catég	-10515
▁therapy	-10516
▁Quelques	-10517
wa	-10518
▁Force	-10519
▁Paper	-10520
▁Posts	-10521
▁Quelle	-10522
▁circum	-10523
▁croire	-10524
▁Airport	-10525
RS	-10526
Tra	-10527
ista	-10528
▁inde	-10529
mission	-10530
▁flowers	-10531
▁alimentaire	-10532
▁appointment	-10533
▁configuration	-10534
72	-10535
BI	-10536
aints	-10537
stone	-10538
▁cells	-10539
▁fixed	-10540
▁normes	-10541
▁secondes	-10542
▁vérifier	-10543
▁Da	-10544
atric	-10545
▁Dream	-10546
▁Tagged	-10547
▁offert	-10548
▁chicken	-10549
▁évidemment	-10550
▁anniversaire	-10551
bel	-10552
ugh	-10553
ucle	-10554
▁Tou	-10555
amine	-10556
▁barre	-10557
▁tourisme	-10558
▁Experience	-10559
http	-10560
ansas	-10561
entin	-10562
▁cass	-10563
▁Having	-10564
▁Londres	-10565
▁prolong	-10566
▁appeared	-10567
▁buildings	-10568
▁diffusion	-10569
▁certification	-10570
▁SK	-10571
▁Dés	-10572
▁Tick	-10573
▁river	-10574
ainless	-10575
▁atteint	-10576
▁symptoms	-10577
86	-10578
-11	-10579
▁Sony	-10580
▁issued	-10581
▁comptes	-10582
▁automobile	-10583
ika	-10584
▁Anth	-10585
▁Iran	-10586
▁achat	-10587
affaire	-10588
anmoins	-10589
ribution	-10590
▁Japanese	-10591
▁stunning	-10592
▁professeur	-10593
rég	-10594
▁ox	-10595
ring	-10596
▁Bab	-10597
olesc	-10598
▁Cuis	-10599
▁flav	-10600
▁servi	-10601
iveness	-10602
▁métiers	-10603
▁réussite	-10604
ignée	-10605
▁Pict	-10606
▁quas	-10607
▁Money	-10608
▁Short	-10609
▁ouvrir	-10610
▁inspired	-10611
▁receiving	-10612
arks	-10613
▁Tay	-10614
arrêt	-10615
irurg	-10616
▁Grat	-10617
▁bond	-10618
▁Enjoy	-10619
▁prepar	-10620
▁artific	-10621
▁hundreds	-10622
arry	-10623
irect	-10624
roche	-10625
▁Java	-10626
▁Looking	-10627
▁creation	-10628
isk	-10629
▁Pin	-10630
▁confirmed	-10631
▁respecter	-10632
▁lu	-10633
▁Ache	-10634
▁reprise	-10635
▁_	-10636
aka	-10637
tery	-10638
▁Mét	-10639
chent	-10640
▁inqu	-10641
▁parad	-10642
▁trail	-10643
▁blanche	-10644
▁appreciate	-10645
ocat	-10646
sian	-10647
class	-10648
exist	-10649
▁Select	-10650
▁Strateg	-10651
▁réserve	-10652
▁Holl	-10653
▁luxe	-10654
▁soup	-10655
▁obtenu	-10656
▁gratuits	-10657
▁montagne	-10658
bra	-10659
▁CBD	-10660
▁Vin	-10661
▁Pont	-10662
▁intens	-10663
atherine	-10664
▁tort	-10665
▁Résult	-10666
ragon	-10667
▁gear	-10668
▁decre	-10669
▁Jersey	-10670
▁interp	-10671
▁unless	-10672
roniques	-10673
▁revenus	-10674
▁warrant	-10675
▁internation	-10676
▁HP	-10677
▁Plat	-10678
iteurs	-10679
▁answers	-10680
▁visiting	-10681
▁faciliter	-10682
▁investigation	-10683
GA	-10684
▁978	-10685
aider	-10686
▁Band	-10687
▁sizes	-10688
artiste	-10689
▁biblioth	-10690
▁outstanding	-10691
")	-10692
asions	-10693
ushing	-10694
ussion	-10695
▁Staff	-10696
écurité	-10697
▁Nations	-10698
▁pierres	-10699
▁supplies	-10700
▁personnelles	-10701
tle	-10702
reté	-10703
plant	-10704
▁bowl	-10705
▁solo	-10706
▁jolie	-10707
▁affected	-10708
▁chocolate	-10709
News	-10710
▁Voilà	-10711
▁Premium	-10712
▁suivantes	-10713
orges	-10714
▁pauv	-10715
▁Should	-10716
▁principales	-10717
▁Chez	-10718
▁superbe	-10719
▁merveille	-10720
▁renforcer	-10721
/5	-10722
TP	-10723
▁XV	-10724
books	-10725
oking	-10726
▁bour	-10727
formes	-10728
écoute	-10729
▁solar	-10730
êtement	-10731
▁Regard	-10732
▁adultes	-10733
▁privacy	-10734
▁sympath	-10735
▁concerned	-10736
▁financière	-10737
rooms	-10738
▁rating	-10739
▁coordin	-10740
▁searching	-10741
away	-10742
grad	-10743
mann	-10744
▁alt	-10745
érieures	-10746
▁cooking	-10747
▁celebrate	-10748
▁improvement	-10749
▁residential	-10750
see	-10751
▁Circ	-10752
▁tail	-10753
▁pêche	-10754
▁factor	-10755
▁manual	-10756
▁readers	-10757
HA	-10758
agen	-10759
▁dish	-10760
▁tire	-10761
▁Vegas	-10762
▁imagine	-10763
▁Colorado	-10764
▁secteurs	-10765
▁procédure	-10766
▁healthcare	-10767
▁architecture	-10768
ombre	-10769
espite	-10770
market	-10771
▁paying	-10772
ographique	-10773
▁forcément	-10774
▁BM	-10775
▁nine	-10776
sembly	-10777
▁Website	-10778
▁complexe	-10779
▁interact	-10780
▁registration	-10781
▁Gas	-10782
▁Jer	-10783
▁LLC	-10784
▁sister	-10785
▁Industry	-10786
▁Pakistan	-10787
▁participate	-10788
▁probablement	-10789
sect	-10790
▁Occ	-10791
▁Ohio	-10792
▁Xbox	-10793
acheter	-10794
▁depend	-10795
▁respir	-10796
▁pregn	-10797
▁licens	-10798
▁parfum	-10799
ls	-10800
▁Mas	-10801
▁Rog	-10802
inton	-10803
itate	-10804
▁Base	-10805
▁Mean	-10806
▁bure	-10807
▁poker	-10808
chain	-10809
▁Coff	-10810
▁Berlin	-10811
▁crisis	-10812
▁Vincent	-10813
▁reduced	-10814
▁Michigan	-10815
▁scheduled	-10816
▁surveillance	-10817
▁Gren	-10818
▁souc	-10819
weight	-10820
▁Villa	-10821
▁courts	-10822
▁Vietnam	-10823
▁defense	-10824
▁incident	-10825
71	-10826
Go	-10827
iden	-10828
▁défi	-10829
▁assets	-10830
▁Collect	-10831
▁Natural	-10832
▁explain	-10833
▁transaction	-10834
andre	-10835
▁fini	-10836
▁radi	-10837
ueille	-10838
▁bread	-10839
▁gorge	-10840
▁incredible	-10841
ILLE	-10842
poses	-10843
▁Diam	-10844
▁clip	-10845
▁myth	-10846
▁Malgré	-10847
▁Chambre	-10848
▁pleased	-10849
▁Property	-10850
▁stockage	-10851
Be	-10852
INT	-10853
▁59	-10854
▁drugs	-10855
▁neige	-10856
▁sides	-10857
ho	-10858
▁Tel	-10859
▁bét	-10860
▁nor	-10861
▁yes	-10862
▁coast	-10863
▁Russie	-10864
▁thread	-10865
▁humaine	-10866
▁équipée	-10867
▁fournisseurs	-10868
ît	-10869
what	-10870
▁multipl	-10871
▁payments	-10872
edes	-10873
▁Rue	-10874
▁weak	-10875
▁auteurs	-10876
▁ressort	-10877
▁99	-10878
▁pi	-10879
icit	-10880
iqués	-10881
▁avail	-10882
annique	-10883
▁Village	-10884
▁compatible	-10885
▁arrived	-10886
▁locales	-10887
▁television	-10888
enter	-10889
▁Info	-10890
▁salt	-10891
excell	-10892
▁Quick	-10893
▁Sainte	-10894
▁routine	-10895
▁Appartement	-10896
rum	-10897
ibil	-10898
ikes	-10899
otive	-10900
igible	-10901
▁facing	-10902
▁mainly	-10903
▁interpr	-10904
▁Mountain	-10905
▁sociales	-10906
▁extérieur	-10907
▁manufacturers	-10908
jou	-10909
bell	-10910
tein	-10911
charg	-10912
▁Jobs	-10913
alysis	-10914
▁cérém	-10915
▁plats	-10916
antages	-10917
asbourg	-10918
▁balcon	-10919
▁elimin	-10920
▁texture	-10921
▁painting	-10922
▁brut	-10923
▁savez	-10924
▁realize	-10925
▁actuelle	-10926
▁critères	-10927
▁Bruxelles	-10928
▁Formation	-10929
bury	-10930
érés	-10931
aitre	-10932
▁ciel	-10933
urrent	-10934
▁laser	-10935
▁Middle	-10936
▁bigger	-10937
▁cooper	-10938
▁operate	-10939
▁identified	-10940
▁replacement	-10941
▁automatically	-10942
PD	-10943
case	-10944
glise	-10945
quant	-10946
▁foll	-10947
▁Event	-10948
▁tester	-10949
▁inspiration	-10950
▁MON	-10951
▁nov	-10952
▁Prim	-10953
reland	-10954
▁Country	-10955
▁lighting	-10956
ibl	-10957
▁houses	-10958
▁native	-10959
▁logements	-10960
%)	-10961
iere	-10962
iesel	-10963
▁iPad	-10964
▁hosting	-10965
▁mauvais	-10966
▁contacts	-10967
▁constitue	-10968
infl	-10969
ignants	-10970
▁detect	-10971
itiative	-10972
▁oublier	-10973
▁suivante	-10974
aéroport	-10975
▁behavior	-10976
IO	-10977
icide	-10978
▁begins	-10979
▁tension	-10980
▁collectif	-10981
▁9.	-10982
▁ME	-10983
idéo	-10984
▁31,	-10985
▁sel	-10986
lande	-10987
▁réal	-10988
▁portée	-10989
▁brother	-10990
▁constitution	-10991
/4	-10992
autes	-10993
rating	-10994
▁Miami	-10995
obby	-10996
▁Cin	-10997
There	-10998
▁Auteur	-10999
▁emploi	-11000
▁extended	-11001
▁56	-11002
▁revanche	-11003
▁initiatives	-11004
eu	-11005
▁RT	-11006
ésil	-11007
▁Lor	-11008
▁sad	-11009
alisé	-11010
▁gaming	-11011
▁context	-11012
▁Politique	-11013
▁énergétique	-11014
irts	-11015
édie	-11016
▁Jos	-11017
▁comité	-11018
▁airport	-11019
▁ongoing	-11020
▁expliqué	-11021
▁assistant	-11022
CR	-11023
qués	-11024
tics	-11025
▁Total	-11026
▁foods	-11027
▁peuple	-11028
▁expériment	-11029
▁spécifiques	-11030
▁Kevin	-11031
▁Simon	-11032
▁knowing	-11033
▁pouvait	-11034
▁Attention	-11035
aha	-11036
▁pel	-11037
▁Fant	-11038
▁glad	-11039
▁billet	-11040
▁poudre	-11041
igration	-11042
▁lesquels	-11043
▁disappoint	-11044
▁significantly	-11045
ete	-11046
pin	-11047
▁(6	-11048
endo	-11049
inery	-11050
▁Ryan	-11051
estation	-11052
▁devraient	-11053
phas	-11054
▁Bonne	-11055
▁sheet	-11056
▁fields	-11057
▁trends	-11058
étranger	-11059
▁Instead	-11060
▁citoyens	-11061
▁matières	-11062
▁proposed	-11063
▁surfaces	-11064
▁Equipment	-11065
bn	-11066
made	-11067
▁Nat	-11068
▁Macron	-11069
▁Limited	-11070
fs	-11071
▁amour	-11072
▁remont	-11073
émission	-11074
59	-11075
aped	-11076
ghan	-11077
▁conviv	-11078
▁height	-11079
▁réservation	-11080
mod	-11081
▁Stan	-11082
▁module	-11083
▁resort	-11084
▁utiles	-11085
▁listing	-11086
▁motivation	-11087
▁Wars	-11088
▁vise	-11089
▁Visit	-11090
▁Which	-11091
▁holds	-11092
▁morts	-11093
unction	-11094
▁remote	-11095
▁conflic	-11096
▁déchets	-11097
▁vintage	-11098
quisition	-11099
▁regional	-11100
crib	-11101
▁2013.	-11102
▁forest	-11103
▁chaleure	-11104
importance	-11105
▁employment	-11106
ev	-11107
lyn	-11108
power	-11109
▁1999	-11110
▁Tips	-11111
▁alle	-11112
▁crée	-11113
▁dang	-11114
icient	-11115
▁failed	-11116
What	-11117
▁hur	-11118
▁carb	-11119
▁Labor	-11120
▁caught	-11121
▁female	-11122
▁silver	-11123
▁plateau	-11124
▁résistance	-11125
▁Corporation	-11126
gen	-11127
▁52	-11128
▁Mu	-11129
abol	-11130
pellier	-11131
▁toiture	-11132
▁victory	-11133
▁surrounding	-11134
rowse	-11135
▁Dark	-11136
▁Wind	-11137
▁fier	-11138
études	-11139
▁figur	-11140
▁broken	-11141
▁traite	-11142
▁cuisson	-11143
▁domestic	-11144
▁entretien	-11145
mo	-11146
bas	-11147
pack	-11148
pter	-11149
▁teen	-11150
▁Roman	-11151
▁Entert	-11152
▁papers	-11153
▁platforms	-11154
▁artistique	-11155
▁challenging	-11156
▁Os	-11157
Read	-11158
ilib	-11159
▁twice	-11160
▁interne	-11161
▁commandes	-11162
▁restauration	-11163
▁1/2	-11164
▁Spr	-11165
▁Harr	-11166
▁tank	-11167
▁qualified	-11168
▁transactions	-11169
iée	-11170
▁Sea	-11171
▁Adam	-11172
▁Happy	-11173
▁eventually	-11174
▁commerciale	-11175
:45	-11176
▁3-	-11177
▁78	-11178
nant	-11179
liance	-11180
▁aspir	-11181
▁repos	-11182
▁Ireland	-11183
▁discussions	-11184
osse	-11185
▁Pic	-11186
▁acid	-11187
▁Stéph	-11188
▁integ	-11189
▁county	-11190
▁décide	-11191
▁agencies	-11192
OY	-11193
cor	-11194
oyez	-11195
▁2014.	-11196
▁paire	-11197
▁recev	-11198
rédients	-11199
▁Private	-11200
▁cadeaux	-11201
▁freedom	-11202
▁concepts	-11203
▁feuilles	-11204
▁publiques	-11205
▁dirigeants	-11206
▁kilomètres	-11207
▁établissement	-11208
pg	-11209
rolog	-11210
tario	-11211
Pierre	-11212
▁Pharm	-11213
▁index	-11214
▁Change	-11215
▁Inv	-11216
▁Lic	-11217
▁Capt	-11218
▁boss	-11219
▁cach	-11220
▁ends	-11221
orship	-11222
▁Break	-11223
▁natur	-11224
▁ambiance	-11225
▁contemporary	-11226
où	-11227
▁//	-11228
▁goû	-11229
haust	-11230
▁Events	-11231
▁Ensuite	-11232
▁faisait	-11233
▁déjeuner	-11234
▁medicine	-11235
▁révolution	-11236
▁presentation	-11237
▁CG	-11238
▁Think	-11239
▁advis	-11240
▁noted	-11241
▁retard	-11242
▁spaces	-11243
▁Further	-11244
SI	-11245
igo	-11246
ufs	-11247
home	-11248
▁Hab	-11249
▁Pil	-11250
▁bru	-11251
▁fib	-11252
owned	-11253
▁curr	-11254
▁sérieux	-11255
▁typical	-11256
▁Division	-11257
▁birthday	-11258
▁purposes	-11259
▁réalisée	-11260
▁dimensions	-11261
▁meat	-11262
access	-11263
▁Large	-11264
▁devoir	-11265
▁parole	-11266
▁récomp	-11267
▁43	-11268
▁Size	-11269
▁bound	-11270
▁recover	-11271
▁meetings	-11272
▁potentiel	-11273
UC	-11274
/2013	-11275
habit	-11276
▁synd	-11277
▁lived	-11278
▁bouton	-11279
▁47	-11280
▁50%	-11281
▁Aux	-11282
▁ham	-11283
astern	-11284
▁Square	-11285
▁Learning	-11286
No	-11287
yers	-11288
▁chev	-11289
▁fulf	-11290
▁gout	-11291
▁Psych	-11292
▁belong	-11293
▁clinical	-11294
▁proposent	-11295
▁championnat	-11296
▁supplémentaire	-11297
arre	-11298
▁aqu	-11299
▁Italy	-11300
▁cheval	-11301
friendly	-11302
interest	-11303
▁speaking	-11304
▁Sometimes	-11305
▁intention	-11306
▁frequently	-11307
RC	-11308
ubs	-11309
stal	-11310
▁Vac	-11311
▁keeps	-11312
▁tenter	-11313
▁carried	-11314
▁heating	-11315
▁instruct	-11316
▁determined	-11317
▁successfully	-11318
▁''	-11319
▁OK	-11320
▁ol	-11321
▁Host	-11322
ouvoir	-11323
▁coiff	-11324
▁physi	-11325
▁league	-11326
▁matters	-11327
▁reconst	-11328
agra	-11329
▁Mom	-11330
inaires	-11331
▁officer	-11332
▁déclaration	-11333
▁Ox	-11334
▁Chois	-11335
▁bases	-11336
▁output	-11337
▁téléph	-11338
▁visites	-11339
▁constantly	-11340
▁integrated	-11341
▁procedures	-11342
erman	-11343
œuvre	-11344
▁Bout	-11345
▁métal	-11346
▁orders	-11347
▁réparation	-11348
anz	-11349
irty	-11350
link	-11351
▁Ill	-11352
owers	-11353
umeur	-11354
quette	-11355
▁crack	-11356
▁layer	-11357
▁humain	-11358
▁amateurs	-11359
▁Programme	-11360
01	-11361
▁Ba	-11362
adium	-11363
▁chargé	-11364
▁Gestion	-11365
▁browser	-11366
▁Standard	-11367
▁suppliers	-11368
ito	-11369
▁Né	-11370
▁rond	-11371
earing	-11372
▁Broad	-11373
▁monitoring	-11374
ACK	-11375
ilst	-11376
porte	-11377
▁(200	-11378
▁Though	-11379
▁charme	-11380
▁submit	-11381
▁Mission	-11382
▁foundation	-11383
foot	-11384
inson	-11385
▁Font	-11386
▁toit	-11387
▁finir	-11388
▁pluie	-11389
▁organic	-11390
▁transports	-11391
peut	-11392
▁vaste	-11393
issante	-11394
▁planète	-11395
▁equipped	-11396
▁utilisée	-11397
BO	-11398
▁Docu	-11399
▁plong	-11400
▁villa	-11401
▁magasins	-11402
▁réflexion	-11403
▁âge	-11404
ockey	-11405
words	-11406
▁vast	-11407
▁éche	-11408
▁2012.	-11409
entions	-11410
▁agreed	-11411
FF	-11412
LA	-11413
PP	-11414
yst	-11415
▁Ever	-11416
▁draft	-11417
▁interm	-11418
▁Despite	-11419
▁diverse	-11420
▁mortgage	-11421
▁téléchargement	-11422
heless	-11423
orized	-11424
diction	-11425
▁discours	-11426
▁awareness	-11427
▁possibles	-11428
▁accueillir	-11429
alimentation	-11430
oft	-11431
Saint	-11432
▁Intro	-11433
▁voulu	-11434
▁license	-11435
▁external	-11436
▁Resources	-11437
▁exposition	-11438
boy	-11439
▁SM	-11440
▁lad	-11441
agnol	-11442
irmer	-11443
▁bénév	-11444
▁poche	-11445
▁tasks	-11446
▁solide	-11447
▁returned	-11448
▁Strasbourg	-11449
▁légèrement	-11450
▁expectations	-11451
▁Bol	-11452
▁Deb	-11453
▁Jeu	-11454
▁Bible	-11455
▁Reply	-11456
▁arrivée	-11457
▁dossiers	-11458
▁Directeur	-11459
▁clientèle	-11460
▁TX	-11461
▁véc	-11462
aceut	-11463
▁Model	-11464
▁guitar	-11465
▁nearby	-11466
▁réserver	-11467
▁originale	-11468
▁entrepreneurs	-11469
Act	-11470
▁CV	-11471
▁Map	-11472
endue	-11473
▁dict	-11474
▁faveur	-11475
▁winner	-11476
▁leather	-11477
▁coaching	-11478
.-	-11479
dent	-11480
▁vols	-11481
pected	-11482
▁episode	-11483
▁catalogue	-11484
lla	-11485
▁Cos	-11486
▁filed	-11487
▁fenêtre	-11488
▁licence	-11489
▁accepted	-11490
▁citizens	-11491
▁guidance	-11492
▁interven	-11493
▁financier	-11494
rem	-11495
upe	-11496
▁Ut	-11497
▁Conn	-11498
▁modes	-11499
▁contro	-11500
▁oeuvre	-11501
▁stocks	-11502
▁attorney	-11503
▁intended	-11504
▁managing	-11505
▁rédaction	-11506
▁fo	-11507
olid	-11508
▁Nut	-11509
/2014	-11510
▁Corn	-11511
▁conce	-11512
▁léger	-11513
▁stade	-11514
▁vaccin	-11515
▁experiment	-11516
▁spécialisée	-11517
ACT	-11518
▁owned	-11519
▁Commerce	-11520
inscription	-11521
equ	-11522
anny	-11523
▁Bag	-11524
▁Run	-11525
avons	-11526
lever	-11527
▁Cham	-11528
▁joie	-11529
▁délai	-11530
▁grown	-11531
related	-11532
▁seemed	-11533
▁Houston	-11534
▁choosing	-11535
Me	-11536
adow	-11537
iciens	-11538
▁crash	-11539
▁renew	-11540
▁sympa	-11541
▁viens	-11542
▁decades	-11543
▁Aub	-11544
▁pit	-11545
▁Chap	-11546
▁Grow	-11547
▁Mise	-11548
▁Treat	-11549
quences	-11550
▁dehors	-11551
▁Message	-11552
▁chantier	-11553
▁thorough	-11554
▁strategic	-11555
▁resolution	-11556
▁(@	-11557
rable	-11558
▁murs	-11559
▁Henry	-11560
▁auront	-11561
▁offrant	-11562
▁conduite	-11563
▁militaire	-11564
▁incontourn	-11565
▁41	-11566
amic	-11567
mans	-11568
▁eaux	-11569
▁faux	-11570
▁scre	-11571
quence	-11572
▁décès	-11573
ènement	-11574
OI	-11575
IEN	-11576
▁2:	-11577
agés	-11578
ucky	-11579
▁Gir	-11580
▁dév	-11581
https	-11582
▁liées	-11583
▁Georgia	-11584
▁longueur	-11585
▁Therefore	-11586
iac	-11587
▁Oak	-11588
eront	-11589
estes	-11590
uclear	-11591
▁Venez	-11592
instant	-11593
▁enjeux	-11594
▁employés	-11595
▁attendant	-11596
▁carefully	-11597
▁suggestions	-11598
10.	-11599
OUT	-11600
▁Sou	-11601
▁Cours	-11602
▁Islam	-11603
▁pilote	-11604
▁terrible	-11605
▁collaborateurs	-11606
▁fonctionnalités	-11607
amel	-11608
▁(2)	-11609
▁doig	-11610
▁dose	-11611
▁récl	-11612
▁Alain	-11613
▁cabin	-11614
▁Pacific	-11615
▁Reading	-11616
▁analyst	-11617
▁species	-11618
▁trained	-11619
▁garantir	-11620
▁commerces	-11621
▁recommande	-11622
▁BB	-11623
usqu	-11624
▁Bor	-11625
▁nic	-11626
▁Peut	-11627
▁inéd	-11628
▁missed	-11629
innovation	-11630
400	-11631
olé	-11632
▁Od	-11633
hist	-11634
▁ISBN	-11635
▁degrees	-11636
you	-11637
onda	-11638
▁Wat	-11639
ardins	-11640
▁Heart	-11641
elligence	-11642
▁trouvent	-11643
▁proposition	-11644
▁Administration	-11645
▁vain	-11646
▁jaune	-11647
▁powder	-11648
▁casinos	-11649
▁intense	-11650
▁everyday	-11651
▁impressive	-11652
▁Crit	-11653
▁expression	-11654
HT	-11655
oly	-11656
▁Ty	-11657
▁Coc	-11658
▁yoga	-11659
▁accéder	-11660
▁Bretagne	-11661
▁développé	-11662
▁expériences	-11663
▁propriétaires	-11664
▁69	-11665
iane	-11666
▁Coup	-11667
▁hybr	-11668
▁tube	-11669
▁Spanish	-11670
▁offices	-11671
▁incorpor	-11672
▁marriage	-11673
▁Direction	-11674
▁électriques	-11675
abis	-11676
▁Term	-11677
▁moto	-11678
▁répar	-11679
▁Classic	-11680
▁absolument	-11681
▁Dj	-11682
▁Fox	-11683
▁Ton	-11684
▁baign	-11685
▁doubl	-11686
▁urban	-11687
▁diplom	-11688
▁earned	-11689
▁sacrif	-11690
▁Privacy	-11691
▁treated	-11692
▁administrative	-11693
/2	-11694
ôts	-11695
aron	-11696
hire	-11697
▁boys	-11698
▁folks	-11699
▁bouche	-11700
▁prompt	-11701
▁revenu	-11702
▁invités	-11703
▁restent	-11704
▁diagnostic	-11705
uces	-11706
▁mit	-11707
▁inch	-11708
ustral	-11709
▁valor	-11710
▁speech	-11711
▁charged	-11712
▁pollution	-11713
▁automatiquement	-11714
61	-11715
ione	-11716
chons	-11717
▁2003	-11718
▁maman	-11719
▁Winter	-11720
▁buyers	-11721
▁motion	-11722
▁involve	-11723
▁assessment	-11724
Te	-11725
suit	-11726
zona	-11727
allée	-11728
▁Must	-11729
imately	-11730
▁fournit	-11731
eria	-11732
iège	-11733
▁Has	-11734
rient	-11735
▁juge	-11736
▁Being	-11737
▁brace	-11738
ajouter	-11739
▁chasse	-11740
▁Student	-11741
▁conducted	-11742
▁excellente	-11743
aze	-11744
▁Spa	-11745
ading	-11746
asant	-11747
gling	-11748
shire	-11749
▁Chat	-11750
▁FREE	-11751
▁ease	-11752
▁ital	-11753
▁joli	-11754
▁acier	-11755
▁proof	-11756
▁vraie	-11757
▁étage	-11758
▁closer	-11759
commerce	-11760
▁swimming	-11761
Off	-11762
▁Rab	-11763
under	-11764
▁Mater	-11765
hétique	-11766
▁bijoux	-11767
▁phénom	-11768
▁Nouveau	-11769
installer	-11770
▁reporting	-11771
▁58	-11772
pson	-11773
▁Emb	-11774
orith	-11775
▁defe	-11776
▁Lille	-11777
▁horse	-11778
▁input	-11779
▁Images	-11780
▁affaire	-11781
▁portion	-11782
▁Southern	-11783
▁announce	-11784
▁historical	-11785
▁restrictions	-11786
itect	-11787
owing	-11788
reuve	-11789
▁adds	-11790
▁signé	-11791
▁linked	-11792
élection	-11793
▁spectac	-11794
ti	-11795
real	-11796
▁700	-11797
▁Kent	-11798
▁slot	-11799
▁walls	-11800
▁examples	-11801
▁maladies	-11802
▁proposés	-11803
▁improving	-11804
▁introduction	-11805
</	-11806
▁IV	-11807
reur	-11808
allas	-11809
armée	-11810
enced	-11811
welry	-11812
▁coups	-11813
▁Questions	-11814
▁NC	-11815
▁Egy	-11816
▁loy	-11817
▁robe	-11818
▁wond	-11819
▁Linux	-11820
▁noire	-11821
▁skill	-11822
▁athlet	-11823
▁procure	-11824
▁fermeture	-11825
investissement	-11826
▁Want	-11827
▁Musée	-11828
▁stake	-11829
▁Spirit	-11830
▁chanson	-11831
▁populations	-11832
58	-11833
loc	-11834
▁Self	-11835
▁ench	-11836
ignons	-11837
▁mairie	-11838
▁remaining	-11839
KE	-11840
▁Dém	-11841
▁bear	-11842
▁clôt	-11843
inture	-11844
▁debut	-11845
▁rough	-11846
▁scand	-11847
▁racont	-11848
▁fortement	-11849
Sc	-11850
ôtes	-11851
▁bags	-11852
▁dental	-11853
▁Emmanuel	-11854
▁forecast	-11855
▁extrêmement	-11856
pat	-11857
▁Unf	-11858
adore	-11859
fléch	-11860
▁Lind	-11861
▁closely	-11862
▁monitor	-11863
▁élément	-11864
▁Halloween	-11865
▁franchise	-11866
▁maintenir	-11867
eté	-11868
▁edit	-11869
▁drain	-11870
▁boiler	-11871
▁enrich	-11872
▁losing	-11873
▁Entertainment	-11874
aki	-11875
categ	-11876
▁align	-11877
▁loves	-11878
options	-11879
▁collèg	-11880
▁Fashion	-11881
▁Nigeria	-11882
▁dangere	-11883
▁follows	-11884
▁witness	-11885
▁avantage	-11886
▁remettre	-11887
▁favourite	-11888
▁guidelines	-11889
▁scientifiques	-11890
uce	-11891
▁Cer	-11892
▁rab	-11893
▁Insp	-11894
▁Sens	-11895
▁banks	-11896
▁frère	-11897
▁rural	-11898
isement	-11899
▁inches	-11900
▁Medicine	-11901
oda	-11902
▁Dun	-11903
▁Hyd	-11904
▁nul	-11905
▁fold	-11906
▁noms	-11907
▁chefs	-11908
▁turns	-11909
▁maître	-11910
▁Related	-11911
▁formule	-11912
▁poursuiv	-11913
▁possibilités	-11914
cho	-11915
▁Cad	-11916
▁Save	-11917
▁empr	-11918
▁Sarah	-11919
▁worse	-11920
▁sentir	-11921
▁billets	-11922
▁returns	-11923
événement	-11924
▁Customer	-11925
▁happening	-11926
▁remplacer	-11927
▁scientific	-11928
enseignements	-11929
/7	-11930
zil	-11931
▁SD	-11932
▁CAR	-11933
▁Cut	-11934
▁lou	-11935
etime	-11936
▁Cele	-11937
▁tast	-11938
▁2009,	-11939
▁Still	-11940
▁cockt	-11941
▁storm	-11942
▁advers	-11943
▁allant	-11944
▁enthus	-11945
▁negoti	-11946
▁protoc	-11947
▁DS	-11948
arme	-11949
ismes	-11950
▁dédié	-11951
▁mouth	-11952
▁porté	-11953
▁capacités	-11954
▁reprendre	-11955
sa	-11956
van	-11957
▁Enf	-11958
▁Lam	-11959
▁Berg	-11960
▁Cell	-11961
▁cess	-11962
▁gifts	-11963
▁étrang	-11964
▁appelle	-11965
▁contrats	-11966
▁relatives	-11967
▁conséquences	-11968
▁représentant	-11969
aba	-11970
pas	-11971
êle	-11972
mart	-11973
usée	-11974
wish	-11975
▁duo	-11976
▁fal	-11977
▁mel	-11978
Ouest	-11979
▁gare	-11980
▁Andrew	-11981
▁beurre	-11982
▁recours	-11983
attention	-11984
▁suivants	-11985
hem	-11986
▁URL	-11987
autant	-11988
▁digit	-11989
holders	-11990
▁cliquez	-11991
▁Allemagne	-11992
▁interests	-11993
emb	-11994
umps	-11995
▁Near	-11996
▁Sylv	-11997
▁Field	-11998
▁coton	-11999
▁usine	-12000
▁prestig	-12001
Co	-12002
kh	-12003
vy	-12004
▁fif	-12005
More	-12006
▁Ira	-12007
.....	-12008
▁mobiles	-12009
▁patterns	-12010
▁présidentielle	-12011
▁transportation	-12012
▁Chem	-12013
▁Sche	-12014
▁fêtes	-12015
▁négoci	-12016
apprentissage	-12017
▁consommateurs	-12018
Up	-12019
Ind	-12020
nic	-12021
lied	-12022
rains	-12023
▁vins	-12024
naires	-12025
▁Andre	-12026
▁picked	-12027
▁dangerous	-12028
Association	-12029
▁Cot	-12030
aping	-12031
meuble	-12032
▁seats	-12033
▁savings	-12034
▁vertical	-12035
▁Hollywood	-12036
▁exigences	-12037
▁difficulté	-12038
▁sustainable	-12039
],	-12040
rac	-12041
▁Cu	-12042
▁ence	-12043
impact	-12044
▁explained	-12045
▁portfolio	-12046
62	-12047
GO	-12048
Con	-12049
êcher	-12050
▁advoc	-12051
▁Prince	-12052
▁religion	-12053
▁financiers	-12054
▁poursuivre	-12055
▁Application	-12056
▁Hub	-12057
▁Agency	-12058
▁Jordan	-12059
pectives	-12060
▁Kingdom	-12061
▁couples	-12062
etty	-12063
oter	-12064
▁Cool	-12065
▁Fast	-12066
▁Hold	-12067
▁Homes	-12068
▁Common	-12069
▁Italie	-12070
▁failure	-12071
▁réfléch	-12072
▁packaging	-12073
pass	-12074
▁Tam	-12075
▁calc	-12076
▁idéale	-12077
▁douceur	-12078
▁remport	-12079
▁énergie	-12080
pire	-12081
▁ages	-12082
▁piano	-12083
▁clothing	-12084
▁hardware	-12085
▁familiale	-12086
LD	-12087
alg	-12088
lon	-12089
mun	-12090
uba	-12091
athy	-12092
▁Lew	-12093
/2015	-12094
inform	-12095
▁Season	-12096
▁hospit	-12097
▁découvert	-12098
To	-12099
▁mâ	-12100
oved	-12101
▁hun	-12102
▁whom	-12103
acteur	-12104
▁tente	-12105
▁quitter	-12106
▁emotional	-12107
PH	-12108
Man	-12109
which	-12110
▁Body	-12111
▁Phys	-12112
▁tack	-12113
▁shock	-12114
▁devait	-12115
▁mauvaise	-12116
▁expansion	-12117
▁instrument	-12118
Don	-12119
▁Lé	-12120
▁lapt	-12121
▁élus	-12122
annage	-12123
▁Diego	-12124
▁usual	-12125
▁Colomb	-12126
▁centaines	-12127
▁framework	-12128
▁implementation	-12129
▁XX	-12130
▁Was	-12131
▁spr	-12132
uites	-12133
▁chirurg	-12134
▁stretch	-12135
▁officers	-12136
▁prévention	-12137
Des	-12138
▁$5	-12139
▁54	-12140
cycl	-12141
iquée	-12142
▁Sept	-12143
▁Step	-12144
▁Used	-12145
▁gast	-12146
▁Retour	-12147
▁serves	-12148
▁discrim	-12149
▁cérémonie	-12150
angl	-12151
born	-12152
star	-12153
▁Army	-12154
▁objet	-12155
▁Update	-12156
▁fraîche	-12157
▁segment	-12158
▁Pourtant	-12159
▁cultures	-12160
▁enseigne	-12161
▁substant	-12162
▁procedure	-12163
▁Christophe	-12164
▁authorities	-12165
▁194	-12166
▁Anc	-12167
▁Lum	-12168
▁Past	-12169
▁Sort	-12170
▁depth	-12171
augment	-12172
▁arrivé	-12173
▁estime	-12174
▁tested	-12175
▁raconte	-12176
▁graphique	-12177
▁suspension	-12178
▁contributions	-12179
▁flor	-12180
▁impr	-12181
▁Vendre	-12182
▁certified	-12183
▁fournisseur	-12184
▁researchers	-12185
flix	-12186
▁Put	-12187
ettez	-12188
▁bateau	-12189
▁château	-12190
▁contenus	-12191
▁recorded	-12192
▁indépendant	-12193
lu	-12194
teen	-12195
▁ber	-12196
▁piste	-12197
enquête	-12198
▁Golden	-12199
▁lecteur	-12200
▁protest	-12201
▁injuries	-12202
▁journaliste	-12203
Em	-12204
▁("	-12205
duate	-12206
▁coins	-12207
▁meals	-12208
▁fascin	-12209
▁considé	-12210
▁proport	-12211
atar	-12212
▁Age	-12213
▁Sle	-12214
▁fiche	-12215
▁talks	-12216
▁appris	-12217
▁couvre	-12218
▁dollar	-12219
▁comprom	-12220
▁concurrence	-12221
83	-12222
BR	-12223
▁CM	-12224
▁Rent	-12225
▁aimé	-12226
absence	-12227
▁marqué	-12228
écriture	-12229
▁stopped	-12230
gle	-12231
war	-12232
uten	-12233
▁Aur	-12234
shirt	-12235
▁joué	-12236
present	-12237
▁cigare	-12238
▁exempl	-12239
▁portant	-12240
▁reconnu	-12241
▁environs	-12242
▁accueille	-12243
600	-12244
▁ml	-12245
vres	-12246
ounge	-12247
▁Tony	-12248
▁bron	-12249
▁Parce	-12250
▁quote	-12251
▁risks	-12252
▁sache	-12253
▁Royaume	-12254
▁Zealand	-12255
PG	-12256
Post	-12257
▁Bus	-12258
▁Nik	-12259
▁ads	-12260
▁Kenn	-12261
▁bapt	-12262
annels	-12263
▁congr	-12264
▁couns	-12265
▁mixed	-12266
▁Things	-12267
▁prévue	-12268
▁Bluetooth	-12269
▁contribute	-12270
ERE	-12271
▁Aw	-12272
▁2002	-12273
▁Wire	-12274
profit	-12275
▁clothes	-12276
▁talents	-12277
VE	-12278
acer	-12279
▁160	-12280
▁Arn	-12281
ushed	-12282
▁Delhi	-12283
▁shops	-12284
▁Gallery	-12285
▁mountain	-12286
▁reputation	-12287
▁instruments	-12288
▁comportement	-12289
Gu	-12290
▁(20	-12291
▁Dead	-12292
▁Virt	-12293
▁fiction	-12294
▁podcast	-12295
▁fondament	-12296
▁mg	-12297
▁ya	-12298
igny	-12299
terre	-12300
▁Vice	-12301
▁unif	-12302
commun	-12303
▁laugh	-12304
▁tells	-12305
▁délais	-12306
Institut	-12307
piration	-12308
▁factory	-12309
lications	-12310
▁attractive	-12311
pton	-12312
▁pav	-12313
▁hang	-12314
▁strict	-12315
▁sudden	-12316
▁réussir	-12317
ulée	-12318
▁Mél	-12319
▁oub	-12320
▁ros	-12321
▁Cant	-12322
▁merc	-12323
▁newsp	-12324
▁Cuisine	-12325
▁qualités	-12326
▁consistent	-12327
▁Performance	-12328
▁Communication	-12329
pot	-12330
▁72	-12331
izon	-12332
▁Bac	-12333
▁POUR	-12334
▁Graph	-12335
▁Trade	-12336
▁Olivier	-12337
▁console	-12338
▁creates	-12339
▁printed	-12340
▁Han	-12341
▁pdf	-12342
▁cité	-12343
friger	-12344
▁laissé	-12345
▁sending	-12346
▁municipal	-12347
▁Py	-12348
cers	-12349
cknow	-12350
▁trig	-12351
erland	-12352
▁monter	-12353
▁promise	-12354
▁sorties	-12355
▁Toutefois	-12356
▁médicaments	-12357
▁travailleurs	-12358
pa	-12359
hew	-12360
▁Bah	-12361
▁Dak	-12362
▁Dor	-12363
▁buff	-12364
▁lect	-12365
ingham	-12366
▁Cover	-12367
▁Month	-12368
▁Rouge	-12369
▁flood	-12370
▁Taylor	-12371
▁bottle	-12372
▁grosse	-12373
▁donnant	-12374
▁séances	-12375
▁amoureux	-12376
▁discipline	-12377
.1	-12378
ido	-12379
▁PE	-12380
Alle	-12381
inch	-12382
teau	-12383
▁hook	-12384
▁escal	-12385
▁Cathol	-12386
▁upload	-12387
▁adaptée	-12388
▁atmosphere	-12389
▁Montpellier	-12390
apor	-12391
inage	-12392
▁dens	-12393
▁Maria	-12394
▁Govern	-12395
▁Details	-12396
▁envoyer	-12397
▁installé	-12398
▁managers	-12399
▁Singapore	-12400
sea	-12401
rics	-12402
▁sinon	-12403
▁upper	-12404
entures	-12405
▁hoping	-12406
▁quotes	-12407
▁Officer	-12408
▁networks	-12409
▁prennent	-12410
▁produire	-12411
▁tomorrow	-12412
▁occasions	-12413
cad	-12414
Lire	-12415
▁Bén	-12416
rates	-12417
▁cute	-12418
▁sexe	-12419
▁domain	-12420
▁sensible	-12421
▁regulations	-12422
PI	-12423
ouest	-12424
itudes	-12425
▁myster	-12426
▁métall	-12427
▁suscept	-12428
▁chercheurs	-12429
▁modification	-12430
LY	-12431
ISE	-12432
▁choc	-12433
▁midi	-12434
semble	-12435
▁Level	-12436
▁smile	-12437
▁Forest	-12438
▁victime	-12439
▁supposed	-12440
acte	-12441
▁grab	-12442
ophone	-12443
▁cerem	-12444
▁forex	-12445
▁inaug	-12446
▁Ajouter	-12447
▁bureaux	-12448
▁naturels	-12449
▁renouvel	-12450
▁récupérer	-12451
utilisateur	-12452
▁reasonable	-12453
▁specialist	-12454
▁mén	-12455
athon	-12456
umble	-12457
▁Bois	-12458
▁dust	-12459
▁pant	-12460
▁wash	-12461
▁revue	-12462
izabeth	-12463
▁alleged	-12464
▁extract	-12465
▁bedrooms	-12466
▁participé	-12467
▁ingrédients	-12468
▁Lav	-12469
ector	-12470
encer	-12471
aissent	-12472
▁Histor	-12473
▁lessons	-12474
▁concassage	-12475
▁Syd	-12476
▁USD	-12477
▁fins	-12478
▁ster	-12479
▁truc	-12480
érance	-12481
▁Queen	-12482
▁moist	-12483
▁tagged	-12484
▁yellow	-12485
▁newsletter	-12486
▁DIY	-12487
uling	-12488
▁Bert	-12489
▁Kind	-12490
▁Order	-12491
▁coûts	-12492
▁silence	-12493
▁tourner	-12494
▁Chaussures	-12495
▁conclusion	-12496
▁recognized	-12497
▁51	-12498
atte	-12499
xiety	-12500
▁préal	-12501
▁Atlanta	-12502
▁Options	-12503
▁designers	-12504
How	-12505
cue	-12506
str	-12507
▁ran	-12508
▁vues	-12509
ronics	-12510
▁likes	-12511
▁sorti	-12512
▁spots	-12513
▁noticed	-12514
▁Features	-12515
▁classiques	-12516
▁purchasing	-12517
END	-12518
prof	-12519
emain	-12520
▁Less	-12521
▁bass	-12522
▁reward	-12523
▁vivant	-12524
▁betting	-12525
▁connaît	-12526
▁publiée	-12527
▁spécialisé	-12528
zo	-12529
▁WE	-12530
▁900	-12531
ulous	-12532
▁Pasc	-12533
▁sinc	-12534
▁Ident	-12535
▁forêt	-12536
▁wealth	-12537
▁offrent	-12538
▁protein	-12539
▁Fondation	-12540
▁WordPress	-12541
▁particulière	-12542
emy	-12543
lies	-12544
▁Chel	-12545
▁Mode	-12546
▁amén	-12547
▁Again	-12548
▁Asian	-12549
▁Roche	-12550
tu	-12551
▁NO	-12552
▁Kir	-12553
▁wet	-12554
onyme	-12555
roller	-12556
▁forced	-12557
▁mandat	-12558
▁chacune	-12559
▁wireless	-12560
▁transfert	-12561
▁resistance	-12562
/1	-12563
▁q	-12564
chi	-12565
har	-12566
rien	-12567
adapt	-12568
ondre	-12569
ômage	-12570
▁lawyer	-12571
▁trafic	-12572
▁Victoria	-12573
▁suggested	-12574
vas	-12575
cker	-12576
icaux	-12577
▁Spot	-12578
▁bata	-12579
▁bomb	-12580
cepter	-12581
▁deploy	-12582
▁longues	-12583
▁singles	-12584
▁poursuit	-12585
▁échanges	-12586
placements	-12587
▁conserver	-12588
TT	-12589
Car	-12590
she	-12591
▁lever	-12592
▁masse	-12593
hôpital	-12594
▁auteur	-12595
▁entirely	-12596
▁workshop	-12597
▁Pa	-12598
onym	-12599
▁Jay	-12600
èques	-12601
▁Tree	-12602
andise	-12603
▁basse	-12604
▁montage	-12605
▁ordered	-12606
▁identity	-12607
▁developers	-12608
▁recrutement	-12609
El	-12610
sey	-12611
▁Ta	-12612
▁WC	-12613
▁Zone	-12614
▁gris	-12615
▁Spain	-12616
▁antib	-12617
▁boule	-12618
▁noise	-12619
▁promo	-12620
▁belief	-12621
▁matchs	-12622
▁moindre	-12623
▁concerts	-12624
▁bâtiments	-12625
▁committee	-12626
▁participe	-12627
▁perfection	-12628
▁accessories	-12629
▁ille	-12630
▁Flash	-12631
▁courte	-12632
▁loisirs	-12633
dou	-12634
▁AFP	-12635
▁Moi	-12636
▁dil	-12637
▁basé	-12638
▁civile	-12639
▁widely	-12640
▁secrets	-12641
▁ancienne	-12642
▁contrast	-12643
▁Hay	-12644
▁firms	-12645
▁Course	-12646
▁Expert	-12647
iliation	-12648
▁Arizona	-12649
▁épisode	-12650
animation	-12651
édia	-12652
chest	-12653
outes	-12654
▁Prot	-12655
▁cous	-12656
▁2008,	-12657
▁camer	-12658
▁situe	-12659
▁Northern	-12660
▁historic	-12661
▁Actualité	-12662
▁$3	-12663
riel	-12664
issue	-12665
▁Hair	-12666
▁aper	-12667
▁Multi	-12668
▁broker	-12669
▁generate	-12670
▁normally	-12671
ACH	-12672
veg	-12673
▁Ho	-12674
▁CAN	-12675
▁NEW	-12676
itary	-12677
▁Greg	-12678
▁Compl	-12679
▁Taille	-12680
▁emphas	-12681
▁esprit	-12682
Assemblée	-12683
▁Question	-12684
hé	-12685
Cal	-12686
▁EC	-12687
Plus	-12688
▁Bry	-12689
▁Rece	-12690
▁Talk	-12691
▁hack	-12692
▁root	-12693
aisons	-12694
▁Finally	-12695
▁Trading	-12696
▁gorgeous	-12697
▁interactive	-12698
:15	-12699
▁Na	-12700
▁WW	-12701
proof	-12702
▁Argent	-12703
▁guides	-12704
▁vigueur	-12705
▁Secretary	-12706
▁importantes	-12707
plan	-12708
ston	-12709
wick	-12710
▁bol	-12711
▁Salle	-12712
▁funny	-12713
▁random	-12714
▁weekly	-12715
▁époque	-12716
▁Château	-12717
aménagement	-12718
▁basketball	-12719
ader	-12720
▁Mic	-12721
▁Pod	-12722
effet	-12723
omber	-12724
▁elev	-12725
▁quin	-12726
▁plain	-12727
▁Latest	-12728
▁entend	-12729
▁Categories	-12730
93	-12731
▁(10	-12732
▁crew	-12733
making	-12734
▁Korea	-12735
▁Tokyo	-12736
▁liked	-12737
cluding	-12738
▁Consul	-12739
▁appeal	-12740
▁border	-12741
▁postes	-12742
▁tomber	-12743
▁gri	-12744
▁mol	-12745
âches	-12746
▁Poss	-12747
▁genu	-12748
▁détect	-12749
▁saving	-12750
▁ouvrage	-12751
▁enterprise	-12752
▁availability	-12753
HD	-12754
”.	-12755
-18	-12756
IGN	-12757
mal	-12758
▁Mi	-12759
▁om	-12760
quin	-12761
▁Ing	-12762
▁cyl	-12763
▁Come	-12764
▁File	-12765
▁Minn	-12766
ermont	-12767
▁trick	-12768
▁solaire	-12769
▁Provence	-12770
▁organise	-12771
▁presents	-12772
▁fabricant	-12773
électricité	-12774
▁accompagne	-12775
kg	-12776
▁2-	-12777
▁Lag	-12778
▁Quels	-12779
▁acheté	-12780
▁exhaust	-12781
▁humains	-12782
▁preferred	-12783
▁officielle	-12784
▁reconnaissance	-12785
▁68	-12786
▁GT	-12787
▁EST	-12788
▁Fred	-12789
▁Jour	-12790
▁male	-12791
ifiant	-12792
▁dealing	-12793
▁gambling	-12794
▁developer	-12795
▁calendrier	-12796
▁déplacement	-12797
:35	-12798
▁NBA	-12799
being	-12800
▁Lady	-12801
▁Vert	-12802
▁Liver	-12803
▁chaude	-12804
ancouver	-12805
▁Personn	-12806
▁Challenge	-12807
▁Relations	-12808
▁coopération	-12809
▁circumstances	-12810
▁Opp	-12811
urier	-12812
▁Mail	-12813
▁tons	-12814
▁Ocean	-12815
▁marine	-12816
▁turning	-12817
▁horaires	-12818
▁règlement	-12819
▁electrical	-12820
dam	-12821
usc	-12822
▁MI	-12823
▁10%	-12824
sters	-12825
▁pren	-12826
▁phones	-12827
etary	-12828
iament	-12829
▁coûte	-12830
▁huile	-12831
▁soyez	-12832
▁phrase	-12833
enregist	-12834
▁criminal	-12835
▁informed	-12836
▁clairement	-12837
▁conservation	-12838
:05	-12839
oen	-12840
role	-12841
élève	-12842
▁1990	-12843
▁chic	-12844
▁kill	-12845
▁béton	-12846
▁tombe	-12847
▁bridge	-12848
▁aventure	-12849
▁démocrat	-12850
▁tribunal	-12851
université	-12852
▁solidarité	-12853
▁progression	-12854
vé	-12855
▁110	-12856
▁Var	-12857
▁jaw	-12858
▁none	-12859
▁Ukraine	-12860
▁fishing	-12861
▁muscles	-12862
▁proceed	-12863
▁Lyn	-12864
▁Mos	-12865
▁brû	-12866
▁Bridge	-12867
▁dessert	-12868
▁flights	-12869
▁forfait	-12870
▁replaced	-12871
▁sensibil	-12872
▁développe	-12873
entreprises	-12874
▁controvers	-12875
▁intelligence	-12876
-21	-12877
nee	-12878
▁1)	-12879
▁Anti	-12880
▁Contract	-12881
▁mobilité	-12882
▁morceaux	-12883
▁juridique	-12884
▁landscape	-12885
▁seriously	-12886
▁Fédération	-12887
Col	-12888
cop	-12889
iva	-12890
orc	-12891
▁/>	-12892
▁lin	-12893
▁ceci	-12894
▁pink	-12895
▁Would	-12896
▁newly	-12897
▁arrêté	-12898
▁muscle	-12899
▁inscrit	-12900
▁seraient	-12901
56	-12902
▁53	-12903
▁IM	-12904
▁Spéc	-12905
expert	-12906
olation	-12907
▁booking	-12908
▁compréh	-12909
▁hommage	-12910
▁alongside	-12911
▁Unfortunately	-12912
8)	-12913
Ce	-12914
▁SER	-12915
▁jun	-12916
▁mos	-12917
ingly	-12918
iseur	-12919
▁plaf	-12920
▁Working	-12921
▁vouloir	-12922
▁memories	-12923
iox	-12924
bourne	-12925
▁chart	-12926
▁décisions	-12927
▁documentation	-12928
▁interventions	-12929
AFP	-12930
▁bab	-12931
ilson	-12932
Intern	-12933
▁Essay	-12934
▁sommet	-12935
▁composée	-12936
▁sections	-12937
▁possibility	-12938
/3	-12939
▁Iron	-12940
▁Lion	-12941
▁Benef	-12942
▁météo	-12943
▁Member	-12944
▁catast	-12945
▁feuille	-12946
▁packages	-12947
▁supplier	-12948
▁sensation	-12949
▁spiritual	-12950
▁confidentialité	-12951
édé	-12952
anged	-12953
▁corr	-12954
▁Guill	-12955
▁terminé	-12956
▁pleasure	-12957
▁preparation	-12958
owa	-12959
reme	-12960
▁Sym	-12961
▁Furn	-12962
▁déco	-12963
▁grew	-12964
▁œuvres	-12965
▁Holiday	-12966
▁lettres	-12967
▁spéciale	-12968
▁adventure	-12969
▁Moy	-12970
▁Vari	-12971
▁Guard	-12972
▁Mining	-12973
▁assort	-12974
▁Version	-12975
▁intérêt	-12976
▁invited	-12977
▁Mercedes	-12978
▁ensuring	-12979
▁numériques	-12980
▁350	-12981
eding	-12982
habil	-12983
▁Marg	-12984
illion	-12985
▁delay	-12986
▁Choose	-12987
exercice	-12988
▁dynamic	-12989
▁remarqu	-12990
▁Exchange	-12991
▁européens	-12992
▁exactement	-12993
▁prochaines	-12994
▁exceptional	-12995
èces	-12996
▁cosm	-12997
linois	-12998
▁Homme	-12999
▁acknow	-13000
▁équipé	-13001
▁amélior	-13002
▁villages	-13003
▁religious	-13004
▁pleinement	-13005
Allem	-13006
éraux	-13007
▁accum	-13008
enfants	-13009
esseurs	-13010
ocratic	-13011
▁fiscal	-13012
▁scored	-13013
▁tonnes	-13014
▁attended	-13015
▁handling	-13016
▁]	-13017
IES	-13018
rec	-13019
▁vig	-13020
▁Bott	-13021
▁Turn	-13022
▁Sydney	-13023
▁Analysis	-13024
▁Computer	-13025
▁submitted	-13026
▁tendances	-13027
-)	-13028
BM	-13029
▁\	-13030
ALE	-13031
ECT	-13032
ERT	-13033
cat	-13034
▁yard	-13035
stream	-13036
▁Jason	-13037
▁blogs	-13038
▁tapis	-13039
▁Stephen	-13040
▁fighting	-13041
5)	-13042
cha	-13043
utés	-13044
▁Ell	-13045
▁gig	-13046
unité	-13047
▁Cars	-13048
rairie	-13049
▁imper	-13050
▁masque	-13051
▁murder	-13052
▁regret	-13053
▁viande	-13054
▁demeure	-13055
▁donnent	-13056
▁attitude	-13057
expression	-13058
intervention	-13059
1]	-13060
Our	-13061
dep	-13062
▁sén	-13063
ensus	-13064
jamin	-13065
▁hydro	-13066
▁actuel	-13067
▁deposit	-13068
▁accompagné	-13069
▁secrétaire	-13070
54	-13071
AK	-13072
bow	-13073
rov	-13074
▁gay	-13075
▁flux	-13076
▁hits	-13077
▁Audio	-13078
▁Advent	-13079
▁Chrome	-13080
▁Senate	-13081
▁hidden	-13082
▁réduit	-13083
▁langues	-13084
▁variété	-13085
▁attached	-13086
▁scholars	-13087
▁Ye	-13088
▁1980	-13089
▁faces	-13090
▁prove	-13091
ictions	-13092
▁revend	-13093
▁visant	-13094
▁Available	-13095
▁Professor	-13096
▁définition	-13097
▁originally	-13098
.»	-13099
law	-13100
▁Tut	-13101
andie	-13102
▁beer	-13103
▁mart	-13104
▁Hills	-13105
▁alter	-13106
▁Austin	-13107
▁theory	-13108
▁Netflix	-13109
▁authors	-13110
▁découvrez	-13111
▁categories	-13112
84	-13113
▁corn	-13114
▁dorm	-13115
▁pomp	-13116
▁accro	-13117
▁mener	-13118
▁ajoute	-13119
▁execut	-13120
▁combien	-13121
▁entered	-13122
▁telling	-13123
▁maintien	-13124
▁Following	-13125
▁organized	-13126
▁treatments	-13127
▁Additionally	-13128
▁os	-13129
▁140	-13130
/2012	-13131
▁Brian	-13132
▁Bruno	-13133
▁lucky	-13134
▁Banque	-13135
▁branch	-13136
▁awarded	-13137
▁reduction	-13138
ells	-13139
oncé	-13140
èvres	-13141
▁Text	-13142
chauff	-13143
▁changé	-13144
▁compose	-13145
▁removal	-13146
▁photography	-13147
Hz	-13148
world	-13149
▁Leur	-13150
▁exec	-13151
▁Speed	-13152
▁héros	-13153
▁ouvre	-13154
▁roule	-13155
▁formats	-13156
▁pandémie	-13157
▁listening	-13158
▁confinement	-13159
adi	-13160
▁BO	-13161
▁da	-13162
raul	-13163
rect	-13164
▁wra	-13165
watch	-13166
▁entrer	-13167
▁séries	-13168
▁publicité	-13169
▁utilisées	-13170
▁mouvements	-13171
▁performing	-13172
▁relatively	-13173
▁Lem	-13174
Miche	-13175
▁Poly	-13176
▁venu	-13177
▁proté	-13178
▁Simple	-13179
▁visited	-13180
▁augmenter	-13181
:59	-13182
Int	-13183
veil	-13184
▁Cash	-13185
▁souhaitent	-13186
New	-13187
▁Jr	-13188
▁Ici	-13189
▁Raj	-13190
▁vel	-13191
atoes	-13192
ervez	-13193
▁pill	-13194
▁ratt	-13195
▁assum	-13196
▁Dallas	-13197
▁chiens	-13198
▁elegant	-13199
▁posting	-13200
▁travaillé	-13201
apé	-13202
▁Chi	-13203
▁Bleu	-13204
▁Jess	-13205
▁Solid	-13206
férence	-13207
▁plaque	-13208
▁taught	-13209
inations	-13210
▁Members	-13211
▁Conditions	-13212
zes	-13213
ricul	-13214
▁hers	-13215
▁orth	-13216
Americ	-13217
▁facts	-13218
▁reply	-13219
▁france	-13220
▁recipes	-13221
ni	-13222
asa	-13223
cal	-13224
imb	-13225
pore	-13226
▁sky	-13227
▁Core	-13228
▁Bourg	-13229
▁Metal	-13230
▁pizza	-13231
▁ratio	-13232
échange	-13233
▁attacks	-13234
▁Particip	-13235
▁incredibly	-13236
96	-13237
oves	-13238
emple	-13239
▁cave	-13240
▁raff	-13241
oureuse	-13242
▁volumes	-13243
▁Ministry	-13244
▁rembourse	-13245
▁alimentaires	-13246
▁NS	-13247
▁éduc	-13248
iterran	-13249
▁vendeur	-13250
▁cherchez	-13251
▁aluminium	-13252
Av	-13253
▁°	-13254
long	-13255
▁GPS	-13256
▁pât	-13257
▁intit	-13258
▁avions	-13259
aventure	-13260
▁calendar	-13261
▁infection	-13262
▁conversion	-13263
▁GP	-13264
▁Déb	-13265
▁ear	-13266
▁Ideas	-13267
▁joining	-13268
▁fundament	-13269
▁capabilities	-13270
Gr	-13271
RI	-13272
▁boot	-13273
▁Outre	-13274
▁worst	-13275
▁Altern	-13276
▁Garage	-13277
▁robust	-13278
▁Illinois	-13279
▁printing	-13280
▁existence	-13281
▁nécessite	-13282
▁Production	-13283
lie	-13284
▁Sug	-13285
child	-13286
techn	-13287
ushers	-13288
▁roles	-13289
▁Claude	-13290
▁Comité	-13291
▁assuré	-13292
▁pistes	-13293
▁scheme	-13294
▁Perfect	-13295
▁whenever	-13296
▁Nationale	-13297
▁immediate	-13298
▁increases	-13299
▁opposition	-13300
▁publications	-13301
oa	-13302
elli	-13303
eted	-13304
urse	-13305
ébéc	-13306
▁asc	-13307
pondu	-13308
▁prét	-13309
▁rues	-13310
▁blend	-13311
▁solve	-13312
▁pricing	-13313
améliorer	-13314
▁encounter	-13315
▁organisée	-13316
▁concentration	-13317
▁Ga	-13318
dale	-13319
otic	-13320
▁lie	-13321
arant	-13322
▁combine	-13323
▁liquide	-13324
▁Catherine	-13325
▁continuing	-13326
cu	-13327
moi	-13328
rob	-13329
▁2)	-13330
▁Ay	-13331
lett	-13332
▁pig	-13333
ented	-13334
▁king	-13335
▁Glass	-13336
embourg	-13337
▁finances	-13338
▁lendemain	-13339
▁internautes	-13340
▁spécialement	-13341
QL	-13342
RO	-13343
IONS	-13344
▁Yet	-13345
▁patch	-13346
▁seuls	-13347
▁tournament	-13348
pty	-13349
inés	-13350
sylv	-13351
▁Voy	-13352
level	-13353
raits	-13354
énieur	-13355
▁Study	-13356
ologist	-13357
▁Repair	-13358
▁Planning	-13359
▁souvenirs	-13360
UIT	-13361
▁(7	-13362
▁BBC	-13363
toine	-13364
▁Stay	-13365
limited	-13366
▁column	-13367
▁sollic	-13368
▁Writing	-13369
▁détente	-13370
▁Portugal	-13371
▁directed	-13372
▁trimestre	-13373
pay	-13374
Voir	-13375
▁lol	-13376
uages	-13377
▁Days	-13378
▁Among	-13379
▁Rennes	-13380
▁lutter	-13381
▁Theatre	-13382
▁Remember	-13383
▁estimated	-13384
▁populaires	-13385
▁manifestation	-13386
agu	-13387
web	-13388
▁mile	-13389
illons	-13390
origin	-13391
▁Forums	-13392
▁albums	-13393
identité	-13394
▁upgrade	-13395
▁portrait	-13396
▁Vancouver	-13397
yt	-13398
pal	-13399
▁dad	-13400
makers	-13401
▁alert	-13402
▁fraud	-13403
▁critic	-13404
▁fairly	-13405
▁reform	-13406
▁remplir	-13407
▁personnels	-13408
▁smartphones	-13409
:31	-13410
Net	-13411
pdf	-13412
iable	-13413
▁anne	-13414
▁opens	-13415
inction	-13416
▁Beauty	-13417
▁pensez	-13418
▁élabor	-13419
appareil	-13420
▁Ontario	-13421
▁intégré	-13422
▁favoriser	-13423
▁destinations	-13424
:02	-13425
▁Pi	-13426
▁Rug	-13427
▁TVA	-13428
▁YOU	-13429
▁evol	-13430
attend	-13431
enault	-13432
levard	-13433
▁Impro	-13434
▁couche	-13435
▁refuge	-13436
▁drawing	-13437
▁dropped	-13438
▁enables	-13439
▁nations	-13440
▁sportif	-13441
▁obtained	-13442
▁batteries	-13443
AST	-13444
III	-13445
▁67	-13446
▁hasn	-13447
▁marks	-13448
▁awards	-13449
▁centers	-13450
▁collected	-13451
▁lesquelles	-13452
▁membership	-13453
sol	-13454
▁77	-13455
ahoo	-13456
▁Due	-13457
▁Vel	-13458
▁fixe	-13459
astien	-13460
▁reven	-13461
▁hosted	-13462
ruitment	-13463
▁Wedding	-13464
▁satellite	-13465
CF	-13466
:01	-13467
▁Ott	-13468
▁Ceci	-13469
▁Soul	-13470
▁Floor	-13471
▁abuse	-13472
▁maroc	-13473
atrième	-13474
▁notion	-13475
▁Cliquez	-13476
▁Scotland	-13477
▁Elizabeth	-13478
▁surprised	-13479
▁confirmation	-13480
▁BMW	-13481
▁Via	-13482
▁Coach	-13483
ographic	-13484
▁chômage	-13485
▁trailer	-13486
▁maîtrise	-13487
▁ultimate	-13488
▁producing	-13489
▁prestation	-13490
Rh	-13491
xe	-13492
▁Ms	-13493
▁750	-13494
▁Bref	-13495
▁rede	-13496
▁globe	-13497
▁grass	-13498
▁Nation	-13499
▁artisans	-13500
▁amenities	-13501
GS	-13502
gov	-13503
▁3:	-13504
▁HR	-13505
iage	-13506
▁130	-13507
▁Hal	-13508
uation	-13509
▁bruit	-13510
▁dents	-13511
endance	-13512
▁simult	-13513
▁Sénégal	-13514
▁Everyone	-13515
▁aliments	-13516
▁drinking	-13517
▁expenses	-13518
▁intérieure	-13519
uz	-13520
▁Obs	-13521
▁tip	-13522
▁Gene	-13523
▁tiny	-13524
▁Aussi	-13525
▁Egypt	-13526
▁récol	-13527
achelor	-13528
▁regards	-13529
▁traiter	-13530
▁enjoying	-13531
▁rubrique	-13532
▁functional	-13533
bie	-13534
cade	-13535
▁Gil	-13536
▁Ple	-13537
▁roi	-13538
▁grain	-13539
▁publish	-13540
▁serveur	-13541
▁channels	-13542
▁propositions	-13543
57	-13544
-30	-13545
:03	-13546
jon	-13547
las	-13548
▁IL	-13549
aska	-13550
chet	-13551
whel	-13552
ueuse	-13553
▁Angl	-13554
▁côte	-13555
▁chute	-13556
▁allerg	-13557
▁précision	-13558
▁applicable	-13559
▁écologique	-13560
97	-13561
▁SW	-13562
aite	-13563
ardo	-13564
▁$10	-13565
▁ALL	-13566
human	-13567
▁jury	-13568
▁maqu	-13569
▁thro	-13570
▁Activ	-13571
▁Major	-13572
▁actor	-13573
▁actifs	-13574
▁pulled	-13575
▁répert	-13576
▁Anthony	-13577
▁closing	-13578
▁passing	-13579
▁potenti	-13580
▁interpret	-13581
iry	-13582
about	-13583
ivals	-13584
▁sick	-13585
▁Porte	-13586
▁moves	-13587
▁refus	-13588
▁tirer	-13589
▁Livres	-13590
▁conduit	-13591
▁découvre	-13592
▁personnalisé	-13593
Pour	-13594
fall	-13595
▁Dép	-13596
achel	-13597
icone	-13598
▁créée	-13599
▁nuclé	-13600
▁panor	-13601
▁planet	-13602
▁artiste	-13603
▁chapter	-13604
▁66	-13605
date	-13606
▁Fix	-13607
style	-13608
▁Give	-13609
▁crazy	-13610
▁lycée	-13611
▁ancient	-13612
▁minimal	-13613
▁régional	-13614
▁souligne	-13615
▁recognize	-13616
▁catégories	-13617
▁profondeur	-13618
▁legislation	-13619
▁57	-13620
exam	-13621
voire	-13622
▁Rain	-13623
▁Unit	-13624
encing	-13625
▁Davis	-13626
▁saint	-13627
▁algorith	-13628
▁incroyable	-13629
▁TF	-13630
enth	-13631
flow	-13632
wall	-13633
ôles	-13634
▁cum	-13635
▁2011.	-13636
▁marked	-13637
accompagnement	-13638
▁traditionnelle	-13639
-01	-13640
▁EV	-13641
▁Déf	-13642
▁Joh	-13643
▁Snow	-13644
▁buts	-13645
église	-13646
▁quels	-13647
▁decade	-13648
▁Advanced	-13649
categorized	-13650
▁accomplish	-13651
▁personnelle	-13652
NS	-13653
afe	-13654
▁Eag	-13655
▁Emploi	-13656
▁Jardin	-13657
▁flavor	-13658
▁remind	-13659
▁repres	-13660
▁paysage	-13661
▁Veuillez	-13662
92	-13663
▁PSG	-13664
▁SUR	-13665
ercle	-13666
ounce	-13667
▁Clar	-13668
apping	-13669
▁Brazil	-13670
▁unable	-13671
▁accueil	-13672
▁facteurs	-13673
opposition	-13674
▁nourriture	-13675
▁quotidienne	-13676
mée	-13677
▁oven	-13678
employ	-13679
▁Match	-13680
▁russe	-13681
▁undert	-13682
▁Espagne	-13683
▁banques	-13684
▁founded	-13685
▁staying	-13686
▁lecteurs	-13687
▁préoccup	-13688
▁compensation	-13689
▁recommendations	-13690
▁ES	-13691
▁raf	-13692
uties	-13693
▁horm	-13694
riving	-13695
▁Stage	-13696
▁boxes	-13697
▁inqui	-13698
ections	-13699
▁flower	-13700
▁tracks	-13701
▁ressent	-13702
▁créations	-13703
▁Immobilier	-13704
uée	-13705
▁4-	-13706
▁Nam	-13707
ierry	-13708
▁pois	-13709
isible	-13710
▁2010.	-13711
▁thèmes	-13712
▁collège	-13713
▁toucher	-13714
▁endroits	-13715
agriculture	-13716
3%	-13717
▁GO	-13718
▁Side	-13719
éviter	-13720
▁actif	-13721
▁bench	-13722
▁résid	-13723
▁split	-13724
automne	-13725
▁Fabric	-13726
▁devenue	-13727
▁forever	-13728
▁illness	-13729
▁difficiles	-13730
▁augmentation	-13731
mir	-13732
assé	-13733
▁mad	-13734
▁vas	-13735
activ	-13736
▁Arth	-13737
▁Dress	-13738
▁gains	-13739
adapter	-13740
▁Annual	-13741
▁connue	-13742
▁vulner	-13743
▁desired	-13744
▁laissez	-13745
▁discuter	-13746
▁puissant	-13747
▁histoires	-13748
▁spécialistes	-13749
ACE	-13750
ova	-13751
▁Gér	-13752
▁Tes	-13753
▁hér	-13754
▁max	-13755
heast	-13756
▁exige	-13757
▁hopes	-13758
feuille	-13759
▁graphic	-13760
▁letters	-13761
▁personally	-13762
▁candidature	-13763
-15	-13764
▁oct	-13765
avion	-13766
undry	-13767
▁Irish	-13768
▁envoyé	-13769
habitude	-13770
▁construit	-13771
▁somewhere	-13772
▁britannique	-13773
▁bibliothèque	-13774
▁accommodation	-13775
▁malheureusement	-13776
94	-13777
Can	-13778
▁HE	-13779
album	-13780
▁Aucun	-13781
▁quitt	-13782
▁miroir	-13783
▁Benjamin	-13784
▁déplacer	-13785
▁renseignements	-13786
nger	-13787
▁ISO	-13788
▁Som	-13789
▁fibre	-13790
▁Barcel	-13791
▁Justin	-13792
▁avance	-13793
exception	-13794
▁rapports	-13795
▁déterminer	-13796
▁guaranteed	-13797
▁similaires	-13798
BL	-13799
UX	-13800
:06	-13801
agan	-13802
▁Album	-13803
▁pause	-13804
intendo	-13805
▁mettant	-13806
▁Charlotte	-13807
run	-13808
▁SO	-13809
▁Hur	-13810
▁NFL	-13811
▁Pit	-13812
▁Meth	-13813
▁Pick	-13814
▁phen	-13815
▁Celui	-13816
▁angle	-13817
▁Encore	-13818
▁caméra	-13819
▁Results	-13820
▁adolesc	-13821
▁réalise	-13822
▁sourire	-13823
▁graduate	-13824
▁opinions	-13825
▁Entreprise	-13826
▁hés	-13827
▁pir	-13828
ifies	-13829
▁subl	-13830
agerie	-13831
▁formal	-13832
▁insert	-13833
▁répondu	-13834
▁Pennsylv	-13835
▁priority	-13836
auf	-13837
▁Rot	-13838
atile	-13839
▁Apart	-13840
▁recre	-13841
▁Single	-13842
▁pensée	-13843
▁plante	-13844
▁adaptés	-13845
▁préféré	-13846
▁eligible	-13847
efficacité	-13848
▁Copyright	-13849
▁compliance	-13850
▁Présentation	-13851
Op	-13852
ésus	-13853
▁20%	-13854
crits	-13855
▁Burn	-13856
▁Inte	-13857
aution	-13858
▁pitch	-13859
▁écrire	-13860
▁consists	-13861
▁facebook	-13862
:32	-13863
****	-13864
host	-13865
▁Nad	-13866
rator	-13867
▁Seine	-13868
▁tooth	-13869
▁Rights	-13870
▁prépare	-13871
▁interrog	-13872
▁minister	-13873
▁reducing	-13874
▁comparison	-13875
▁promotions	-13876
▁Où	-13877
▁Dét	-13878
▁hip	-13879
▁Livre	-13880
▁chers	-13881
▁spray	-13882
▁Import	-13883
▁Meille	-13884
▁exprim	-13885
▁motifs	-13886
érations	-13887
▁douleur	-13888
▁regions	-13889
▁allemand	-13890
▁Technical	-13891
▁basically	-13892
▁essentiel	-13893
▁represents	-13894
:52	-13895
▁arms	-13896
▁fits	-13897
▁lent	-13898
offrir	-13899
onnaie	-13900
▁André	-13901
▁Capit	-13902
▁chrét	-13903
▁agress	-13904
▁decent	-13905
▁globale	-13906
▁achieved	-13907
▁définitive	-13908
FO	-13909
etry	-13910
eping	-13911
regon	-13912
▁enqu	-13913
▁wins	-13914
▁rated	-13915
▁stuck	-13916
▁editor	-13917
▁currency	-13918
▁journées	-13919
▁broadcast	-13920
▁critiques	-13921
▁françaises	-13922
:46	-13923
UST	-13924
pan	-13925
▁Ra	-13926
▁PVC	-13927
▁Anna	-13928
▁Syst	-13929
▁Sound	-13930
▁union	-13931
▁Cancer	-13932
▁Claire	-13933
▁panier	-13934
▁Profitez	-13935
▁holidays	-13936
évaluation	-13937
ONT	-13938
▁Fat	-13939
quipe	-13940
▁Song	-13941
▁caps	-13942
▁Clear	-13943
▁Jusqu	-13944
▁accus	-13945
▁enfor	-13946
▁immun	-13947
▁judge	-13948
▁prêts	-13949
▁remis	-13950
▁affiche	-13951
▁agricole	-13952
▁panneaux	-13953
▁différent	-13954
▁scolaires	-13955
▁requirement	-13956
▁Informations	-13957
53	-13958
87	-13959
Fe	-13960
iper	-13961
▁hat	-13962
optim	-13963
▁duty	-13964
minute	-13965
▁Paint	-13966
écution	-13967
▁écoute	-13968
▁Content	-13969
▁paysages	-13970
▁naturelles	-13971
▁Kam	-13972
▁Mol	-13973
abled	-13974
▁Gran	-13975
▁gras	-13976
▁sink	-13977
▁equal	-13978
▁définir	-13979
▁engaged	-13980
▁objects	-13981
▁sommeil	-13982
▁streets	-13983
▁Vendredi	-13984
▁believes	-13985
▁cannabis	-13986
▁superior	-13987
▁primarily	-13988
▁alternatives	-13989
▁statistiques	-13990
HE	-13991
zzle	-13992
▁Nar	-13993
▁Vér	-13994
▁Leon	-13995
▁vest	-13996
▁Tourn	-13997
▁fellow	-13998
▁severe	-13999
▁Friends	-14000
▁fallait	-14001
▁implant	-14002
▁calories	-14003
▁communiquer	-14004
greg	-14005
▁Cass	-14006
▁hate	-14007
▁approval	-14008
▁médecins	-14009
▁sportifs	-14010
▁organiser	-14011
▁perspectives	-14012
▁Développement	-14013
-04	-14014
:49	-14015
bus	-14016
▁97	-14017
bler	-14018
mbler	-14019
▁jazz	-14020
▁legs	-14021
▁spat	-14022
▁Conne	-14023
appelle	-14024
▁commander	-14025
▁telephone	-14026
▁réellement	-14027
:55	-14028
stan	-14029
▁Vend	-14030
alcool	-14031
▁Bloom	-14032
▁défis	-14033
arrière	-14034
content	-14035
▁dessins	-14036
▁repairs	-14037
▁humaines	-14038
▁recording	-14039
▁directions	-14040
▁excellence	-14041
amélioration	-14042
:54	-14043
bul	-14044
▁Ky	-14045
▁alent	-14046
▁sight	-14047
inscrire	-14048
▁courtes	-14049
▁doctors	-14050
▁Register	-14051
▁effectué	-14052
▁residence	-14053
▁représentants	-14054
pha	-14055
▁MB	-14056
iges	-14057
îtes	-14058
ocier	-14059
▁Rien	-14060
rénées	-14061
▁cesse	-14062
▁célib	-14063
product	-14064
▁proposant	-14065
9)	-14066
HL	-14067
fil	-14068
inez	-14069
▁Him	-14070
▁fus	-14071
▁Tenn	-14072
▁dure	-14073
▁east	-14074
▁sons	-14075
▁musul	-14076
aujourd	-14077
▁confér	-14078
▁optimal	-14079
▁Liverpool	-14080
▁1970	-14081
▁bric	-14082
▁Based	-14083
▁downtown	-14084
▁conseille	-14085
▁continent	-14086
:48	-14087
oni	-14088
Alpes	-14089
▁tric	-14090
iquent	-14091
▁2007,	-14092
▁motif	-14093
▁Making	-14094
▁essays	-14095
▁Britain	-14096
▁limites	-14097
▁Toujours	-14098
▁discussed	-14099
▁internationales	-14100
rav	-14101
▁GB	-14102
icule	-14103
tress	-14104
▁Item	-14105
▁Civil	-14106
▁Lewis	-14107
▁Toyota	-14108
▁breast	-14109
▁formed	-14110
▁Dimanche	-14111
▁Official	-14112
▁believed	-14113
▁checking	-14114
EP	-14115
abad	-14116
▁Gun	-14117
▁Lut	-14118
▁Nike	-14119
▁trem	-14120
éclair	-14121
▁blocks	-14122
▁indeed	-14123
▁affirme	-14124
▁younger	-14125
▁Creative	-14126
▁Beautiful	-14127
▁judiciaire	-14128
▁maintaining	-14129
:47	-14130
ITH	-14131
iley	-14132
▁Rick	-14133
▁islam	-14134
▁infect	-14135
▁plages	-14136
▁positif	-14137
▁Columbia	-14138
▁bancaire	-14139
▁realized	-14140
engagement	-14141
▁contenant	-14142
/24	-14143
▁MLS	-14144
umber	-14145
▁HTML	-14146
▁abst	-14147
illant	-14148
▁Indep	-14149
▁moral	-14150
▁téléc	-14151
▁commod	-14152
▁poster	-14153
astiques	-14154
▁Théâtre	-14155
▁branches	-14156
▁dépenses	-14157
▁Interview	-14158
sk	-14159
:04	-14160
lige	-14161
▁pon	-14162
▁raw	-14163
▁Barn	-14164
▁Lamb	-14165
▁tome	-14166
▁vape	-14167
▁giant	-14168
▁annuel	-14169
▁révèle	-14170
▁stimul	-14171
▁authority	-14172
▁transformer	-14173
▁Technologies	-14174
▁entrepreneur	-14175
▁qualification	-14176
exc	-14177
omi	-14178
aver	-14179
▁Bird	-14180
▁acte	-14181
aurais	-14182
esthet	-14183
▁Achat	-14184
▁biais	-14185
▁causing	-14186
▁proposal	-14187
▁éditions	-14188
▁advantages	-14189
▁conséquent	-14190
▁supporters	-14191
▁ultimately	-14192
UD	-14193
30.	-14194
▁lip	-14195
▁2001	-14196
▁Extra	-14197
--------	-14198
▁default	-14199
▁logique	-14200
▁salaire	-14201
▁Beaucoup	-14202
▁aircraft	-14203
▁Companies	-14204
▁manifestations	-14205
:36	-14206
▁god	-14207
▁gate	-14208
crivez	-14209
▁déliv	-14210
▁dépôt	-14211
▁Genève	-14212
▁hasard	-14213
▁vérité	-14214
▁pilotes	-14215
▁évident	-14216
▁controlled	-14217
hh	-14218
ship	-14219
apers	-14220
erved	-14221
▁croy	-14222
▁hurt	-14223
▁dishes	-14224
ènements	-14225
▁argument	-14226
▁automatic	-14227
▁rencontré	-14228
▁suffisamment	-14229
▁Gam	-14230
▁ped	-14231
mêmes	-14232
▁Bull	-14233
▁aims	-14234
▁hole	-14235
▁recr	-14236
▁tape	-14237
abetes	-14238
lessly	-14239
▁Feder	-14240
▁Section	-14241
▁destroy	-14242
▁gallery	-14243
▁profits	-14244
▁étrangers	-14245
▁compliment	-14246
05	-14247
:20	-14248
cia	-14249
die	-14250
▁tum	-14251
cycle	-14252
▁Mosc	-14253
▁Rail	-14254
▁Creek	-14255
▁Voice	-14256
▁setup	-14257
▁sharp	-14258
▁Mother	-14259
▁erreur	-14260
ondition	-14261
▁insight	-14262
▁réforme	-14263
▁tonight	-14264
▁Barcelone	-14265
▁brilliant	-14266
▁principes	-14267
▁enseignants	-14268
:37	-14269
▁($	-14270
const	-14271
▁carré	-14272
▁crowd	-14273
▁guard	-14274
▁shots	-14275
▁allait	-14276
▁casque	-14277
▁poisson	-14278
▁ceremony	-14279
▁maintained	-14280
▁recognition	-14281
▁journalistes	-14282
▁remplacement	-14283
:07	-14284
▁BD	-14285
iend	-14286
▁lud	-14287
▁pip	-14288
essed	-14289
opath	-14290
▁emer	-14291
▁inox	-14292
▁meme	-14293
▁vécu	-14294
▁Fresh	-14295
▁finds	-14296
▁récit	-14297
▁Linked	-14298
▁cultiv	-14299
▁tâches	-14300
▁Studies	-14301
▁dressing	-14302
▁outcomes	-14303
▁politics	-14304
▁proposées	-14305
▁comprenant	-14306
▁programming	-14307
800	-14308
:38	-14309
▁GA	-14310
▁Carn	-14311
▁lave	-14312
▁pire	-14313
rières	-14314
▁Tours	-14315
▁Sophie	-14316
▁facture	-14317
Allemagne	-14318
▁Luxembourg	-14319
▁statements	-14320
:43	-14321
abe	-14322
edu	-14323
iré	-14324
▁VA	-14325
They	-14326
mais	-14327
tons	-14328
▁cub	-14329
journ	-14330
▁Mind	-14331
▁saved	-14332
▁Create	-14333
▁heading	-14334
▁tournée	-14335
▁arrested	-14336
▁overwhel	-14337
▁recueill	-14338
▁démarches	-14339
▁quatrième	-14340
▁Everything	-14341
▁industriel	-14342
▁possession	-14343
▁européennes	-14344
▁naturellement	-14345
NT	-14346
uri	-14347
rire	-14348
▁Hug	-14349
▁Imag	-14350
estone	-14351
ologne	-14352
▁Turqu	-14353
▁explo	-14354
▁souci	-14355
▁échange	-14356
▁Consider	-14357
▁traveling	-14358
:08	-14359
:53	-14360
:58	-14361
was	-14362
▁Fal	-14363
▁Allen	-14364
▁hiring	-14365
inéraire	-14366
▁Tickets	-14367
activités	-14368
▁Regional	-14369
▁licensed	-14370
▁ouverture	-14371
▁propriétés	-14372
wp	-14373
lah	-14374
itié	-14375
▁Joy	-14376
burgh	-14377
tures	-14378
▁rass	-14379
▁hiver	-14380
twitter	-14381
▁moteurs	-14382
▁volunteers	-14383
xx	-14384
tic	-14385
▁LG	-14386
▁1.5	-14387
usine	-14388
▁Holy	-14389
▁Block	-14390
▁forth	-14391
▁sèche	-14392
▁withd	-14393
▁pertin	-14394
ambiance	-14395
▁Channel	-14396
▁depends	-14397
▁légales	-14398
▁referred	-14399
▁Industrial	-14400
▁celebration	-14401
▁effectivement	-14402
miss	-14403
▁Réd	-14404
▁SEC	-14405
urban	-14406
▁Round	-14407
▁canal	-14408
▁cerve	-14409
▁Autres	-14410
▁Basket	-14411
▁Cooper	-14412
▁Pascal	-14413
▁anxiety	-14414
▁associé	-14415
▁exploit	-14416
▁conflict	-14417
▁flooring	-14418
▁quantity	-14419
▁résoudre	-14420
▁Maintenant	-14421
mor	-14422
▁Bh	-14423
▁Mb	-14424
▁Dol	-14425
▁soud	-14426
▁Trail	-14427
▁perce	-14428
▁règle	-14429
▁verte	-14430
▁assume	-14431
▁convey	-14432
▁racing	-14433
▁scores	-14434
▁claimed	-14435
▁Memorial	-14436
▁conduire	-14437
▁patience	-14438
▁diversité	-14439
▁Vu	-14440
iène	-14441
érez	-14442
▁mou	-14443
isser	-14444
▁Five	-14445
▁Moon	-14446
▁thin	-14447
▁2022,	-14448
▁Ultra	-14449
▁rêves	-14450
▁Samedi	-14451
▁casual	-14452
▁sexual	-14453
▁absence	-14454
▁herself	-14455
▁shouldn	-14456
▁writers	-14457
▁carrying	-14458
▁exposure	-14459
▁consideration	-14460
mg	-14461
:41	-14462
Une	-14463
Uni	-14464
lik	-14465
apons	-14466
redit	-14467
▁Mali	-14468
▁pace	-14469
érable	-14470
▁Julie	-14471
▁Jésus	-14472
▁auxqu	-14473
▁subse	-14474
▁couper	-14475
▁dreams	-14476
▁envers	-14477
▁floors	-14478
▁rising	-14479
▁whilst	-14480
▁independ	-14481
▁suggests	-14482
▁surprises	-14483
▁documentaire	-14484
OME	-14485
▁62	-14486
Vous	-14487
etts	-14488
idas	-14489
▁Hav	-14490
▁Euro	-14491
▁Pant	-14492
▁magic	-14493
▁moder	-14494
▁Coffee	-14495
▁Dragon	-14496
▁Europé	-14497
▁Julien	-14498
▁laptop	-14499
▁reçoit	-14500
▁persons	-14501
▁tournoi	-14502
▁Stéphane	-14503
▁substance	-14504
▁everywhere	-14505
:09	-14506
Marie	-14507
▁Cord	-14508
▁flam	-14509
▁mood	-14510
▁armes	-14511
▁infos	-14512
▁vague	-14513
▁procès	-14514
▁rouges	-14515
▁nuclear	-14516
▁musicale	-14517
▁struggle	-14518
▁vaccination	-14519
jpg	-14520
hour	-14521
▁Had	-14522
arque	-14523
▁issu	-14524
adelph	-14525
▁Carte	-14526
▁prost	-14527
▁Future	-14528
▁Junior	-14529
▁pouces	-14530
▁Without	-14531
▁agences	-14532
▁checked	-14533
▁variable	-14534
▁accidents	-14535
▁laboratoire	-14536
▁internationaux	-14537
FT	-14538
:42	-14539
▁CT	-14540
Paul	-14541
onic	-14542
▁CAP	-14543
▁rup	-14544
uteurs	-14545
▁chips	-14546
▁cyber	-14547
▁plaît	-14548
▁Nombre	-14549
▁borrow	-14550
▁Discover	-14551
▁médecine	-14552
▁authentic	-14553
▁Constitution	-14554
-05	-14555
eren	-14556
▁RES	-14557
intre	-14558
années	-14559
▁Never	-14560
▁placé	-14561
▁shirt	-14562
▁écriv	-14563
▁Tunisie	-14564
▁immense	-14565
▁involves	-14566
▁Meanwhile	-14567
▁evaluation	-14568
:44	-14569
ITY	-14570
▁NAS	-14571
▁Wine	-14572
▁unex	-14573
assion	-14574
▁Final	-14575
▁array	-14576
▁react	-14577
▁yards	-14578
èlement	-14579
▁classé	-14580
▁driven	-14581
▁pocket	-14582
▁pommes	-14583
▁priorité	-14584
▁warranty	-14585
▁connecter	-14586
▁consultant	-14587
▁promouvoir	-14588
architecture	-14589
▁anniversary	-14590
▁connections	-14591
▁consumption	-14592
iga	-14593
▁jamb	-14594
▁Emerg	-14595
▁Youth	-14596
closure	-14597
▁Inform	-14598
▁flying	-14599
▁temple	-14600
▁divorce	-14601
▁Nintendo	-14602
▁Première	-14603
▁rappeler	-14604
▁Excellent	-14605
.[	-14606
:57	-14607
pent	-14608
▁Cir	-14609
Hotel	-14610
erait	-14611
works	-14612
▁Kelly	-14613
▁Morgan	-14614
▁donnée	-14615
▁nights	-14616
iquettes	-14617
▁demands	-14618
▁fatigue	-14619
▁stainless	-14620
▁Pennsylvania	-14621
oln	-14622
walk	-14623
▁Mrs	-14624
onnant	-14625
▁fuite	-14626
▁champs	-14627
▁Général	-14628
▁amounts	-14629
▁évolution	-14630
▁participant	-14631
FM	-14632
Bas	-14633
omét	-14634
▁Audi	-14635
▁Iraq	-14636
▁hect	-14637
Agence	-14638
émique	-14639
▁Focus	-14640
▁arbit	-14641
▁flour	-14642
▁Compar	-14643
▁parall	-14644
▁speaker	-14645
▁Catholic	-14646
▁Histoire	-14647
▁parlement	-14648
:34	-14649
ONE	-14650
ffe	-14651
olk	-14652
ogen	-14653
▁bis	-14654
shops	-14655
▁Grant	-14656
▁nommé	-14657
▁Impact	-14658
▁Petite	-14659
▁impacts	-14660
▁modules	-14661
▁seniors	-14662
▁confirmé	-14663
▁bénévoles	-14664
▁compléter	-14665
▁Restaurants	-14666
02	-14667
FS	-14668
rock	-14669
▁Jane	-14670
▁blank	-14671
▁slots	-14672
▁succeed	-14673
▁utilize	-14674
▁commonly	-14675
▁nécessité	-14676
▁modifications	-14677
:10	-14678
anga	-14679
inar	-14680
▁foi	-14681
ocurr	-14682
iseaux	-14683
▁Milan	-14684
▁issus	-14685
▁manif	-14686
▁citron	-14687
▁menace	-14688
▁revers	-14689
▁Chelsea	-14690
▁Meeting	-14691
▁Seattle	-14692
▁Produits	-14693
▁chansons	-14694
▁resulting	-14695
▁increasingly	-14696
:33	-14697
aken	-14698
urée	-14699
▁11.	-14700
utter	-14701
▁Dess	-14702
▁Ross	-14703
▁brush	-14704
▁Turkey	-14705
▁Wilson	-14706
▁mousse	-14707
▁remark	-14708
▁Renault	-14709
▁screens	-14710
▁Jonathan	-14711
▁spacious	-14712
▁inventory	-14713
▁ressemble	-14714
▁satisfait	-14715
appartement	-14716
▁attractions	-14717
▁dispositions	-14718
▁Kate	-14719
▁Magic	-14720
▁Rhône	-14721
▁arbres	-14722
▁breath	-14723
▁sauver	-14724
▁Administ	-14725
immobilier	-14726
▁objective	-14727
▁supprimer	-14728
▁Hey	-14729
▁Ice	-14730
▁Kal	-14731
hemat	-14732
▁Swed	-14733
parole	-14734
▁sauveg	-14735
▁Princip	-14736
▁entière	-14737
▁précisé	-14738
▁Condition	-14739
fi	-14740
▁84	-14741
▁Fan	-14742
/2011	-14743
iders	-14744
▁Wolf	-14745
▁belt	-14746
▁Appro	-14747
▁Quart	-14748
▁blind	-14749
▁pounds	-14750
▁réelle	-14751
▁stabil	-14752
▁Getting	-14753
▁Thierry	-14754
▁skilled	-14755
▁confirme	-14756
▁literature	-14757
▁inscription	-14758
NC	-14759
:12	-14760
iev	-14761
zing	-14762
▁saur	-14763
▁Gabri	-14764
▁accél	-14765
▁câble	-14766
▁Perhaps	-14767
▁destiné	-14768
▁covering	-14769
▁communicate	-14770
▁personality	-14771
▁announcement	-14772
issait	-14773
▁pompe	-14774
▁rémun	-14775
ativité	-14776
▁Chocol	-14777
▁Return	-14778
▁margin	-14779
▁reader	-14780
▁espèces	-14781
itis	-14782
eness	-14783
▁tres	-14784
▁élim	-14785
▁Henri	-14786
▁bodies	-14787
jections	-14788
▁Eastern	-14789
▁convivial	-14790
▁sensitive	-14791
▁wondering	-14792
▁considérable	-14793
▁investissement	-14794
Sp	-14795
-17	-14796
oué	-14797
angh	-14798
usses	-14799
▁mold	-14800
▁puts	-14801
icious	-14802
▁Nancy	-14803
▁actes	-14804
▁gagne	-14805
▁meets	-14806
▁garçon	-14807
▁majeur	-14808
▁Jennifer	-14809
▁explains	-14810
▁feelings	-14811
▁médicale	-14812
▁Bienvenue	-14813
▁chronique	-14814
▁expressed	-14815
▁mécanique	-14816
▁Innovation	-14817
▁acquisition	-14818
hr	-14819
spe	-14820
▁76	-14821
Mont	-14822
▁Jér	-14823
▁Lég	-14824
▁Sel	-14825
store	-14826
▁bref	-14827
▁calm	-14828
▁nerv	-14829
▁orig	-14830
▁soil	-14831
images	-14832
▁bills	-14833
▁sorry	-14834
▁montré	-14835
▁utility	-14836
aboration	-14837
▁cellules	-14838
▁bénéficie	-14839
:56	-14840
Serv	-14841
days	-14842
ouri	-14843
▁Ger	-14844
▁lié	-14845
rocher	-14846
▁Prior	-14847
▁encad	-14848
▁ordre	-14849
▁intérêts	-14850
▁sportive	-14851
équipement	-14852
▁placement	-14853
▁percentage	-14854
▁sanitaires	-14855
▁producteurs	-14856
rett	-14857
▁PRO	-14858
appli	-14859
▁Fern	-14860
▁Regist	-14861
▁layout	-14862
▁soumis	-14863
▁Trouvez	-14864
▁electricity	-14865
▁ft	-14866
▁2.5	-14867
▁Own	-14868
letin	-14869
orale	-14870
urant	-14871
▁spark	-14872
▁Schools	-14873
▁saisons	-14874
▁voulais	-14875
▁suffering	-14876
▁navigateur	-14877
▁differences	-14878
▁Installation	-14879
▁coordination	-14880
▁programmation	-14881
30,	-14882
:51	-14883
▁Tai	-14884
▁Ult	-14885
▁row	-14886
▁rum	-14887
/2022	-14888
inity	-14889
▁Chev	-14890
▁Moul	-14891
▁sacs	-14892
▁Biden	-14893
▁Mario	-14894
▁alarm	-14895
▁Brésil	-14896
▁emails	-14897
▁riches	-14898
▁accepte	-14899
▁defined	-14900
▁delivering	-14901
-22	-14902
cam	-14903
▁12.	-14904
endie	-14905
enser	-14906
▁till	-14907
▁Touch	-14908
▁Vidéo	-14909
▁plane	-14910
▁prête	-14911
▁Server	-14912
▁suisse	-14913
▁vieill	-14914
▁graphics	-14915
Pr	-14916
hot	-14917
▁pc	-14918
etta	-14919
▁Lex	-14920
becue	-14921
▁heads	-14922
▁plomb	-14923
▁réfug	-14924
▁spoke	-14925
▁anyway	-14926
▁exceed	-14927
▁healing	-14928
▁portail	-14929
▁rapidly	-14930
▁rembours	-14931
▁retourner	-14932
▁revolution	-14933
Mer	-14934
▁Om	-14935
▁FAQ	-14936
▁cod	-14937
▁nob	-14938
ersion	-14939
▁behalf	-14940
▁Parking	-14941
▁council	-14942
▁rejoint	-14943
▁involving	-14944
▁interviews	-14945
*,	-14946
GR	-14947
-03	-14948
mus	-14949
aret	-14950
oler	-14951
▁Cow	-14952
▁dor	-14953
▁nez	-14954
Photo	-14955
achus	-14956
ricket	-14957
▁gagné	-14958
▁quête	-14959
▁forums	-14960
▁passes	-14961
▁dessous	-14962
▁courrier	-14963
▁regroupe	-14964
▁alentours	-14965
intégration	-14966
▁supplement	-14967
-07	-14968
▁(+	-14969
▁Viv	-14970
▁era	-14971
andez	-14972
doors	-14973
leton	-14974
odium	-14975
érons	-14976
▁stup	-14977
▁merch	-14978
▁recon	-14979
▁Oregon	-14980
▁extend	-14981
▁walked	-14982
▁Springs	-14983
▁Tourisme	-14984
▁apprécié	-14985
▁auraient	-14986
▁controls	-14987
▁quartiers	-14988
▁résolution	-14989
▁convenience	-14990
▁remboursement	-14991
91	-14992
ENS	-14993
▁IC	-14994
build	-14995
▁Doll	-14996
▁cogn	-14997
abelle	-14998
alised	-14999
atelier	-15000
▁mettent	-15001
▁retrait	-15002
▁japonais	-15003
▁preparing	-15004
▁militaires	-15005
PER	-15006
erte	-15007
break	-15008
▁Stop	-15009
▁déch	-15010
▁Legal	-15011
▁Temps	-15012
▁inner	-15013
▁Battle	-15014
▁drinks	-15015
▁cerveau	-15016
▁farmers	-15017
▁illegal	-15018
DM	-15019
-02	-15020
uche	-15021
▁Abs	-15022
▁Bow	-15023
▁ben	-15024
▁tall	-15025
▁Autre	-15026
▁Jeudi	-15027
▁gained	-15028
▁bearing	-15029
▁dizaine	-15030
▁Boutique	-15031
▁exceptionnelle	-15032
IDE	-15033
din	-15034
hop	-15035
week	-15036
▁Fréd	-15037
▁lets	-15038
incoln	-15039
▁Urban	-15040
▁frapp	-15041
utilise	-15042
▁avenir	-15043
▁énorme	-15044
▁Quelles	-15045
▁anymore	-15046
▁défendre	-15047
▁entering	-15048
▁émissions	-15049
▁exhibition	-15050
▁integration	-15051
▁littérature	-15052
uez	-15053
essee	-15054
▁Sark	-15055
attaque	-15056
articles	-15057
▁Feature	-15058
▁Sécurité	-15059
▁reprises	-15060
▁retrouvé	-15061
▁highlights	-15062
▁paramètres	-15063
▁obligations	-15064
▁compréhension	-15065
lers	-15066
▁Arr	-15067
invent	-15068
▁Title	-15069
▁intim	-15070
▁Temple	-15071
▁député	-15072
▁Virtual	-15073
▁réalisés	-15074
▁accessibles	-15075
▁Uncategorized	-15076
Acc	-15077
ORD	-15078
oop	-15079
▁GU	-15080
rose	-15081
▁Tro	-15082
▁ara	-15083
▁rib	-15084
▁Pool	-15085
▁rejet	-15086
▁roads	-15087
▁Agence	-15088
▁blancs	-15089
▁farine	-15090
▁humans	-15091
▁slowly	-15092
▁engines	-15093
▁injured	-15094
▁introduce	-15095
▁prochains	-15096
▁thermique	-15097
acquisition	-15098
▁principles	-15099
habilitation	-15100
clés	-15101
tent	-15102
▁Abd	-15103
▁Hop	-15104
▁Bowl	-15105
▁Subs	-15106
▁spin	-15107
▁vess	-15108
▁Prest	-15109
▁lists	-15110
▁smoke	-15111
échelle	-15112
▁Racing	-15113
▁précisément	-15114
▁constructeur	-15115
ECH	-15116
non	-15117
▁$2	-15118
ouis	-15119
[...]
